Ġ t
h e
Ġ a
Ġ s
Ġ w
n d
Ġt he
e d
Ġ b
Ġt o
Ġa nd
Ġ h
Ġ f
i n
Ġ T
Ġw a
r e
i t
o u
Ġ l
Ġ d
Ġ c
Ġ p
a y
Ġ m
e r
Ġwa s
o m
ĠT he
Ġ he
i s
a r
Ġ n
i m
o n
Ġs a
i d
l l
Ġh a
Ġ g
a t
Ġ S
in g
o t
e n
a n
l e
o r
i r
a m
e t
Ġ H
Ġ it
Ġt h
i g
ĠThe y
Ġ in
i l
Ġp l
ĠH e
Ġ "
o w
v er
r i
u t
Ġb e
Ġ u
Ġsa id
Ġpl ay
it h
Ġd ay
Ġw ith
p p
O n
Ġ o
Ġ y
o o
k ed
Ġ r
Ġhe r
c e
Ġ I
ĠS he
l d
ĠT im
Ġh is
Ġs t
k e
Ġ e
Ġb ig
n t
c k
Ġy ou
ver y
s t
v e
e nd
Ġ on
u n
Ġha pp
ri end
Ġf riend
a ll
il y
Ġ L
Ġthe y
Ġw e
Ġha d
Ġn ot
Ġl i
Ġu p
he r
Ġwa nt
Ġo f
a d
it t
s e
Ġ B
Ġd o
Ġhapp y
en t
Ġ very
Ġ M
e s
Ġth at
Ġsa w
On e
' s
ou ld
Ġm om
Ġf or
Ġs h
itt le
Ġl ittle
Ġs o
Ġs he
c h
im e
Ġn e
Ġn am
. "
Ġt ime
Ġ k
ou nd
Ġthe re
Ġnam ed
Ġs m
Ġb o
Ġwe re
ĠL ily
Ġwant ed
Ġb ut
ou t
T he
Ġfriend s
v ed
! "
h t
ĠT om
ir d
e l
Ġb ird
a l
Ġa n
a ke
Ġto o
om e
ĠI t
u g
id e
Ġw ent
Ġw h
Ġhe l
On ce
Ġ is
Ġa ll
Ġhel p
u e
Ġl oo
Ġl o
t er
Ġ A
Ġup on
r y
o re
i nd
Ġf un
g et
Ġto y
i ll
am e
Ġa s
Ġa t
r a
Ġ j
Ġd id
get her
Ġ re
u r
Ġs e
Ġto gether
a ck
Ġc at
l y
Ġt re
oo d
i c
t ed
Ġdo g
Ġc ould
Ġc an
Ġthe ir
ar d
e c
ar k
Ġg ir
Ġplay ed
Ġh im
Ġb all
? "
Ġgir l
w ay
Ġr o
Ġg o
he d
m y
Ġa re
Ġ out
Ġl e
Ġf r
a in
Ġk n
he n
Ġthe m
u m
' t
a x
Ġsa d
u l
Ġbo y
Ġtre e
ot her
Ġha ve
Ġm an
Ġc l
Ġlo ved
Ġloo ked
ou g
Ġf ound
Ġs p
Ġst ar
ĠS ue
on e
h ing
Ġs c
Ġb ack
ow n
ĠM ax
a re
Ġli ke
f ul
s ide
Ġm e
Ġbe c
Ġp ark
ig ht
on g
Ġc ar
o p
el t
Ġ One
Ġli ked
Ġw ould
Ġm ake
r ound
Ġl a
Ġf a
Ġf elt
Y ou
Ġ W
e ll
Ġse e
ĠB ut
om et
Ġas ked
a g
Ġne w
Ġn o
i ce
ĠS am
ou se
Ġstar ted
ar ed
Ġc ame
ĠB en
Ġa l
Ġ other
oug ht
il ed
Ġs omet
Ġa g
Ġg ood
Ġsm all
s s
Ġb r
Ġsm iled
Ġs ay
ri ed
ad e
ing s
o b
p ot
Ġw or
Ġf ind
Ġe x
i a
Ġa way
t y
Ġp ut
Ġwh at
Ġsomet hing
Ġc o
Ġfr om
Ġm ade
Ġth ought
en ed
Ġh ome
Ġplay ing
oo k
Ġe very
Ġwa l
Ġm u
u c
a ch
ar n
ĠS pot
Ġr an
i le
Ġ F
i e
Ġ J
a ve
Ġag ain
Ġs ome
Ġla ug
d d
Ġh ouse
Ġd own
Ġf l
k ing
Ġtoo k
Ġsc ared
Ġp r
n y
u re
Ġtoy s
Ġle arn
Ġ You
i f
Ġw ill
Ġbo x
i ck
re t
a b
e p
Ġm y
Ġa round
Ġth ings
Ġyou r
ou d
Ġb l
u ck
Ġw hen
is h
Ġli ved
Ġf e
Ġthe n
Ġs un
a s
Ġs w
, "
Ġc h
u s
pp ed
Ġa b
ĠM ia
an k
Ġg et
uc y
T im
um p
T h
Ġl ot
is t
ot h
Ġt ried
a p
Ġkn ow
Ġsay s
Ġg ot
it ed
Ġwh o
Ġkn e
u st
Ġman y
nd er
Ġin t
Ġab out
L ily
Ġp ret
Ġd ec
Ġan y
Ġr ed
Ġ D
i ve
Ġkne w
a ce
ou s
Ġm ore
is e
Ġc are
all y
Ġp ic
a u
q u
Ġh ug
ĠL ucy
Ġlearn ed
Ġp o
Ġwa ter
f ter
Ġ v
Ġbec ame
Ġbe st
au se
Ġo p
Ġg re
Ġex c
ur p
way s
â Ģ
Ġout side
Ġlaug hed
Ġloo k
Ġal ways
Ġdec id
Ġsh ow
Ġu n
an t
ĠB ob
Ġro om
f e
Ġdecid ed
Ġh o
Ġbec ause
ĠS o
Ġint o
Ġe at
it e
Ġj ump
ĠA nd
Ġp e
Ġb oth
er s
ĠM om
Ġd ad
The y
u dd
Ġ ke
Ġon e
n n
Ġth is
Ġexc ited
Ġfa st
Ġn ice
Ġ E
Ġfe el
T om
Y es
Ġr un
Ġl ong
Ġto ld
Ġs k
Ġa m
urp r
ou r
Ġin side
u ll
Ġt r
Ġs urpr
Ġm o
in k
Ġpret ty
in y
Ġs or
W h
Ġt ake
o g
Ġs l
Ġe ach
Ġg ave
Ġmu ch
Ġg ra
le w
nn a
Ġro ck
Ġh ow
Ġst r
ar a
im al
Ġan imal
g ed
Ġne ed
Ġth an
B ut
v en
et ter
Ġto w
Ġ or
Ġ C
Ġu nder
es s
Ġo ld
Ġsor ry
g e
is ed
r o
ur t
Ġc le
Ġf ish
Ġwal ked
Ġcl o
a nd
Ġbe ar
f t
a se
a st
Ġha nd
ur n
ĠW e
Ġk ind
ĠH is
Ġt e
he re
Ġhapp ened
Ġj ust
Ġfl ow
Ġf ood
Ġl ist
Ġdid n
Ġanimal s
Ġh ig
p l
Ġne ar
Ġwa t
Ġ ide
Ġt ry
c hed
Ġsk y
in e
Ġs n
v ing
Ġf i
r om
Ġu s
Ġide a
Ġb etter
ĠA my
Ġb ug
Ġhe ard
g ry
Ġit s
Ġt w
Ġl et
p ec
at e
ab le
f f
Ġ en
Ġcare ful
Ġsh are
e x
Ġ if
Th ank
M om
Ġf ly
Ġst or
i al
Ġf lew
m ore
Ġany more
ĠT h
Ġsp ec
Ġspec ial
i on
Ġc om
Ġlot s
Ġne ver
Ġb y
l f
re am
Ġd an
Ġb u
Ġf o
Ġw ind
Ġd on
Ġt al
Ġcle an
or t
Ġg r
Ġlo ve
r m
b er
Ġe nd
Ċ Ċ
ĠThe n
op le
Ġe ven
Ġm ag
Ġh ard
Ġsh iny
udd en
Ġf ore
Ġo ver
Ġc ake
a k
Ġb ook
Ġco l
Ġt urn
Ġf am
Ġb ad
Ġsa fe
Ġa fter
ad y
ĠA nna
udden ly
Ġpe ople
Ġpr oud
ĠE very
Ġsurpr ised
pec ted
L et
Ġhig h
Ġc u
Ġh urt
Ġc ome
im b
ard en
Ġdo or
Ġg arden
b b
Ġg round
Ġop ened
Ġpic ked
Ġl oud
Ġcl imb
ex pected
Ġun expected
Ġg l
Ġc he
il d
Ġ im
A s
Ġg ive
Ġwa y
a il
' m
Ġthan ked
Ġcol or
Ġbl ue
Ġst ill
Ġe ver
Ġhug ged
ĠF rom
Ġc all
Ġf ar
i p
ĠH er
ĠS ara
ĠW hen
N o
Ġof f
Ġmag ic
i z
oug h
ag e
um my
Ġ K
Ġjump ed
Ġsh ould
Ġfam ily
Ġp ar
oo l
Ġk id
Ġsm ile
he s
u ff
Ġpl ace
k ay
Ġwal k
Ġn ow
c t
ĠI n
Ġgre at
e m
t ure
Ġ qu
le s
Ġstr ong
Ġst ay
Ġu nt
Ġst o
a ut
Ġfore st
an e
Ġb ra
itt y
Ġ P
Ġfr og
Ġbr o
Ġunt il
o on
Ġbe aut
d y
Ġs qu
Ġst ick
x t
Ġne xt
Ġbo at
le ase
n ing
Ġhapp ily
Ġlist en
a king
Ġkid s
Ġt ra
i es
i ful
Ġbeaut iful
Ġa pp
t h
Ġhelp ed
Ġd ra
Ġshow ed
Ġclo s
b e
Ġim p
Ġstor y
un ny
o y
Ġwh ile
Ġtow n
re l
p t
Ġr ain
re ss
Ġpic ture
Ġbe ing
Ġre m
Ġevery one
I t
ar y
re e
Ġm or
Ġha t
Ġcall ed
Ġm et
Ġsto pped
Ġa d
Ġg ame
N ow
H e
C an
Ġan gry
g er
uff y
Ġop en
Ġw o
Ġtr uck
Ġke ep
Ġso ft
W hen
Ġc ry
Ġy ummy
Ġlo st
Ġb ed
ĠL et
ĠS ally
Ġwa rm
b y
v ent
Ġbra ve
Ġm ouse
ĠW h
Ġat e
ĠK itty
is hed
Ġd e
f ore
Ġdo ll
s o
Ġcould n
Ġwat ch
Ġle ave
Ġal so
dd ed
Ġf ell
Ġgre en
Ġfa ce
Ġtw o
g an
is s
Ġflow ers
b it
Wh at
Ġ R
b le
Ġno ise
ab bit
ir st
ow l
Ġw here
a z
o ck
Ġso on
se lf
Ġsl ide
Ġr abbit
Ġho le
l uffy
Ġbe fore
ir rel
Ġp us
ir ed
Ġsa t
ill y
Ġhe ar
Ġu se
âĢ Ŀ
H i
Ġp a
Ġke pt
âĢ ľ
Th at
Ġsqu irrel
e ar
The n
m a
Ġno dded
Ġex pl
Ġst ore
Ġc ook
Ġhand s
L ook
Ġbird s
Ġp ain
Ġgo ing
Ġfun ny
Ġha ving
d ay
Ġs ing
ay be
u ch
Ġe y
a ug
Ġcat ch
aug ht
ĠC an
ĠF luffy
u it
Ġy ell
Ġth ink
le ep
Ġc ra
Ġf in
B en
Ġb re
Ġfi x
Ġt ired
Ġb unny
Ġus ed
Ġloo king
Ġb us
an ge
a ir
Ġwor k
Ġw r
Ġ our
Ġp ull
W e
Ġth r
t hing
Ġ Now
Ġwa it
Ġk it
Ġs ound
t ing
Ġj o
Ġha s
Ġ G
Ġme an
Ġpo nd
em ber
Ġbe h
Ġd r
Ġsun ny
l ed
Ġother s
Ġas k
n g
c hen
Ġkit chen
Ġtal k
Ġfl o
Ġd if
re w
Ġp ie
ĠJ o
Ġhe ad
Ġre al
Ġf irst
Ġt ri
Ġmom my
Ġey es
ell o
Ġimp ort
H ello
Ġfa v
at h
j oy
Ġ z
Ġrem ember
Ġr ight
Ġflow er
Ġc on
Ġm ess
Ġpar ty
Ġco ld
ĠD o
Ġv o
Ġsw e
i ous
Ġsa nd
Ġ âĢľ
a c
or n
Ġr ace
Ġcu ri
im es
Ġimport ant
Ġd uck
Ġmor al
Ġsh ared
z y
ou nt
ĠJ ack
Ġ ice
Ġo kay
Ġad vent
Ġwor ked
ll ow
A t
Ġen joy
Ġd ress
Ġbr ight
Ġm aking
Ġcuri ous
Ġ own
Ġt all
Ġd ir
Ġh op
re ed
Ġh id
Ġfav or
Ġ ri
h n
Ġs leep
Ġd is
W ow
Ġfavor ite
Ġth ing
Ġbe gan
Ġm on
Ġb ag
Ġh ill
D on
Ġcl a
Ġdra w
Ġre st
Ġhe re
Ġy ard
Ġt ell
ĠF in
st er
Ġwat ched
q ue
Ġfo llow
Ġmo ve
Ġbe l
ec t
Ġc ut
Ġn ight
Ġag reed
Ġp ick
c o
Ġbl ock
Ġh un
ap er
ll y
Ġst op
Ġbeh ind
ĠTh is
Ġsurpr ise
i ed
Ġsh o
Ġh ot
A fter
Ġt able
Ġgra ss
Ġwor ry
Ġd ark
Ġtre es
Ġvo ice
Ġwal king
fe re
Ġflo or
Ġfar m
Ġli on
Ġto p
Ġdif fere
Ġp lease
Ġr u
Ġs ong
Ġbut ter
Ġt ail
Ġswe et
M ax
Ġsh out
Ġcolor s
Ġre ad
ĠD ad
Ġl ady
Ġfor g
is y
Ġleave s
Ġclos er
ig n
Ġcar s
Ġturn ed
Ġneed ed
Ġt ast
Wh y
ar ing
Ġw ood
Ġc ried
Ġdiffere nt
Ġlaug h
Ġd el
Ġpie ce
âĢ Ļ
er ed
ĠM r
Ġro ll
Ġadvent ure
Ġfi re
Ġdo es
i ke
Ġc r
Ġhun gry
Ġha ir
ĠS uddenly
Ġp aper
Ġfeel ing
Ġyell ow
Ġf ull
b o
Ġpr in
S ue
Ġto uch
ĠA s
A nna
S am
Ġw et
Ġfriend ly
Ġp er
o om
k en
c ked
a ched
Ġsw ing
Ġfr uit
i ent
Ġbro ken
Ġre ady
by e
pp y
Ġpr om
ĠTh at
Ġan other
Ġl ight
Ġpret end
Ġdan ce
at er
Ġclimb ed
w here
Ġlist ened
ĠBob o
Ġdan c
Ġrun ning
Ġon ly
Ġpl an
Ġg one
Ġsw im
bb ed
S uddenly
s h
Ġtra in
il a
nd ma
S ara
ĠJ ane
Ġclo se
a v
S he
Ġsm ell
S o
ab y
Ġam az
Ġho ld
Ġblock s
Ġwo nder
ĠTim my
Ġre pl
ĠA ll
Ġbutter f
Ġse es
Ġre ached
Ġwa ll
Ġp u
one y
r ed
Ġsl ow
Ġhelp ing
Ġd ri
Ġc ream
Ġc ool
Ġgl ad
a f
Ġa nt
Ġl ess
Ġbe en
Ġgood bye
Ġa c
Ġf ight
at her
M ia
Ġpus hed
ic ed
Ġfa ir
Ġmu st
Ġh ide
Ġmom ent
Ġwind ow
Ġ O
Ġs it
Ġball oon
Ġsn ow
Ġch ild
Ġexpl ore
ĠEvery one
Ġa r
Ġw ished
Ġb aby
Ġd one
Ġwa g
Ġst e
Ġbu y
Ġst uck
Ġper f
Ġth ank
Ġm ight
ic y
Ġnam e
iz ed
Ġtry ing
Ġb it
Ġcom ing
Ġb ar
Ġqu ick
Ġf all
Ġapp le
as h
Ġsc ary
Ġlook s
Ġbu ild
Ġdo ing
Ġw in
Ġunder st
a isy
Ġd in
Ġd ream
Ġdir ty
Ġhe ld
am es
Ġbook s
Ġm ar
I n
Ġbutterf ly
Ġle ft
Ġshout ed
Ġc ount
Ġrepl ied
av y
Ġre ach
Ġt iny
Ġthr ough
ot t
Ġd ro
Ġwh y
Ġa ir
Ġbr an
Ġla nd
ke y
Ġth ree
Ġpull ed
Ġsp l
Ġgr ow
Ġtre at
Ġbr other
Ġw ise
Ġwood s
Ġs ure
' re
Ġch air
i x
Ġm at
in s
Ġse en
Ġp ink
Ġcla pped
Ġpl ant
el y
Ġ owl
Ġcu p
ie ld
Ġsomet imes
and y
Ġf ill
Ġcl oud
as k
Ġsw am
out h
Ġj ob
Ġcolor ful
Ġremember ed
Ġbig ger
Ġne st
Ġm outh
p e
O kay
Ġless on
Ġjo in
Ġc re
p h
ĠThe re
ou p
ro om
ar t
Ġwa ved
udd y
Ġgra bbed
Ġstay ed
O h
Ġpain t
Th is
Ġcl ot
Ġcon t
Ġclot hes
Ġ ve
ow er
ĠA fter
Ġwa ited
Ġquick ly
c le
Ġwor d
Ġbro ke
uck y
Ġg ames
Ġc ast
Ġb lew
Ġg ent
ĠMom my
Ġenjoy ed
Ġnot iced
J o
ri es
at ion
Ġs et
Ġlike s
Ġpicture s
t on
d e
Ġse a
Ġhe avy
Ġmu s
Ġal one
Ġg if
as ure
Ġany thing
Ġsp ot
Ġm iss
Ġho pped
Ġwor ld
Ġturn s
or m
Ġy ear
d er
Ġb ott
Ġp at
Ġp ot
Ġp en
l c
H er
Ġm ix
Ġa rm
Ġb ike
Ġt ight
Ġevery where
Ġw on
L ucy
Ġtow er
Ġth rew
Ġhim self
Ġfollow ed
ĠB uddy
Ġr ide
m an
le ss
Ġj u
Ġj e
am p
B ob
ap e
Ġcom p
Ġke y
r ow
" .
Ġwh ite
ct or
Ġwr ong
ĠD aisy
Ġmake s
ĠWh at
Ġbre ak
Ġbl ack
are nt
e e
n er
S pot
D o
Ġde ep
th y
Ġmus ic
Ġpo l
Ġdel ic
ce ss
u ed
Ġforg ot
Ġbe e
Ġp arent
Ġcast le
ve s
o lly
Ġe m
i et
Ġwe ar
Ġh it
is ter
ou n
Ġqu iet
Ġr ound
an ce
Ġst u
Ġdanc ed
Ġv is
ull y
Ġwant s
Ġle af
Ġmon ster
Ġn ap
ĠJo hn
Ġunderst and
an g
Ġb owl
o s
r ot
re n
Ġb or
Ġtal ked
itt en
Ġd ry
Ġfast er
Ġcook ies
Ġbr ought
f ully
Ġle g
ro ss
Ġm um
z z
Ġs ide
t s
F rom
Ġs ign
ĠIn side
Ġsm art
c y
Ġrock s
Ġsome one
H is
Ġpo in
Ġse c
Ġsh aring
Ġfo x
Ġwe ll
Ġre s
Ġre l
Ġhapp en
Ġbut ton
Ġbran ch
ĠL ila
Ġre ally
Ġfin ished
en ce
ard s
Ġdin ner
Ġs ister
Ġfly ing
ed dy
Ġcont in
Ġwor ried
Ġe le
ĠT o
Ġvis it
ĠM aybe
Ġbe ach
Ġ que
Ġsec ret
Ġe l
ĠSara h
Ġk ing
Jo hn
g y
Ġto day
Ġperf ect
Ġri ver
Ġevery thing
Ġs illy
Ġsh in
ĠJo e
Ġdan ger
i pp
Ġchild ren
Ġg u
ĠSo on
Ġf ield
Ġfill ed
Ġf ur
Ġel se
Ġsmile s
Ġwe lc
ĠA t
Ġw ish
ĠE m
Wh ile
Ġsa ng
Ġg i
z e
Ġp udd
Ġsn ack
Ġeat ing
Ġreal ized
Ġpiece s
Ġprom ised
or d
Ġsp r
Ġp ig
Ġf ree
Ġcontin ued
Ġb ite
e ad
Ġparent s
Ġcare fully
at ed
itt ing
Ġe ar
J ust
Ġj ar
M aybe
Ġc ow
A my
Ġbl ank
Ġdra g
st ead
Ġor ange
Ġmu d
Ġcry ing
Ġblank et
Ġen ough
Ġroll ed
ck et
Ġs oup
Ġsa il
Ġp urp
im i
Ġy es
a le
Ġdr ink
Ġsn ake
se s
Ġb oun
Ġp et
Ġcra b
Ġthr ow
Ġlaug hing
Ġfair y
Ġword s
Ġamaz ing
Ġb ath
i ch
Ġpurp le
Ġ Z
Ġwith out
i re
Ġbott le
ĠB illy
Ġgif t
Ġgra ndma
F in
us ed
on s
Ġp ast
Ġm oney
i ver
f ort
Ġm ail
ĠG ra
Ġbar ked
Ġwag ged
Ġat t
ch ool
Ġmon key
Ġdo ctor
un ch
Ġbr own
Ġmo ved
is es
Ġask s
Ġget ting
Ġclos ed
Ġw he
Ġwelc ome
Ġs u
Ġc andy
Ġs chool
Ġmor ning
Ġown er
g g
Ġl on
Ġm other
Ġhig her
Ġs itting
Ġtre asure
. âĢĿ
Ġsm o
! âĢĿ
Ġdanger ous
Ġlon ely
ĠC h
Ġli ving
Ġapp les
us h
Ġsh op
as ed
Ġstr ange
ve l
Ġshin ing
Ġro ad
e re
ĠTom my
Ġcre at
un a
Ġpa w
Ġr a
e y
Ġsho es
Ġp re
i ble
Ġ -
Ġst re
Ġtal king
al thy
Ġc aught
Ġe gg
o l
Ġpa ss
m e
Ġl ake
Ġrun s
Ġb uck
Ġl etter
Ġw ings
Ġche e
f ish
Ġm ad
Ġf an
ask et
Ġb asket
a ss
Ġdrag on
a pp
Mom my
s et
ck s
Ġst one
Ġthink s
Ġst and
Ġdelic ious
Ġno se
Ġpudd le
Ġto m
ĠB l
ĠM imi
Ġbel ie
Ġfarm er
Ġsa me
Ġyear s
bo ard
Ġt eddy
Ġb at
is k
it ch
Ġm ine
Ġse ar
Ġco at
c hes
ig h
Ġday s
Ġbr ing
Ġgent le
Ġf it
Ġstar t
Ġfin ally
Ġwh ist
Ġcr ay
ig g
Ġsc ream
Ġk ite
Ġp ill
ph ant
ar m
Ġv ill
Ġch o
Ġsing ing
ell a
s w
in ed
Ġtast y
Ġp h
Ġb en
Ġtr ou
Ġshe ll
Ġher self
Ġhop ed
Ġan sw
Ġw ore
Ġsw ings
s y
Ġh or
Ġbel ong
P lease
Ġpus h
Ġbus h
isk ers
Ġcar rot
Ġar ri
aught y
Ġte ach
b ow
ra ct
Ġn aughty
Ġele phant
Ġdro pped
Ġsh ap
i er
Ġco ll
s c
Ġte ac
e my
Ġwo ke
b all
Ġp ile
Ġhid ing
Ġc our
is a
er ry
Ġto uc
Ġm in
Ġpu ppy
' ll
Ġsee m
ll ie
Ġtw ins
am a
Ġl unch
Ġb ow
Ġsa ck
Ġp ers
Ġcour se
Ġche ered
Ġshap es
ĠJ en
Ġgre w
f used
Ġro pe
Ġvill age
ir th
irth day
Ġju ice
i pped
Ġrain bow
Ġsp in
O K
Ġsh ook
J ack
Ġsp oon
Ġben ch
Ġstre et
Ġf ence
Ġcut e
ĠF red
Ġro b
Ġn ut
Ġchee se
Ġpr ob
Ġtouc hed
id ge
co l
Ġj oy
ĠWh iskers
Ġarri ved
Ġse ed
Ġwa r
Ġteac her
Ġc orn
G ood
Ġfore ver
Ġab le
Ġbe ll
Ġfe w
Ġcar ry
Ġmo st
Ġpl ane
ĠBl ue
le m
Ġe as
Ġsound s
ll a
Ġd es
Ġsp o
Ġprob lem
Ġb irthday
Ġp ower
Ġin c
um b
b r
Ċ Ġ
Ġbug s
il k
Ġwonder ful
Ġdoll s
Ġbus y
at o
ir p
e b
Ġw ra
Ġprom ise
ĠTh ank
Ġfeel s
i an
ĠEm ma
et er
Ġbre ad
Ġne ck
Fin ally
Ġm ilk
Ġrob ot
Ġre c
Ġsh y
ount ain
Ġk iss
ir t
Ġhear t
Ġb and
Ġc ave
Ġpo cket
u b
Ġhelp ful
g ly
Ġslow ly
Ġbelie ve
Ġsh ake
ump y
e ared
Ġpat ient
Ġp op
Ġo b
ar p
Ġli ve
Ġstor m
Ġhold ing
Ġu gly
Ġtow ards
Ġup set
Ġt urt
Ġsh r
ad ow
Ġco ver
Ġk itten
o st
ĠR emy
Ġsh arp
Ġdis app
Ġstor ies
Ġs uc
Ġh oney
o ve
ĠB ella
re ad
Ġno ises
ĠL e
Ġc ir
Ġball s
Ġsp ark
Ġgr ay
Ġd ist
Ġdir t
og gy
Ġl ate
Ġdri ver
Ġse at
Ġbuck et
Ġme et
Ġyou ng
Ġamaz ed
Ġturt le
al m
Ġsp id
Ġtreat s
Ġmagic al
u nt
at or
Ġgl ow
Ġsee k
Ġz oom
Ġle m
Ġsand w
fort able
um ber
Ġtri p
Ġm ist
our n
Ġspl as
Ġm ark
Ġj ourn
Ġfo ld
Ġm ach
Ġpu zz
Ġpar t
l ing
Ġhor se
Ġor gan
Ġw ild
Ġprin cess
pp ing
oo se
Ġcook ie
S ure
en s
Ġhug s
ĠM ark
Ġt aking
un g
Ġwhe el
ep end
Ġcl oth
ĠL isa
Ġs ug
Ġin stead
Ġbu bb
Ġstr ing
Ġn et
Ġdro ve
il ing
Ġru de
Ġhug e
ĠJ im
Ġco in
Ġstar s
Ġfight ing
B e
Ġsp icy
Ġl ucky
O f
Ġcra w
He y
Ġb one
Ġin v
ĠGra ndma
or s
n ot
Ġc a
pp er
Ġfor get
u p
Ġd i
a ur
Ġsa l
ĠFin ally
Ġcan not
Ġwhist le
Ġc ard
Ġs ick
Ġp ath
Ġc ou
Ġspid er
Ġw ide
L ila
Ġfo ot
Ġsnow man
Ġsong s
Ġli fe
Ġpill ow
iz e
ul ar
ĠJ ust
L ater
e st
ĠA nn
er t
Ġfix ed
Ġgi ant
op h
ri ll
Ġno d
Ġbo ss
Ġla st
Ġcom es
Ġjo ke
Ġmo on
Ġtast e
d en
Ġmach ine
Ġgr umpy
Ġwa ve
Ġth in
Ġdri ve
Ġcar t
Ġas h
Ġs er
Ġgra b
Ġpe ace
l ower
Ġdad dy
Ġ On
ĠLe o
er y
Ġs el
Ġshe lf
Ġhid den
ere st
Ġs uddenly
Ġwas n
Ġwr ite
Ġland ed
Ġcon fused
Ġr ing
Ġch ange
Ġwor m
Ġint erest
Ġch ased
oo p
Ġfruit s
Ġs our
it y
Ġmy ster
Ġb ark
Ġr ad
Ġsmo oth
ĠC ome
Ġadventure s
Ġv al
Ġste pped
Ġf le
op e
Ġo ven
Ġtake s
Ġmiss ed
Ġsel fish
k in
Ġshe ep
Ġmess y
T o
Ġac ross
Ġ ent
Ġex p
t o
Ġc e
Ġl ater
ell y
Ġ N
if e
Ġstick s
Ġt ie
S t
e ver
ĠL una
Ġst ep
Ġb ought
Ġd rew
Ġte a
pec t
Ġb an
irp y
bo x
? âĢĿ
Ġwas h
Ġl ay
Ġp our
Ġbe ak
o se
Ġj og
Ġgr ate
Ġduck s
Ġsp e
Ġleg s
ug g
Ġf il
ĠB u
Ġem p
m er
Ġhop e
Ġemp ty
Ġsl id
Ġfe ather
Ġsleep y
Ġdr um
am ed
ar s
et h
Ġz oo
Ġp an
Ġph one
Ġgrate ful
Ġf ing
ion s
Ġlem on
le t
ĠC at
Ġcle ver
ĠM olly
Ġsmell y
Ġim ag
Ġspl ash
Ġinterest ing
ĠJ ill
Ġsa ve
Ġch ick
Ġc alm
Ġm ed
Ġwatch ing
S oon
iz zy
iz z
Ġpl ate
Ġ ign
y ard
Ġcloud s
Ġban an
Ġl ine
Ġface s
Ġb a
Ġa ct
Ġli ft
Ġth ough
Ġwo lf
Ġback yard
w el
Ġseem ed
Ġdog s
Ġspr ay
C ome
Ġpr ot
Ġwho le
Ġm ot
Ġfan cy
ĠDad dy
Ġque st
Ġarm s
Ġpuzz le
Ġhe althy
Ġsu pp
w ard
Ġfin ish
er ly
Ġal ong
ll o
Ġrock et
Ġexpl ain
d ge
Ġeas y
Ġje wel
on t
Ġp ract
Ġj elly
ĠCh irpy
Ġt id
Ġf ake
Ġcray ons
Ġwonder ed
Ġm aybe
Ġsc ar
Ġsh ip
Ġnot hing
one st
Ġem b
ig er
Ġp ool
Ġlong er
Ġany one
ĠB e
ĠJ erry
u ally
Ġfr ont
Ġwor king
Ġgive s
ir r
Ġp ack
Ġs uch
ĠB unny
o cked
m ent
Ġboss y
ĠD oggy
Ġtrou ble
Ġsmell ed
Ġsa ved
Ġp in
ra ss
Ġne igh
ar rass
it ing
Ġh onest
Ġa v
ar ge
Ġemb arrass
Ġv an
Ġforg ive
Ġtid y
Ġwe ak
ur se
Ġput s
un k
Ġk ick
Ġsh irt
ĠW ith
Ġm ind
ĠO llie
Ġneigh b
Ġplant s
Ġso l
ĠMom o
Ġgent ly
Ġco zy
or row
m ing
Ġexpl or
s p
Ġmist ake
Ġy og
o c
oom y
Ġpoin ted
Ġl ad
Ġa f
Ġst ood
or k
Ġon to
Ġwait ing
Ġjump ing
Ġprin ce
Ġc ross
Ġlo ck
Ġche er
Ġque en
ĠWh y
ĠM ary
Ġw ing
on es
w e
Ġl arge
Ġlove ly
ul t
Ġs ur
Ġre t
A nd
Ġde er
Ġche w
Ġcou ch
Ġb al
aught er
Ġst ret
er a
ĠThe ir
Ġplace s
ĠM y
Ġlad der
oo f
Ġret urn
ra id
Ġant s
Ġd ish
Ġaf raid
Ġclean ed
Ġtom orrow
Ġbuild ing
Ġsandw ich
Ġpers on
S ally
n ed
Ġpretend ed
Ġboun ce
Ġw ip
ge st
Ġmat ch
Ġri ch
u ce
Ġp izz
Ġg ather
Ġsear ch
Ġbor ing
om an
ĠS omet
Ġte eth
Ġh um
K itty
M y
ac ed
Ġd aughter
Ġw oman
Ġscar f
Ġgo es
ĠTo gether
Ġla w
Ġst ra
Ġswim ming
Ġfur ry
Ġsplas hed
Ġp ri
Ġlove s
Ġtr ue
Ġscream ed
Ġla zy
Ġg en
Ġansw er
Ġn umber
Ġe ag
Ġash amed
Ġpizz a
a w
Ġapp eared
Ġfe ar
Ġnear by
Ġpower ful
Ġfl ag
ĠS t
Ġha ng
v ous
Ġcl own
e k
Ġch ase
Ġmot or
Ġwa nd
ĠT V
Ġru b
Ġsuc cess
Ġcho col
ĠI f
Ġcreat ive
Ġtr ust
Ġwe aring
Ġno isy
Ġmat ter
p a
Ġd ig
Ġhe llo
Ġn er
Ġtoo l
Ġsa f
ĠB ird
ad o
Ġner vous
el p
Ġte st
Ġsm iling
Ġso ld
ic ked
o ppy
os aur
Ġcir cle
m b
Ġm ap
Ġdr ank
Ġcla ss
Ġtri es
Ġchocol ate
ĠP lease
Ġimp ress
Ġkne e
Ġgen er
Ġdin osaur
Ġpol ite
Ġm irr
ĠBob by
ĠT iny
Ġballoon s
Ġgo ld
Ġr are
Ġprot ect
Ġc and
St op
Ġcar ried
ĠG o
ens ive
Ġa p
Ġsh adow
Ġmirr or
ĠD on
Ġba ld
Ġg un
in a
Ġexp ensive
Ġre g
if f
Ġmyster ious
ĠS p
Ġp ump
Ġnot e
Ġher o
Ġmar ch
Ġh ar
ar l
Ġ icy
Ġres pect
Ġwe ird
Ġsn ee
Ġc ri
Ġg ate
Ġso ap
ra g
ut e
iss ors
Ġthe se
Ġpo or
Ġtow el
Ġwh ale
Ġfe et
Ġt ape
Ġd izzy
itt er
Ġgener ous
nd pa
Ġpre s
ĠBen ny
n ic
Ġdis co
H elp
vent ually
Ġpic nic
Ġm ic
Ġle ad
Ġs que
Ġembarrass ed
Ġjourn ey
Ġsug ar
is p
sc ape
Ġbo ot
Ġt ent
Ġpeace ful
Ġf at
ĠB ear
Ġsc issors
Ġtast ed
Ġyell ed
Tom my
Ġt ick
Ġm el
Ġbr ush
Ġdanc ing
n ess
Ġgl ue
Ġh ur
Ġr ough
Ġcl ap
Ġbr idge
ot e
Ġdec or
Ġclos et
Ġcr own
Ġst ir
u al
im p
Ġprin t
ĠSomet imes
ow ed
air s
ĠH ow
um e
Ġc ap
Ġl amp
Ġv ase
Ġsc are
le br
Ġrel ie
l ves
an y
Ġe ld
Ġte le
Ġce lebr
Ġg igg
Ġwh isp
Ġlo g
Ġsc o
Ġbl ow
Ġpain ted
ĠD ucky
Ġp ay
er ries
Ġw is
Ġb erries
Ġmix ed
Ġsp read
Ġwould n
Ġc age
Ġb ake
r ob
get able
Ġm ountain
Ġad m
Ġdraw ing
Ġbec ome
Ġfam ous
Ġkn ocked
Ġbe an
Ġn orm
Ġve getable
as p
Ġk icked
ust r
Ġsh ark
s er
Ġinc red
Ġlo se
Ġnorm al
Ġwra p
c ed
Ġgr oup
Ġth ick
Ġ 3
Ġf ine
Ġgl ass
Ġign or
Ġclo ck
Ġte am
Ġeld erly
Ġcle ar
Ġcorn er
Ġfr ustr
Ġmight y
rob e
Ġc one
Ġincred ible
ĠB r
ig hed
D ad
Ġmom s
Ġbal ance
Ġso ck
Ġsp ace
Ġj am
rag ile
Ġfr ight
Ġorgan ized
Ġbran ches
Ġro ar
p ort
Ġsw ord
al ous
ĠM ama
Ġgu ess
Ġf ool
Ġse ll
Ġfe ed
ĠS ome
Ġwh ich
Ġh orn
Ġpres ent
Ġje alous
Ġy arn
on y
Ġf ragile
Ġb urn
Ġunderst ood
Ġm is
Ġstu bb
Ġt er
Ġfrustr ated
W here
r ay
Ġho se
c ient
Ġsp ent
Ġsho e
Ġt aught
Ġstubb orn
Ġtw ist
Ġcreat ure
Ġche st
Ġspo iled
Ġrelie ved
Ġan cient
i que
Ġwa ke
Ġfi er
Ġpr ay
Ġfier ce
Ġegg s
Ġc ab
Ġter ri
Ġb arn
Ġpump kin
Ġcom fortable
Ġor d
y m
Ġfright ened
or ry
Ġto ug
Ġun ique
Ġme asure
Ġgo at
Ġwag on
Ġun us
Ġbre ath
Ġfool ish
Ġuse ful
Ġexplor ing
d le
Ġstra w
Ġunus ual
Ġd ug
Ġcl ay
Ġdisco ver
Ġtom ato
ĠP e
Ġde ad
Ġfind ing
Ġpol ice
Ġwr ote
Ġcl um
Ġex am
l ace
Ġwa ves
Ġsqu are
Ġhear s
Ġcab in
Ġtell s
Ġneck lace
Ġd ull
Ġclum sy
Ġtoug h
Ġbubb les
Ġno sy
k n
Ġsear ched
To gether
Ġwas hed
Ġbath room
Ġpaw s
bb y
o nd
un n
an ged
Ġbo ard
f ic
kn own
Ġas king
Ġcra zy
Ġthank ful
Ġsun f
Ġb itter
y al
Ġp ir
ber ry
al k
Ġ ind
Ġdif fic
Ġro se
c il
Ġsw an
Ġbl oom
Ġun known
ĠE lla
Ġcover ed
Ġdiffic ult
Ġa dd
Ġpen cil
Ġfing er
Ġha m
Ġh oop
Ġj et
Ġw itch
Ġdr op
M e
Ġ '
Ġchick en
Ġgl oomy
a pped
Ġlo yal
al s
He re
Ġwe althy
c om
l ight
Ġun l
Ġcat s
Ġend ing
Ġg uit
b led
sh ine
Ġdo ve
Ġjoin ed
Ġc her
an ut
Ġmo v
Ġterri ble
Ġyour s
i ant
Ġ U
ĠR ex
Ġsal ad
ĠAnd y
Ġnut s
Ġr at
g round
Ġt iger
Ġpot ato
Ġm ask
x ible
se lves
Ġval ue
Ġch anged
Ġmo ving
Ġexc iting
orm ous
ĠM any
Ġbo dy
ĠT r
Ġto ast
Ġrec ord
er p
Ġz ip
Ġdis g
Ġche ap
Ġguit ar
irst y
Ġknow ing
Ġadvent ur
Ġyour self
Ġen ormous
Ġhair y
E very
Ġsho ot
ĠBr own
Ġbor ed
Ġpe pper
Ġrem ind
or y
l and
Ġac orn
Ġadventur ous
Ġsun shine
Ġsmall er
Ġst uff
Ġhat s
Ġsol ve
ĠJim my
Ġfle xible
Ġco st
rill iant
Ġkn ife
Ġperf orm
Ġsnack s
Ġnod s
Ġsh ore
Ġb rilliant
Ġth irsty
Ġdelic ate
Ġfr own
Ġdisg ust
Ġcoll ect
Ġst ri
Ġseed s
Ġcount ed
Ġas leep
Ġbanan a
re en
Ġmail box
in ess
Ġd ough
Ġtri ck
Ġneighb or
ung le
Ġhe al
l ive
Wh o
Ġst age
id ent
Ġmark et
Ġcu be
Ġst at
Ġj ungle
Ġsque e
mb re
Ġexplain ed
at es
Ġu mbre
Ġdisgust ing
J im
f ted
Ġla b
Ġjo lly
Ġfl ash
u nd
Ġfr idge
in al
p id
il t
Ġcr ane
c orn
Ġs uit
Ġr h
id dle
Ġsunf lower
Ġt imes
ĠA l
erp ill
Ġcat erpill
Ġrel ax
Ġsh iver
Ġf our
Ġis land
ig inal
Ġh arm
ic t
ĠWh ile
y ing
Ġstu pid
Ġmed ic
ĠIn stead
Ġcom b
Ġg oose
Ġc ro
ed ient
ĠW ill
Ġsto ve
I f
A re
Ġind epend
M um
m ost
Ġspr ing
Ġg em
Ġbat ter
Ġs ighed
Ġvegetable s
Ġst ones
p es
Ġsh ine
H ow
Ġmedic ine
Ġd epend
Ġr ug
ĠYou r
Ġcare less
Ġor iginal
Ġst amp
Ġg ar
Ġc ries
In side
g u
Ġcarrot s
Ġsc r
Ġsuccess ful
Ġsa uce
Ġje ep
Ġpop corn
Ġme al
Ġob edient
Ġal most
Ġm iddle
Ġmag n
Ġstu dy
Ġindepend ent
Ġfear ful
Ġj ack
m et
ink y
S orry
ĠSam my
Ġe scape
Ġcaterpill ar
Ġser ious
Ġpe anut
Ġbed room
Ġeag er
ak en
Ġget s
Ġpar rot
Ġstat ue
Ġhel met
Ġpe bb
Ġ No
Ġf ountain
Ġra ven
Ġan g
Ġpast a
Ġumbre lla
Ġcomp et
The re
Ġjack et
Ġbelong ed
Ġde st
Ġfil thy
Ġdes ign
Ġbor row
Ġc am
er able
Ġhouse s
Ġpri ze
Ġh ay
Ġbra ce
Ġstand ing
Ġmis erable
Ġr aced
Ġt aken
ag es
Ġfor k
Ġcray on
Ġpain ting
i o
Ġtri ang
Ġimpress ive
Ġch oose
Ġf ig
Ġt ied
ia ble
Ġspot ted
Ġli fted
Ġsl ipped
our s
Ġt ank
Ġthought ful
Ġdepend able
Ġste al
Ġgar age
en ny
Ġbu ilt
Ġmu sh
Ġ er
ip e
Ġmo le
Ġcraw led
Ġsc ale
Ġboat s
Ġp ian
Ġp ant
Ġham mer
Ġbott om
l ph
Ġcheer ful
Ġus ing
Ġsmo ke
Ġpick s
Ġmo der
ber ries
Ġshow s
r n
Ġpian o
Ġmagn et
d ile
co dile
Ġhurt s
in ary
Ġre f
Ġcra ck
Ġen g
Ġa unt
Ġmel on
Ġwa ff
Ġmoder n
Ġdo lph
unn el
c ream
p ack
Ġt unnel
o in
Ġar row
Ġrel iable
Ġho pping
Ġmush room
Ġj ug
Tim my
Ġsqu ash
Ġg um
Ġs ink
Ġmov ie
Ġt ax
Ġfl ute
Ġbe et
Ġle an
The ir
i v
Ġpop ular
op ter
ic opter
Ġcry st
Ġon es
Ġs il
Ġcompet it
Ġhel icopter
as er
Ġneed s
ip op
ll ipop
Ġcro codile
Ġli z
M olly
Ġp ress
Ġtrou bled
Ġpig e
Ġlo cked
Ġtri cks
Ġlo llipop
Ġplay ful
Ġhum ble
Ġtax i
Ġkiss ed
Ġl ow
a ppy
com fortable
am ond
Ġun comfortable
Ġr id
h ost
Ġwa nder
at ch
Ġang el
ed y
c les
Ġto rn
Ġgra ce
Ġan x
Ġwra pped
Ġmu ff
Ġtw ig
Ġpant s
Ġdisapp oin
ĠS n
Ġhelp s
Ġdi amond
Ġcam era
at ter
ot o
Ġanx ious
Ġg host
Ġte ars
Ġru ined
c ident
ĠJen ny
il ty
Ġqu ar
a ff
ĠE ven
Ġf is
op l
Ġbel t
er opl
Ġen v
Ġgu ilty
Ġb ull
Ġa eropl
Ġhelp less
Ġhapp iness
Ġliz ard
Ġboy s
c ut
ex t
Ġc ere
Ġwalk s
ce an
Ġpass ed
Ġme ant
Ġo cean
Ġfl uffy
Ġw ire
Ġn ail
Ġbrace let
Ġde af
z ed
Ġstret ch
Ġcand le
Ġca ct
t t
Ġbeet le
Ġm op
Ġharm less
ump et
Ġord inary
Ġansw ered
Ġcoll ar
Ġc op
Ġbe es
Ġt ire
Ġsh ape
Ġquar rel
Ġrad io
Ġflash light
Ġcryst al
Ġhard er
Ġpour ed
Ġtr umpet
Ġeng ine
M ama
Ġpers ist
Ġh unt
Ġto oth
Ġcere al
Ġinv ited
Ġcomp ut
Ġt ag
Ġoff ice
Ġm elt
Ġsp ill
Ġch arm
co a
Ġl it
Ġsco ot
Ġc omet
Ġtriang le
ie f
Ġm ug
Ġre p
u be
Ġyog urt
Ġsp end
Ġcomp ass
Ġac cident
Ġsh ade
he tt
ag hett
aghett i
Ġdisappoin ted
Ġli cked
Ġcact us
Ġpa le
Ġc ush
Ġfig ure
Ġreg ular
Ġgi ving
Ġav oc
Ġpr o
Ġshe et
Ġwhisp ered
az e
ut h
ell ig
Ġcre ate
Ġbar ber
Ġint ellig
Ġp ipe
Ġro de
Ġr oof
J ane
Ġth read
it her
Ġv i
Ġlo ad
Ġli br
Ġgif ted
c col
Ġpract iced
Ġdel ight
ccol i
Ġhar sh
as ses
Ġp ow
Ġd ust
ĠTr ue
Ġb icy
az z
Ġsp aghetti
Ġcompass ion
Ġsa iled
ur key
u bby
Ġfor ward
Ġpersist ent
Ġspe ed
Ġm itten
Ġco coa
Ġen vel
Ġquest ions
Ġcomput er
Ġc oo
Ġfeather s
h ip
Ġgl ove
g ing
Bob o
Ġri ce
Ġshr imp
Ġdes k
Ġst ream
Ġin se
Ġpige on
Ġcharm ing
Ġear s
Ġcar p
lc an
Ġra ft
Ġenv ious
Ġkn ot
Ġt urkey
Ġstrong er
om es
Ġco ins
Ġt ap
lcan o
we et
Ġtra p
umb ers
Ġaeropl ane
Ġtr unk
Ġwhe at
Ġbox es
Ġch ubby
Ġcarp et
Ġrest less
Ġintellig ent
Ġt ube
Ġsp un
Ġdream s
Ġfriends hip
ul if
ol in
Ġha lf
Ġloo p
Ġcraw l
Ġbro ccoli
Ġon ion
Ġdel iver
an ger
Ġac ce
Ġv ide
Ġvo lcano
ĠJ ake
Ġs le
Ġtra ck
Ġb ri
Ġca ulif
Ġv ine
y e
Ġtick et
Ġth ief
ess ie
cy cle
Ġloud er
Ġinse ct
Ġn umbers
as ing
Ġy aw
Ġhair cut
it al
Ġsleep ing
Ġm ill
Ġe ventually
Ġal ert
Ġexc ite
Ġpebb le
Ġho sp
Ġatt ract
Ġplan et
ĠTo day
Ġun iver
is ted
ul u
Ġhosp ital
Ġer aser
Ġreturn ed
Ġdest ro
Ġgrace ful
Ġhappen ing
ac he
ĠO K
ĠEm ily
Ġdec ide
Ġlearn ing
Ġsc reen
rew ork
Ġnice ly
Ġle op
Ġcaulif lower
Ġcompetit ive
Ġpo em
Ġcelebr ate
Ġc urt
Ġpe ach
Ġsold ier
Ġsa us
Ġpar ade
at ient
Ġattract ive
Ġcurt ain
Ġdolph in
Ġb ase
Ġvi olin
Ġway s
G o
at s
Ġtra vel
t en
Ġro d
Ġignor ant
ul b
Ġwheel s
Ġy ach
Ġsc atter
Ġd eter
Ġcompassion ate
Ġbar rel
Ġenvel ope
Ġbubb le
Ġl ying
Ġfi rework
Ġsor t
Ġquest ion
z zy
ĠP ipp
Ġscoot er
Ġdeter m
Ġr ag
Ġth u
Ġbicy cle
el ery
Ġneed le
ĠF r
Ġju dge
Ġb ulb
Ġleop ard
Ġte m
Ġyach t
Ġp ony
Ġcri cket
Ġor der
Ġh omes
Ġad or
ter n
Ġtr uth
Ġh ook
d om
Ġru bbed
et e
ig ator
Ġbus hes
Sara h
Ġun cle
Ġcush ion
Ġsp ell
Ġgr own
Ġcoo ked
Ġador able
Ġch alk
Ġso ar
Ġp urse
Ġsk in
Ġthem selves
Ġimp atient
Ġc elery
Ġtr ay
Ġshell s
Ġpen gu
Ġsn iff
Ġpr un
Ġwall s
Ġse al
Ġlive ly
Ġc ase
Ġall igator
Ġdist ant
Ġrad ish
Ġsay ing
Ġspe ak
Ġmotor cycle
Ġme at
Ġs end
ill a
Ġspin ning
Ġfor th
Ġcount ing
Ġent h
Ġboun ced
Ġch ain
Ġ ed
Ġclean ing
eb ra
Ġfil m
Ġsle pt
Ġp it
Ġsur f
Ġmar ry
us ia
Ġwall et
Ġenth usia
Ġmet al
ur b
eb ook
Ġb in
Ġwe ek
Ġnot ebook
Ġwip ed
Ġsk ip
is ion
ch air
Ġbig gest
Ġimp ro
Ġavoc ado
Ġbeh ave
Ġdestro y
v ator
Ġband age
Ġlaugh s
Ġste ak
Ġpat tern
ĠS h
Ġpo st
Ġele vator
ĠBu zz
us ie
Ġd ive
Ġsh ut
Ġsk ipped
Ġunl ock
Ġdi ary
de st
j ect
Ġz ebra
Ġbag s
at ing
Ġarm chair
ra ge
ag ed
Ġdist urb
Ġo y
Ġpo le
Ġshow ing
Ġgather ed
Ġcl ub
Ġn urse
b ul
Ġear th
Ġen c
Ġstr anger
Ġswe ater
Ġjelly fish
Ġsc rew
Ġtem p
ĠP oppy
Ġcom pl
Ġmix er
G ive
Ġsk ull
Ġl ime
Ġb ump
bul ance
Ġam bulance
n am
Ġf ather
Ġjourn al
G ra
Ġloud ly
it o
Ġfold er
Ġsh ield
ĠB et
ĠL ulu
Ġlibr ary
ĠP eter
Ġbutton s
Ġplay ground
Ġtruck s
Ġin k
Ġlight s
Ġt ummy
Ġpoin ting
Ġc ity
Ġdecor ate
Ġst ation
ir it
Ġpre p
Ġfall s
qu ito
ĠP olly
B illy
Ġf u
ĠF o
ent ion
n ger
ĠBird y
l ies
Ġher b
nam ent
Ġor nament
Ġmo dest
Ġgu ard
Ġmo s
Ġknow s
Ġc ord
Ġpol ish
Ġmar ble
ob y
Ġmos quito
umb led
Ġsal t
Ġatt ic
Ġwhen ever
Ġve st
ct op
Ġres c
Ġy et
Ġp le
Ġdisapp eared
ce ed
Ġstraw berry
Ġon ce
ĠM um
Ġk ay
Ġbrother s
Ġit ch
Ġpir ate
Ġfoot ball
Ġspl it
ke le
kele ton
Ġh ipp
Ġa ut
Ġl ed
ur ing
ctop us
Ġdri ving
Ġc able
Ġsupp ort
Ġcall ing
Ġcup board
ak y
us hed
Ġwis hes
Ġcomp let
Ġtri pped
Ġro ot
Ġkay ak
Ġo ctopus
ob ile
Ġa dded
Ġed ge
Ġm ild
st ic
Ġdeterm ined
Ġsuc ceed
?" .
Ġread ing
om obile
Ġco al
W ell
g l
ut es
p ar
Ġsug gest
Ġst ack
Ġthu nder
Ġkind ness
Ġaut omobile
Ġcompl ain
Ġenthusia stic
Ġsnee ze
Ġcart oon
Ġyog a
ĠL ittle
Ġgr owl
ht ub
Ġfle a
l a
Ġme adow
Ġdraw er
Ġbat htub
Ġri bb
oph one
Ġmean s
Ġha ll
Ġgo lf
Ġs keleton
Ġm ath
Ġve il
Ġhunt er
Ġg or
Ġfl ame
Ġpo ke
Ġvide o
Ġche ss
Ġtr oph
Ġcup s
Ġglow ing
Ġmat t
Ġoy ster
w ork
Ġpen ny
Ġsp ear
Ġit self
Ġdraw ings
Ġhipp o
Ġrep air
Ġsw itch
gl asses
Ġsun glasses
Ġtele ph
Ġcost ume
Ġd ess
Ġz ipp
, âĢĿ
Ġre pe
Ġmuff in
Ġar g
Ġpast ry
Ġp un
Ġroll ing
Ġmin utes
Ġpa cked
Ġmake up
ir on
ri c
ĠPe ople
Ġwaff le
c ase
Ġhand le
Ġpe ar
Ġm aze
Ġteleph one
Ġp ine
a it
Ġg ear
Ġhe dge
Ġmatt ress
Ġpack age
a ving
ĠM iss
Ġsho cked
in es
Ġtroph y
Ġpow der
Ġkn ight
Ġc ob
Ġmiss ile
Ġman aged
Ġfr ame
Ġenc ou
Ġw ife
Ġo k
Ġse par
w eb
Ġst airs
Ġr ot
Ġc amp
ur ch
r ophone
Ġmag az
Ġstr ugg
Ġcol our
Ġgra pes
t ime
Ġf ile
he ad
ĠT ina
Ġbasket ball
B ye
o ld
p er
Ġcob web
R e
Jim my
ĠT weet
S ee
Ġper m
Ġw ool
ĠD an
Ġmic rophone
es day
Ġey e
Ġle ash
Ġg asp
ie w
ke ep
Ġwe ep
Ġbark ing
at ure
Ġsaf ely
Ġte ar
Ġv iew
f fe
Ġslid es
Ġstep s
ist ol
ffe e
Ġbanan as
Ġst aff
Ġsp irit
Ġt ask
Ġgigg led
Ġho c
Ġhoc key
Ġve nd
Ġth ose
Ġgor illa
J ill
Ġcool er
ĠR ose
w as
c ing
Ġear ly
Ġmar ched
ro sc
Ġmin t
ĠL ook
was her
Ġfl our
Ġhot el
h ic
Ġsail or
Ġdess ert
Ġph oto
rosc ope
Ġve hic
il ot
Ġof ten
Ġch urch
ĠP ete
Ġcook ing
Ġrem ain
Ġf ive
Ġsaus age
ot ter
Ġt en
Ġtool s
Ġmed al
Ġe ither
Ġfire man
ch or
Ġgra ndpa
Ġ otter
Ġbase ball
Ġpretend ing
Ġp istol
Ġdish washer
Ġre ver
Ġorgan ize
Ġpe e
Ġvend or
Ġkn ock
Ġs ight
Ġg rill
Ġtemp le
Ġbatter y
Ġthin king
Ġopen s
Ġ ow
Ġreal ised
Ġ iron
Ġla ser
Ġsn e
Ġsand box
Ġo il
Ġpat ch
Ġh ours
Ġr ise
Ġwh ip
' d
ctor y
ĠG ive
Ġan chor
Ġtra sh
en se
Ġsh ort
n ey
ĠBet ty
Ġrh in
Ġfa ctory
se um
Ġm ay
Ġwar d
at ely
Ġcard board
ug ged
Ġlot ion
A l
Ġmess age
Ġval u
Ġward robe
Ġc ell
Ġmu seum
ap ers
Ġu r
in ation
Ġhang ing
uc et
ail able
ĠS unny
ĠZ oom
Ġh ive
e er
Ġtow ers
keep er
Ġblack board
Ġme m
Ġexcite ment
Ġco ffee
Ġp ilot
re ady
F luffy
Ġnap kin
Ġpengu in
r on
Ġche ck
Ġre ward
l oo
Ġqu it
ĠPipp in
Ġcan e
Ġpick ing
pl ace
ĠSn ow
az or
Ġfa ucet
Ġ ig
Ġpass port
ĠR ob
Ġst umbled
Ġdream ed
Ġig loo
ĠB essie
ar oo
ang aroo
Ġfree z
Ġju icy
Ġall owed
pl ay
Ġhold s
Ġal ready
Ġav ailable
Ġset t
Ġbat he
Ġtorn ado
im ney
Ġfing ers
ht ray
Ġha nger
Ġnew sp
Ġs ize
Ġla und
Ġl end
Ġch imney
Ġlaund ry
Ġo ak
Ġfis her
Ġk angaroo
Ġm en
ĠEvery where
Ġtell ing
E m
Ġno vel
bo dy
Ġm ummy
Ġp al
Ġmu le
Ġcher ries
Ġnot ice
Ġpract ice
Ġspill ed
Ġre ind
Ġcomplet e
Ġenjoy ing
Ġmic roscope
ar ian
amp oo
Ġg ain
Ġsu b
Ġfire place
Ġimag ine
and a
Ġdis play
oc er
ĠZ ip
Ġfast est
Ġmagaz ine
Ġhur ry
Ġcabin et
Ġshr ink
Ġas htray
W ait
Ġcow s
ĠSp ike
Jo e
g en
Ġpal ace
Ġimpro ve
ac hes
Ġr ake
Ġreind eer
Ġfall ing
ocer os
Ġsk irt
ur ed
Ġdiscover ed
Ġstar ed
Ġro ared
a id
Ġsil ver
Ġt ub
Ġtra il
I s
Ġmin er
c ome
Ġb ill
ict ion
Ġf og
Ġa x
st airs
ile t
Ġh ut
Ġhapp ier
Ġtall er
iction ary
Ġo ats
Ġfisher man
Ġob ject
Ġp or
v ision
Ġvalu able
Ġsh ampoo
Ġho les
Ġoff ered
Ġboot s
Ġrhin oceros
Ġnam es
Ġto ilet
Ġclimb ing
Ġbl in
v ice
O w
Ġstret ched
ie st
Ġzipp er
Ġlisten ing
Ġs ym
Ġbath robe
ale nd
Ġjewel ry
ĠHe re
Ġjoke s
Ġtele vision
Ġpro v
Ġc alend
Ġstop s
Ġax e
Ġjump s
Ġfu el
c u
Ġspark ly
Ġperf ume
ĠS usie
Ġbu ry
bo l
M ummy
l u
Ġpress ed
ĠK im
ree k
Ġre ce
f a
ĠT oby
Ġne at
Ġc reek
Ġpo pped
Ġop era
Ġcalend ar
Ġsn ap
Ġgasp ed
Ġatt ach
Ġsym bol
Ġt una
ĠM ar
Ġp apers
M r
Ġun pack
Ġres ist
Ġd ictionary
Ġsub way
Ġletter s
Ġfreez er
Ġcho se
Ġpin ch
z ag
Ġspo ke
Ġany way
Ġsu per
Ġpor ch
Ġhelp er
af fe
Ġbike s
Ġli e
ar ry
ic hes
Ġtight ly
Ġcom fort
Ġsh aking
Ġbook case
Ġs on
Ġr azor
aur ant
Ġsandw iches
ĠA re
ig zag
Ġwe igh
Ġagain st
Ġstick ers
Ġrest aurant
Ġnewsp aper
Ġbl ouse
Ġvehic le
Ġswing ing
Ġp ed
Ġdis ag
Ġn ature
Ġsquirrel s
iv al
Ġbelong s
Ġswam p
Ġbutterf lies
Ġg ym
d el
Ġinc lu
Ġgrow ing
Ġbuck le
om ed
Ġstir red
Ġmust ache
Ġbill board
x y
Ġbe ep
t e
Ġal arm
Ġlight ning
Ġli p
Ġfe st
Ġhun g
ut or
Ġdist ance
og n
Ġc ards
Ġob ser
Ġag ree
L ittle
Ġex t
Ġte ase
Ġrec ogn
Ġrub ber
i k
Ġhat e
f ast
e f
O uch
Ġdoes n
Ġmusic ian
Ġad vice
Ġbee f
Ġser ve
asp oon
Ġsweet ie
Ġmo del
l ter
Ġcri b
Ġblue berries
Ġso fa
Ġcir cles
Ġbreak fast
Ġt utor
as is
Ġbooks he
Ġgir affe
st ri
Ġfest ival
Ġsepar ate
Ġshe lter
Ġg as
Ġair port
Ġo live
Ġr ail
Ġbookshe lf
Ġfrog s
Ġte aspoon
Ġrever se
Ġj unk
Ġrid ing
Ġple ased
Ġdra in
ĠMr s
Ġwip e
Ġo asis
Ġso il
Ġa head
Ġresc ue
Ġle aving
um mer
Ġpain ter
Ġsquee ze
Ġch ance
Ġpo ked
Ġkn ob
ĠT eddy
Ġpee ked
Ġl umber
Ġtrain s
Ġext ra
Ġsl ipp
Ġqu iz
Ġre fused
re s
rm omet
Ġp age
Ġru les
Ġhappen s
Ġsound ed
Ġin s
Ġpoin t
Ġwin ter
Ġdanc er
ĠGra ndpa
Ġbird c
Ġdisapp ear
rmomet er
ĠDo lly
Ġwe ather
Ġwas te
Ġli c
Ġbirdc age
Ġthe ater
Ġre ef
Ġcarry ing
D aisy
Ġinv ite
if orm
Ġgo al
Ġo stri
Ġun iform
Ġsw ung
Ġtr ade
Ġcl iff
i ence
Ġlaw n
ol a
Ġlean ed
ĠP andy
ang u
Ġacce pt
Ġadm ire
Ġfor t
Ġaccident ally
Ġpast el
bb les
Ġst om
Ġl angu
Ġtw ir
Ġs uff
Ġp anda
r iger
Ġb et
riger ator
Ġpe ek
re nder
Ġblin ked
Ġstar ts
n a
Ġref rigerator
Ġany where
!" .
Ġimag ined
Ġdream ing
Ġrem ove
n ight
Ġshow er
ĠL ee
ĠC o
Ġclass room
Ġce iling
Ġcar ing
i um
Ġgra nd
Ġmiss ing
a ked
Ġlic ense
Ġst able
Ġthe rmometer
Ġmonkey s
ast ic
Ġwar ned
Ġs ummer
ĠW here
Ġab ove
Ġbri ck
ec ted
Ġc udd
Ġproblem s
am ber
Ġch asing
Ġlab el
Ġap ron
Ġs ent
urn it
urnit ure
Ġlaw y
Ġl id
ugg age
m ed
Ġrespect ful
Ġf urniture
Ġfrown ed
Ġzoom ed
Ġp ages
Ġpre vent
Ġb ent
Ġl uggage
Ġmistake s
Ġsun set
Ġostri ch
is on
Ġsuggest ed
Ġwindow s
ation s
Ġj ail
l ow
Ġw ine
Ġribb on
Ġold er
Ġshout s
Ġgra pe
ĠC l
Ġw igg
uc ture
Ġstr ucture
Ġspo il
e or
Ġfix ing
Ġch amber
Ġlion s
Ġdel ay
Ġfind s
Ġhand ed
Ġsearch ing
Ġun ite
D id
Ġf ought
Ġlawy er
Ġbright ly
Ġpa ir
Ġmeet ing
Ġcho ice
Ġsurpr ises
ĠE llie
Ġar t
ĠU n
C h
Ġfav our
eter in
eterin arian
ad ium
Ġst adium
Ġproud ly
ik i
Ġv eterinarian
v et
ro d
Ġchair s
Ġsl ip
ĠS pe
Ġsad ly
ĠB ow
Ġinc re
ĠC arl
Ġpudd les
Ġb erry
Ġint rod
Ġran ch
ve al
ĠB oun
Ġarg ue
Ġ V
Ġadm ired
Ġc ur
Ġfavour ite
You r
Ġin f
Ġexcited ly
Ġr ac
Ġgrab s
m end
Ġste am
th ank
Ġhum an
eor ge
s ity
ĠHe l
Ġpus hing
Ġsa ving
ĠR ed
Ġre veal
om mend
all ey
Ġy ield
ol og
Ġm all
Ġremind ed
Ġrec ommend
Ġle ak
Ġsur render
Ġhar b
Ġapp l
cu ss
a ul
Ġwe ap
Ġreg ret
Ġput ting
Ġv alley
Ġminer al
Ġeven ing
el come
Ġmat ches
Ġforg ave
Ġsnee zed
Ġpu p
Ġa w
Ġr ushed
ec ause
Ġsp ade
Ġap olog
Ġpl ates
Ġdis cuss
Ġprep are
Ġharb or
Ġign ore
ĠB ig
Ġcount ry
Ġlangu age
ĠBu zzy
Ġpull s
Ġpl astic
Ġsupp ly
Ġflo at
Ġsniff ed
ĠJ azz
Ġrepl ace
Ġme as
Ġsho vel
ĠB ill
Ġra ise
ĠN ext
Ġf re
Ġcar ed
Ġso cks
Ġstri p
Ġdoor s
Ġmyster y
Ġli ves
Ġrest ore
Ġstick er
Ġs udden
ar i
Ġkind s
Ġslipp ery
er o
ĠO w
Ġplay er
Ġpan ic
ric ane
Ġhop ing
id ay
Ġsh one
le x
her o
Ġbe g
ĠM ike
ĠB inky
Ġsuper hero
Ġdelight ed
Ġg ro
Y ay
au d
ch an
Ġchick ens
Ġshould er
Ġrain ed
Ġcolour ful
Ġbre at
ĠAl ice
Ġcla w
ĠBu bbles
Y uck
Ġsoft ly
r ise
Ġp ort
Gra ndma
Ġho l
ic er
Ġhol iday
Ġ âĢ
Ġbark s
as on
Ġthrow ing
Ġplan es
M ary
Ġbe nd
ĠFred dy
Ġshake s
Ġinf ant
Ġend ed
Ġshiver ing
Ġkne el
Ġsun rise
Ġpus hes
ĠO live
Ġthank s
Ġfre sh
Ġsuff er
Ġpoin ts
im ed
w ards
ĠP at
Ġt ip
ĠSpe edy
Ġfree ze
Ġkeep ing
ĠW ould
Ġgigg le
Ġco pper
Ġsmell s
Ġde ar
Ġent er
Ġprov ide
c ast
chan ic
Ġdis hes
ĠE nd
co nd
Ġun h
N ext
Ġappl aud
Ġhead s
Ġhur ricane
Ġcher ry
Ġth umb
Ġmen u
Ġme owed
Ġm ass
Ġse cond
Ġbright er
in ce
Ġsand cast
Ġme chanic
Ġw re
Ġspray ed
Ġlet ting
Ġe vent
Ġweap on
Ġlaug ht
Ġ x
Ġlaught er
Ġcla pping
Ġfeel ings
W ill
ick y
Ġsplas hing
em ent
ĠO r
ac ked
Ġcast les
ĠF l
c er
Ġsc ore
app ing
Ġuniver se
Ġn avy
Ġd em
Ġstick y
oph ie
Ġroom s
Ġr ow
Ġfl ies
ig i
ĠD ave
Ġunh appy
Ġgre edy
Ġd are
Ġal ive
Ġbreak s
Ġen er
Ġcou rage
Ġinv it
Re ady
Ġrepe at
Ġdem and
Ġtrust ed
L isa
Ġsome where
arl ie
Ġprun e
b les
Ġwre ck
Ġ Y
Ġsk ill
Ġexam ine
Ġpar ts
y ear
Ġeat en
o e
A ll
er c
en ry
Ġm ention
Ġrain ing
ĠHel p
B uddy
Ġthrow s
Ġjog ged
que st
Ġstar ting
Ġr ush
Ġpo ison
Ġpir ates
he art
Ġv ac
Ġcont ent
Em ma
ĠK iki
Ġs igh
Ġfl apped
Ġdrop s
Ġch irp
Ġsp ort
Q u
Ġspark led
ĠZ oomy
Ġgi ven
Ġstre ng
Ġste el
A nn
Ġbump ed
Ġyaw ned
Ġstu d
Ġre quest
Ġsco ld
Ġmy self
Ġstreng th
Ġshr ugged
M ark
Ġcoat s
Ġpun ish
Ġe qu
Ġsn ugg
Ġuniver sity
Ġpa id
ĠJohn ny
Ġpig s
Ġscr atch
Ġto e
Ġex erc
Ġtra cks
Ġup stairs
Ġpray ed
Ġcross ed
Ġsquee zed
Ġimpress ed
Ġfl ood
Ġboun cing
ĠR u
Al ice
Ġrabbit s
g es
Ġbad ly
. .
Ġwar n
Ġle ather
Ġex pect
Ġnew s
Ġt ide
ĠT ed
Ġmin ute
Ġbear s
Ġclaw s
Ġbu zz
Ġsweet heart
ĠS m
y th
Ġn ation
S h
yth m
Ġvac ation
Ġhis t
Ġhe at
Ġstraw berries
Ġobser ve
Ġexplor ed
Ġsett le
Ġsandcast le
Ġyaw n
Ġhist ory
ĠL illy
ĠL ola
m are
ĠM ummy
ĠS que
i ally
in king
Ġbelie ved
Ġhor ses
Dad dy
ĠH oppy
Ġche cked
ĠM andy
Ġto ur
Ġnet work
Ġchee k
ĠU nder
Ġoff er
Ġeas ily
Ġpl aced
s pec
Ġspot s
Ġsnow ball
we en
m en
Ġener gy
ĠB ee
Ġimag ination
Ġblue berry
ott en
Ġbet ween
spec ially
ĠG igi
iz es
Ġd aisy
Ġwa ving
ree ze
re at
Ġv room
Ġso ak
Ġsaf ari
Ġrh ythm
Ġmass age
Ġstom ach
Ġb aking
qu ake
Ġnight mare
Ġins isted
Ġblow ing
Ġent ered
Be fore
Ġst air
Ġp alm
Ġbeaut y
Ġtw isted
Ġb other
Ġwr iting
Ġsc oop
Ġprun es
Ġbra in
Ġ ing
ip ment
Ġpo ppy
Ġhill s
n oon
Ġafter noon
Ġequ ipment
Ġe specially
he st
Ġs ir
Ġp ad
ĠS ee
Ġing red
Ġcall s
Ġingred ient
ĠFo x
Ġearth quake
Ġignor ed
ĠSnow y
Ġburn ed
Ġno body
m ble
Ġst y
ap a
Ġse w
Ġt ug
is ty
xy gen
Ġhear ts
Ġle ar
Ġlear nt
Ġlemon ade
Ġincre ase
ill ie
J enny
Ġg az
Ġback pack
Ġmail man
Ġwhist led
Ġped al
ĠS k
F red
Ġshop keeper
ff ic
Ġperm it
Ġtre mble
Ġy ucky
ang es
Ġmove s
Ġintrod uce
Ġlem ons
Ġcra sh
Ġbean s
Ġflo ated
ed n
edn esday
itten s
W elcome
Ġplan ned
Ġstri ke
Ġtra ffic
Ġinclu de
Ġsl ap
Ġrac ing
ĠL ucky
res ses
Ġwis dom
Ġp ur
Ġwag s
ĠFin ny
la imed
ĠG eorge
Ġl uck
Ġfollow ing
Ġ Ċ
Ġpri ce
ec ting
Ġm ama
Ġp itch
Ġbel ow
ĠE lly
ĠH ave
L e
Ġwe ight
Ġexc laimed
h ouse
Ġbu ried
Ġfollow s
Ġcom f
Ġrecogn ize
Ġingredient s
Ġf urt
t ain
Ġcand les
M imi
Ġmar bles
ri age
und ay
em ember
er ation
ĠA lex
Ġap art
ĠW ednesday
Ġgrowl ed
uc t
ĠS u
ore s
Ġcon f
Ġteach ing
Ġhop es
Ġfold ed
Ġclose ly
ĠFin n
ĠWh o
Ġhe el
ĠS unday
Ġencou rage
ĠP aul
ĠOw l
Ġz igzag
Ġpull ing
Ġd igg
Ġboun cy
Ġfurt her
Ġchew ed
Ġdigg ing
Ġwin ning
W oof
W ith
Ġd resses
Ġim age
re c
c ery
Ġshout ing
Ġgro cery
Ġtw isty
Ġpeanut s
Ġpuzz les
bb ing
ĠD og
l ook
Ġscr at
Ġch ores
Ġwhisp er
ĠI s
Ġsp ike
ĠFr oggy
Ġc ape
Ġsn ail
Ġacorn s
Ġworm s
h ood
Ġdeep er
Ġur ge
if i
Ġexp er
ĠWhen ever
ĠT illy
ĠSque aky
ĠGra ce
Ġplan ted
Ġatt ention
ec ture
Ġexerc ise
ĠDan ny
Ġcu b
Ġop eration
Ġunder ground
Ġh on
Ġag re
Ġqu ite
Ġcreature s
Ġs imp
Every one
Ġstrugg le
or al
ĠM ittens
dd y
Ġbl ood
Ġl ecture
Ġwas hing
Ġhurt ing
Ġvan ished
Ġgif ts
Ġdress ed
Ġinvit ation
Ġsol ved
Ġli cks
Ġsnugg led
ĠSh aring
i ppy
Ġb le
Ġmar riage
Ġquiet ly
g ie
Ġwar ning
Ġj azz
Ġbreat he
rec i
Ġelephant s
Ġs izes
Ġd ried
Ġfall en
Ġland scape
or ies
Ġspr ink
Ġneighb our
Ġm ice
u esday
Ġapp reci
ĠS ophie
ĠJoe y
ĠâĢ ĵ
Ġeag erly
Ġsail ing
ĠCo co
Ġpa used
ip s
Ġcount er
ĠG ood
ĠBoun ce
ĠP enny
Ġwor th
look ing
ĠR ock
Ġo xygen
B ecause
Ġre lease
Ġshin ed
N ot
p ted
Ġre aches
Ġbal an
ĠZ ara
is ses
Ġo h
Ġk isses
Ġsty le
Ġbri cks
Ġplay s
Ġgl o
ĠT uesday
Ġide as
s ed
Ġin st
Ġw ob
Ġfirework s
B ella
igg ly
uc ked
Ġsee ing
Ġfl ap
op s
Ġacce pted
r ight
ĠP ip
To day
Ġbl ink
m m
ĠR os
Ġtre mb
The se
Ġmu ddy
Ġmem ory
Ġmar ried
Ġtomato es
Ġex it
ĠAnn ie
Ġwag ging
Ġfa sh
R emy
ĠCh arlie
Ġwander ed
un ately
ipp ing
Ġglo ves
Ġcap tain
Ġpillow s
Ġrece ive
Ġres p
ĠP inky
ra ged
Ġd uring
ĠEvery thing
et ch
Ġwe b
Ġpet als
Ġwater ed
ĠE ventually
Ġs i
i ved
Ġman age
Ġpin ched
Ġbr ings
Ġvan ish
Ġcake s
Ġfash ion
ĠBlue y
Ġprin ter
Ġdestroy ed
Ġtreasure s
n ce
Ġall ow
up s
Ġhad n
Ġwor se
ĠF ifi
S urpr
Ġve l
Ġhit s
Ġb ur
x u
Ġvel vet
Ġapp ear
Ġdisag ree
d o
Ġcatch ing
Ġscatter ed
ĠR o
Ġmem ories
Ġsor ts
ĠP apa
Ġher s
Ġscold ed
Ġsign s
Ġpe ars
Ġor anges
Ġb ones
Ġran g
Ġsn apped
Ġsit s
Ġseat s
u xu
Ġgaz ed
Ġra ised
B l
ĠMar ia
Ġz ipped
Ġp ies
Ġprin ts
Ġsh ot
Ġslid ing
ĠGo d
Ġfr o
Ġeas ier
ss ible
Ġskill s
Ġclimb s
Ġtwir led
c cer
Ġblanket s
Ġforg otten
Ġba ked
e ster
Y um
ester day
Ġdiffere nce
or ted
Ġl uxu
Ġgold en
is ing
Ġk itty
ĠT w
Ġcut ting
Ġse ason
ag gie
Ġnow here
Ġcr ow
a h
Ġso ccer
Ġd ared
Ġbit es
ĠH enry
ĠH arry
an ny
Ġl ung
Ġcelebr ated
ch oo
ch ie
Ġstra ight
Ġunl ocked
st ers
Ġsor ting
Ġcoll ected
Ġble ed
ap ed
d ing
Ġwelc omed
Ġvis ited
Ġspoon s
Ġour s
Ġst itch
Ġjog ging
Surpr ise
med i
Ġem er
ĠSp ark
medi ately
Ġis n
Ġto ng
Ġtra ve
Ġwin ner
um ble
Ġs ince
Ġru in
Ġpret t
O k
M oral
ĠT ony
Ġatt ached
Ġweep ing
Ġmarch ing
Ġluxu ry
Ġsimp le
ĠE ach
Ġshould n
Ġguess ed
Ġz ero
Ġcre ated
Ġstuff ed
Ġpet s
ct ion
Ġwa ist
Ġfam il
Ġur ged
Ġbow ed
Ġsell ing
Ġflo ating
r r
ĠSm ith
Ġby e
ĠK ing
Ġv ict
Ġking dom
Ġolive s
Ġkick ing
ĠW iggly
Ġpun ished
ĠL iz
ĠB aby
s it
Ġto es
Ġgr ant
Ġmus cles
Ġjewel s
ĠRos ie
Ġbed s
Ġmel ted
Good bye
Ġsl ice
Ġgr in
Ġunderstand ing
Ġcollect ion
Ġto re
Ġmeas ured
ak er
Ġcra s
omed ay
i ers
Ġtra pped
Ġl ined
' ve
Ġac ted
fort unately
Ġencou raged
v a
ĠS andy
Ġrece ived
Ġwaff les
ĠBe fore
ĠW ally
Ġwe st
Ġme ow
ent s
Ġpattern s
r in
in o
Ġbr us
e ath
Ġmouth s
k ins
Ġb ang
r ing
ĠK ate
Me ow
Ġpe aches
Ġb reeze
ad ed
un e
Ġprin ted
Ġsold iers
Ġs omeday
Ġpotato es
Ġpup il
um es
ĠM illie
Ġdrink s
Ġshe d
Ġexper ience
ĠT una
Ġpresent s
Ġfire f
ĠRu by
Ġsur round
Ġn one
os ed
Ġvoice s
e ep
Ġdr inking
ĠUn cle
is hing
Ġrelax ed
Ġvict ory
c us
Ġpaint s
Ġbre aking
e ve
Ġhur ried
iss ion
Ġtw ink
Ġtong ue
Ġcost umes
Ġfl at
Ġmention ed
Ġbeg ged
Ġte asing
Ġwhist ling
Ġf etch
Ġperm ission
Ġs ip
Ġdisag reed
Ġpe arl
ake s
Ġstr o
ve st
ĠThe se
Ġe sc
Ġapp ro
Ġsk ipping
Ġfis hing
ĠM ay
Le o
Ġhig hest
Ġp ra
Ġwat ches
Ġsor ted
Ġring ing
sh ip
Ġto night
ĠB o
Ġop in
Ġlet s
ic ing
Ġ Qu
Ġperfect ly
Ġshadow s
Ġim mediately
Ġherb s
Ġwarm th
Ġsp it
Ġremain ed
t her
ĠIt s
w alk
Bob by
irr ing
J en
Ġsne ak
Ġs ix
Ġlip s
Ġkneel ed
Bl ue
Ġcont est
ĠC he
ut ter
Ġcartoon s
Ġside walk
Ġcol ours
Ġstamp s
Ġag o
H a
ĠT oto
ĠB oo
ĠFo llow
Ġe ast
Ġhead ed
o ved
" ,
Ġstr ang
Ġlady b
Ġf ed
Ġsupp osed
Ġroot s
Ġli ck
Ġcr unch
Ġmix ing
Ġwork s
Ġdecor ations
Ġmelt ing
Ġkn own
Ġemer gen
M andy
Ġrest ed
ĠA b
Ġl ines
ĠSu zy
Ġl ily
ĠJ ul
Ġinst r
Ġla id
ĠG r
Ġsucceed ed
Ġcon es
Ġwigg le
et y
s ing
Ġsh ock
Ġset ting
ĠS low
Ġstud ied
Ġstrang ers
ĠRock y
Re ally
Ġtwig s
Ġbr id
Ġtheir s
ĠD r
Ġgirl s
b oo
!" ,
Ġscream s
Ġland s
Ġord ered
Ġst irring
Ġmoment s
Ġfield s
Ġal right
Ġsteal ing
d ed
And y
Ġr ul
Ġbrave ly
av id
ĠB oth
Ġm ister
! '
Ġin vest
Ġscrat ched
Ġplay time
Ġri pped
Ġinvest ig
Ġt ucked
Ġrest ing
Ġburn ing
is hes
ĠCl ara
ĠCh icky
Ġbrid ges
Ġoff icer
p lease
Sam my
B ird
ab ies
Ġsett led
Ġmat ched
Ġa chie
Ġte x
Ġtex ture
H appy
Ġwait s
Ġturn ing
ĠSk y
P eter
or ed
Ġtremb ling
ist en
Ġnail s
at ie
Ġmuff ins
ĠSome one
id s
Ġesc aped
ĠJ ames
Ġpile s
Ġinvestig ate
os ity
Ġbro om
Ġladyb ug
Ġso re
ĠPe pper
Ġappreci ate
Ġadm ir
Ġth reat
Ġb abies
Ġsil ence
Ġsister s
Ġemergen cy
Ġare a
id es
Ġdad s
Ġansw ers
Ġpu pp
Ġkey s
Ġchew ing
Ġsl apped
Ġw iz
Ġimport ance
B oo
Ġser ved
ĠH op
Ġsaf ety
iz ing
B u
W ould
Ġspark le
Ġtouch ing
ĠL ater
Ġso ared
ig ail
Ġs ings
Ġhe n
all en
E lla
b ers
ant ly
Mom o
ĠD ino
Ġkeep s
Ġamaz ement
Ġch allen
Ġtw in
Ġhe sit
Ġreveal ed
an na
ache l
Ġit em
Ġd ire
Ġso aked
z ing
Ġwr it
Ġfood s
Ġrid es
Ġdinosaur s
Ġrecord ed
Ġtick le
Ġin ch
ĠZ igzag
ĠM e
Ġwiz ard
Ġv et
Ġtrip s
Ġglow ed
ĠA n
ĠFr og
M mm
Ġh i
Ġbe amed
Ġqu ack
Ġcur led
Ġha ted
Ġw ink
Ġsho pping
Ġeat s
E ventually
ĠB ug
Ġpra ised
Ġwood en
Ġbring ing
Ġmitten s
Ġstudy ing
Ġgu y
Ġbrus hes
Ġspace ship
Ġg ust
Ġcraw ling
ĠSomet hing
C at
Ġrul er
Ġfl av
Ġdown stairs
Ġshoot ing
Ġtast es
Ġn apping
Ġsprink les
Ġmark s
Ġcudd led
Ġd ot
he llo
pl ash
Ġf ut
a les
a ved
Ġfut ure
Ġmon sters
Ġcoll ecting
Ġmeas uring
ĠH appy
' .
Ġfamil ies
ĠO ut
ĠF irst
ĠM o
Ġth rill
Ġo at
ir ts
Ġres ult
J ake
Ġappro ached
ĠR abbit
Ġcrunch y
a ct
U n
Ġrem em
Ġbleed ing
Ġremem bers
Ġn icer
Ġbe at
Ġsne aky
Ġdisturb ed
Ġlead er
Ġsc aring
O r
h ind
Ġpe el
ĠH ope
Ġfire men
Ġneighbor hood
ĠSt ar
Ġgre y
ĠN ot
Ġmot ion
Ġno on
Ġpo ssible
Em ily
S omet
Ġapolog ized
Ġwe ighed
u es
ĠD id
Ġticket s
C l
Ġnap s
Ġloo se
Ġpr ide
Ġyou th
Ġswim s
p ed
Ġstr ings
Ġrecogn ized
Ġsi ren
Ġpo king
f ied
ĠH o
c ious
h a
el vet
Ġtri cked
Ġwonder s
Ġgain ed
Ġwant ing
Ġcras hed
Ġo be
Ġsees aw
Ġwork er
unn ies
l s
om ing
Ġdraw s
Ġscoop ed
. '
Ġzoom ing
Ġopin ion
Ġyell ing
Ġprep ared
Ġgrin ned
ĠSlow ly
Ġa we
Ġpoem s
Ġdog gy
Ġact ing
ĠBe ep
Ġhapp iest
Ġche f
Ġsne aked
Ġresp ons
Ġe ff
ĠAl ways
ĠL izzy
Ġown ed
Ġb unnies
Ġany time
Ġstr uck
Ġped als
oy s
Ġkn elt
en a
O llie
Ġsecret s
Ġp ause
Ġdecor ated
Ġhorn s
Ġagre ement
ĠS qu
id ed
Ġfr ost
Ġtall est
Ġobe y
R emember
riend s
og o
ĠSt op
H ave
Ġdecid es
Ġ Once
Ġbeh aved
Ġt ugged
Ġs ides
Ġw oof
Ġsl im
z en
Ġgood night
Ġkeep er
Ġspark ling
Ġchirp ed
Ġpre cious
m other
l ier
i en
T r
Ġrepe ated
Ġclap s
ind y
aff es
Ġsnowball s
Ġcont ain
u d
r s
ĠR ay
Ġour selves
all ow
Ġgir affes
Ġbalan cing
Ġkind ly
Ġspend ing
Ġwrit es
ay s
pp ers
ĠL ike
om as
Ġpr op
Ġhis sed
F irst
Ġfro zen
Ġfrost ing
Ġeff ort
Ġbuzz ing
Ġstrugg led
o h
ĠSt eve
Ġadmir ing
Ġre le
ig gy
Ġsweet ies
ĠV elvet
Ġslim y
Ġbr ushed
Ġbloom ed
S usie
ĠA m
Ġpol ished
ĠZ oe
ar th
an ted
Ġcomf y
Ġb oo
Ġstay ing
Ġru bbing
D ucky
Ġrock ing
Ġpocket s
Ġthrill ed
Ġbe side
Ġcomp le
ĠA unt
ĠM aggie
A h
Ġe ight
ur ry
is dom
Ġmach ines
Ġear lier
Ġy esterday
Ġseem s
Ġr ust
ĠK eep
S p
Ġtrave led
Ġfold ing
Ġbo om
Ġcra cked
it ies
Ġhug ging
Ġrad ishes
ĠSt itch
Ġopen ing
Ġlo ving
Ġcir cus
Ġsurround ed
Ġcuri osity
ĠR achel
Ġspray ing
Ġdemand ed
Ġpaint ings
am ie
ĠG reen
Ġrem oved
Ġg aze
Ġhon k
Ġpebb les
Ġzoo keeper
Ġhard ly
Ġcat ches
ed ding
Ġst ing
Ġstri pes
Ġpow ers
Ġload ed
ĠPipp a
Somet imes
Ġsplas hes
Ġpot s
Ġpet ted
Ġmatch ing
ĠD avid
Thank s
Ġto ss
Ġst are
Ġbe lly
Y ummy
i bb
Ġwhat ever
Ġapolog ize
Ġro cked
Ġcomf orted
ĠB ree
Ġdec ision
Ġribb ons
ĠJ oy
ĠBird ie
er n
Ġstrugg ling
Ġex pected
Ġdes er
Ġste ep
w h
Ġprot ected
Ġneighb ors
Ġsmile y
Ġchase s
D uring
Ġgr anted
Ġcr umb
ĠM at
Ġpur red
Ġdi ving
Ġsad ness
Wh iskers
Ġorgan izing
low ers
Ġeag le
Ġhero es
Ġd ipped
Ġsun light
Ġli ed
Ġpastel s
ĠFr ank
E x
Ġsaf er
Ġroad s
Ġscr u
Ġarg ued
ĠM illy
Ġgo als
ĠW ater
Ġdisco very
ĠAb igail
Ġvill ag
Ġpe ered
R o
ĠBoun cy
u se
an a
l oe
Ġt im
Ġdrag ons
Ġbuild ings
Ġbucket s
Ġpart ies
Ġbe ard
Ġw edding
R ex
Ġfl utter
Ġplanet s
Ġan n
ĠRob by
Ġpol ishing
Ġfa sc
ir a
Ġrele ased
ĠCh r
Ġcrab s
ĠG ogo
Ġtail s
ĠW atch
Ġsaus ages
ĠJ u
Ġar gu
Ġcont ro
Ġbott les
Ġwigg led
Ġte ased
u ke
Ġargu ing
Ġsl ed
Ġdrag ged
Ġpad d
ĠC ar
Ġro aring
Ġcle aring
Ġsh irts
Ġmov ies
Ġgather ing
Ġair pl
Ġw id
joy ed
Ġteac hes
Ġspid ers
Ġl imes
ĠR emember
ĠD are
Ġover joyed
Ġact ually
Ġsigh s
Ġcontin ue
Ġcudd le
Ġso aring
Ġsmall est
ĠJ ess
Ġdri ves
Ġspark les
Ġri p
Ġsit u
Ġcub es
Ġref res
Ġtal ent
Ġchallen ge
ĠO lly
Ġgrand mother
ĠS plash
Ġpour ing
um m
Ġpretend s
Ġfasc in
Ġcut s
Ġquarrel ing
Ġpe ppers
Ġb ank
Ġshiver ed
Ġman e
Ġdust y
le y
Ġwonder ing
Ġvillag ers
Ġstretch ing
n joy
i b
Ġweek s
Ġwhere ver
Ġdark er
j am
T iny
s ses
Ġ X
Ġr ings
Ġon wards
ĠK atie
Ġun ited
A choo
Ġbe ad
ĠEvery day
ĠBe ing
Ġprett iest
John ny
Ġc aut
Ġreal ize
Ġcomp any
Ġpengu ins
anna h
L una
F r
ĠSp ring
Ġbed time
Ġcomple ted
ĠW isdom
ĠLe ave
âĢĿ .
Ġknight s
Ġflag s
ĠJ e
ĠB ecause
Ġplay room
ĠP rin
Ġact ions
ĠZ ero
Ġlearn s
Ġgot ten
Ġpat ience
ind a
d am
Ġshr ug
Ġkit es
Ġrespons ible
Ġfe ars
Ġdest ination
Ġwire s
Ġrep ly
Ġwr ist
Ġd am
aw s
Ġpack ing
Ġmountain s
Ġfa ult
Ġapplaud ed
Ġscru bbed
Ġm a
Ġcre pt
ĠA va
U h
ĠE arth
Ġsat is
Ġth ird
Ġph ot
Ġpencil s
Ġwin s
Ġstick ing
Ġb aker
Ġvisit ing
Ġw ound
Ġuse s
Ġpe as
Ġremind er
Ġcontro l
as hed
Gra ndpa
Ġjo king
Ġaw ake
Ġinstr uct
Ġstar ing
Ġheal ed
ĠP ut
Ġh itting
ĠF ish
Ġscream ing
Ġbeg in
R ob
uck ily
ĠF riends
ĠM oo
ic orn
Ġhelmet s
ent y
Ġun icorn
l er
se ek
Ġtowel s
S illy
ĠL ou
Ġch ips
ic a
Ġcre ation
Ġwas ted
b ie
M ar
ĠBe hind
la ire
Ġmask s
Ġitem s
Ġforg i
Ġfiref ight
Ġout do
Ġlollipop s
W atch
Ġhe av
Ġgun s
Ġd ied
ĠH ippy
Ġse as
Ġgl itter
udd les
Ġarri ve
Ġwere n
Ġsto le
Ġsc ales
Ġper ched
Ġac com
Ġlog s
Ġachie ve
d ie
Ġpract icing
in ing
Ġwho se
St ay
Ġpump kins
Ġinstruct ions
Ġsw oop
Ġbatter ies
Ġcand ies
Ġagre es
Ġpro ject
Ġsnake s
Ġchirp ing
Ben ny
Ġshe lves
Ġprot ecting
Ġpar ked
Ġex act
ĠC ra
Ġpatient ly
Ġact iv
Ġvide os
Ġshould ers
Ġblow s
he e
F o
Ġprom ises
g o
Ġd ent
us an
ue st
n ers
jam as
Ġexam ined
Ġairpl ane
D oggy
Ġro ses
Ġaccom pl
Ġtask s
D ave
ĠHo ot
P oppy
ĠB op
B unny
Ġbead s
Ġbowl s
Ġcrumb s
z es
Ġlisten s
ĠL ove
ĠCat ty
ĠBrown ie
P ete
ĠO l
Ġdolph ins
Ġc ough
Ġb unch
Ġg uest
c akes
Ġrequest ed
Ġrem ote
Ġimpro ved
ant a
Ġreach ing
Ġbra nd
ĠJ an
ay la
Ġal ien
ĠB ye
ir m
Ġcop y
ĠS un
Ġcheer ing
Ġphot os
ĠJul ie
ĠChe w
B ad
ĠBl ink
T ime
Ġcan s
ĠC uddles
Ġtim er
ĠB y
Ġrepl aced
ath y
Ġwork ers
Ġst ern
ĠE njoy
ast er
Ġne ither
M ike
Ġpass ing
Ġmis ses
Ġcurtain s
Ġconf l
Ch irpy
Ġrainbow s
Ġrub s
G eorge
uct antly
Ġroll s
Ġpat ted
il o
Ġpa jamas
Ġoutdo ors
es ome
d ies
Ġcomplain ing
ĠSqu irrel
L ola
R un
Ġpupp et
ĠPrin cess
Ġclose s
Ġben eath
Ġla p
Ġdrum s
Ġt une
ĠB eth
ĠM ouse
Ġfill ing
M iss
ang led
Ġref use
ĠS orry
Ġswe at
Ġfa ced
.. .
Ġse ven
Ġbalan ced
Ġresc ued
n eath
b l
Ġqu acked
ĠA bby
P aul
ist le
Ġaw esome
Ġ 1
Ġmiss ion
ĠHow ever
Ġguy s
Ġconfl ict
Ġcaut ious
Ġv ent
Ġobser ved
Ġc ause
Ġintrod uc
ĠTh omas
Ġpast ries
n ie
Ġ Ġ
ĠO ur
Ġexact ly
Ġdoctor s
Ġru le
Ġbec oming
Ġpolice man
Ġm es
u ly
Ġrocket s
y ou
Ġ Yes
ĠD ot
Ġfair ies
l ay
Ġp out
A n
Ġins ist
Ġbloom ing
Ġtra ctor
Ġfar ther
ĠS ad
av i
O ops
G reat
Ġremember ing
Ġinclu ded
Ġcur ly
Z oom
F ine
Ġteam work
z ie
Ġfascin ated
Ġwob bled
Ġsl am
Ġtr uly
Ġhelp ers
Ġsight s
Ġpad dle
Ġst umble
Ġf irm
H enry
ĠJ illy
ac ob
Ġca used
Ġpray er
Ġsp ong
Ġrecord ing
ke lly
a is
Ġtr aded
Ġstar fish
Ġsupp lies
Ġth ro
Ġpoin ty
Ġsitu ation
Ġinv iting
e ah
g ers
Ġneighbour hood
Ġevery day
Ġornament s
ĠA lly
ink le
Ġval ued
Ġadd ing
S ome
Ġrel uctantly
Ġdot s
Ġstay s
Ġtable s
Ġprett ier
Ġb are
Ġdes ert
Ġsnow men
Ġste ady
Ġminer als
ara way
Ġth orn
o dy
Ġa st
Ġgl asses
Ġf araway
ĠG et
ĠFo xy
Ġswoop ed
ĠW elcome
ĠTw o
ĠS ure
Ġun f
Ġfork s
Ġus ually
Ġus ual
P olly
Ġd ar
ĠJ amie
Ġwin ked
Ġsnee zing
Ġsol ut
Ġload ing
Ġspong e
ĠQu ick
Ġinsect s
Ġpan s
D og
Ġso bbed
ĠS anta
J ames
Ġgrowl ing
s m
ar ter
Ġthro at
ĠCh loe
Ġno ses
ĠJo sh
ĠD izzy
Ġscar ves
Ġconf ident
Ġyour selves
ĠW ant
ag ull
Ġhome work
Ġsuperhero es
ĠSt ay
Jo ey
Ġsm arter
Ġwind y
Ġlibr arian
T ina
ĠK ids
Ġgem s
D ays
or a
Ġunder neath
Ġkick s
Ġknow led
Ġitch y
Ġknowled ge
Ġjacket s
ĠS kelly
ĠF or
Ġsurf ace
Ġunt ie
Ġcom m
ĠD uck
Ġprince sses
.. ."
Th ose
id o
e ed
H old
Y eah
c oon
Ġsquare s
ĠH enny
Ġwarn ings
Ġgigg ling
i ar
Ġread s
v in
O ur
Ġch oo
s on
Ġyou nger
Ġclown s
ĠM ix
T oby
Ġro pes
Ġbit ing
Ġcrow d
ĠUn fortunately
p ite
D anny
Tr ue
Ġse agull
Ġpadd led
Ġwear s
Ġdeliver ed
ĠM on
Ġtwir l
Ġon ions
Ġbuzz ed
Ġcomplain ed
Ġb umpy
Ġst em
E w
Ġpig gy
Mr s
ĠAnn e
Ġdire ction
ou ch
Ġdi ved
Ro ar
Ġt angled
Ġstart led
ul ts
Ġlean ing
bb ie
ĠA nt
ĠJ ones
Ġbad ge
ĠP o
Gra ce
Ġun p
Ġde al
th ough
Ann ie
Ġv owed
Ġnap kins
an es
Ġtick led
Ġr isk
Ġcover s
Ġp ec
Sh h
Ġyell s
Ġsatis fied
in t
Ġknock s
Ġrefres hed
t uce
ĠS c
cu se
Ġc ous
Ġarrow s
M aggie
ĠWh istle
P e
Ġwip es
Ġspe aking
Ġlet tuce
Ġguess ing
Un fortunately
ĠQu ack
Ġri pe
ĠS usan
Ġhid es
Ġchoice s
ĠDo do
ĠRo ver
Bu zz
Ġsign ed
Ġslow er
Ġseek er
Ġintroduc ed
Ġsing er
Ġcreat ing
ĠMat t
Ġfro ze
Ġc ent
ugg les
Ġjo ked
Ġsque al
Ġtoast er
Ġexplore rs
f it
Ġav o
ang ing
S ophie
Ġpray ing
Ġwr itten
Ġdiscover ing
Ġprov ided
ĠD ara
Ġref le
ĠL ion
Ex cuse
Ġmushroom s
ĠJe ff
ĠP aws
Ġpay ing
Ġkne es
ence s
Ġhid er
Ġwander ing
ĠAs h
Ġimag es
Ch arlie
Ġst ung
ĠW ink
Ġmagnet s
Ġbare ly
Ġbeh aving
Ġtip to
?" ,
Ġmar ked
br ush
rr r
Ġrest ored
ĠD ee
Ġlead ing
ll ed
Ġch uck
ad os
Ġn ine
Ġgre et
T eddy
Ġgear s
Ġbra very
ĠSn uggles
k y
Ġcompetit ion
e al
Ġout fit
ol ine
Ġwis hing
Ġprop erly
Ġvent ured
t le
a a
Ġmus cle
Ġdance s
Ġch at
Ġsal ty
Ġpen s
am b
ĠBet sy
Ġran ger
ĠZ iggy
Ġdeser ve
Ġhow ever
se qu
Ġmatter s
Ġdark ness
Ġbur st
ĠF u
Ġrain y
Ġcobweb s
Ġruin ing
Ġchef s
Ġcon sequ
Ġblock ing
Ġb ak
ust ed
it ely
st y
Ġsc ur
Ġv ines
Ġfa b
ab el
Ġfab ric
Ġent ire
Ġbase ment
Ġperform ed
Ġle ast
ĠBug gy
S n
Ġscrat ches
Ġheav ier
ĠC laire
Ġmin ts
Ġtwir ling
Ġavoc ados
How ever
ĠL inda
r ink
f l
Ġscur ried
Ġlo sing
Ġsunf lowers
ĠJen na
Ġrain co
Ġsword s
T weet
Ġcl ick
ag ic
ĠL aser
Ġsil ent
Ġjob s
Ġnecklace s
Ġfl ames
ĠL uke
Ġrelie f
ĠGr umpy
Ġsn at
Ġsew ed
Ġrot ting
l en
L isten
Fo llow
Ġtrick y
J erry
Ġlight er
oph ia
Ġbow s
ĠSk ip
Ġex ha
Ġsolut ion
Ġconsequ ences
A lex
ĠL ena
Ġtire s
Ġst ain
Be ep
Ġunp acked
A b
Ġpart ic
r ance
Ġrace s
Ġp ins
Ġbump s
Ġwrap s
ais ies
Ġw ow
Ġdecor ating
Ġb acked
c her
Ġdent ist
Ġpur r
Ġneed les
Ġcautious ly
Ġlift ing
izz ie
ĠP r
Ġaccompl ish
Ġtriang les
Ġd aisies
ep t
Ġhesit ated
Ġann oy
ĠTh ose
Ġgrowl s
Ġcrack ers
o ke
Ġstom ped
Ġgra bbing
Ġc ott
Ġfig ured
Ġbo dies
Ġm ater
Ġbuy ing
ĠT ree
Ġmater ial
ĠR olly
ĠF ido
ĠA dam
Ġswan s
Ġt ies
Ġg ri
ver s
Ġgrow s
Ġ ĊĠ
Ġsweet s
ĠGood bye
Ġown ers
Ġflav or
Ġcheek s
ĠC athy
B ig
Ġsuffer ing
ĠJ essie
ĠE l
v room
Ġfa ct
Ġgroup s
b ly
Ġfore head
Ġlung s
H arry
Ġre pa
Ġinterest ed
Ġbak ery
ĠM ilo
Ġf reed
L illy
it ches
ĠNot hing
Ġchuck led
F or
Ġsw ept
Ġcon n
? '
Ġthu d
Ġexha usted
T w
Ġtwink ling
Ġt apped
R u
Ġne ct
ro sty
Ġnect ar
ell e
Ġfe ast
Ġdar ling
ind r
ĠM ad
Ġwor ries
Ġun s
Ġtunnel s
Ġfu zzy
Ġrepa ired
Ġre ason
ĠTr ust
ĠCo pper
ĠB all
Ġactiv ities
le ts
Ġpec ked
ĠH annah
Ġent rance
ĠT ry
Ġra indr
Ġme als
ĠL isten
Ġpartic ular
Ġcomplet ely
Ġma iled
ct ions
Ġnest s
Ġwait er
Ġcudd ly
Ġs ense
ĠN ana
Ġcolor ed
ark y
Ġle ap
st ep
b and
Ġpl enty
Ġpee king
Ġslam med
ĠC ara
n o
Ġplay ers
Ġmon th
Ġbu dge
ĠB irthday
Ġ Q
Ġsc ra
Ġforget s
Ġd en
Ġhand ful
ĠOl iver
Ġm er
o ssible
Ġgen ie
ĠChr ist
Ġst ool
igg ie
Ġtalk s
ĠP up
ĠSu zie
Ġpassport s
Ġfeed ing
Ġfilm s
Ġbath s
Ġimp ossible
Ġdeterm ination
M ay
Ġprin ting
bo at
Ġdesign ed
Ġbu ses
Ġo pp
ue en
le phant
Ġsuit case
Ġbar s
Ġcount s
Ġsto len
Ġspread ing
Ġspike s
ĠSn ap
Ġwip ing
Ġste er
Ġl amb
ĠR ain
Ġhon ked
et ty
n ies
W hee
Ġcow b
Ġsepar ated
bl ings
Ġsi blings
Ġhop s
Ġch op
Ġsew ing
Ġfire s
ĠTw inkle
Ġfe ver
Ġtwink le
Ġt y
Ġcamp ing
ĠM ira
Ġl ower
Ġch anging
y es
ret ch
Ġbeh avi
ĠBl oom
m as
Ġli qu
Ġcelebr ation
b ut
Ġsqueal ed
Ġdoll house
S unny
Ġback ward
Ġag e
Ġsnat ched
Ġc ash
h o
Ġtw ice
le e
Ġs way
it ched
Ġcelebr ating
ĠPe anut
Ġshr inking
Ġac he
we ed
Ġk ings
ri ous
Ġshop s
Ġkitten s
c ope
R ose
ĠJess ica
ĠJ acob
ĠG ina
au ra
Ġh us
Ġtouc hes
air y
Ġpan cakes
Ġavo id
Ġsp at
ĠF rosty
r ig
h og
ĠN ina
Ġpath s
ive s
ck y
ĠH old
Ġr otten
Ġcalm ed
S andy
Ġsea weed
Ġdro pping
ĠJ on
ĠM el
ile s
P ipp
Ġtwist ing
Ġstro ked
Ġunt ied
ll en
Ġplay house
n e
M illie
Ġstud ents
Ġpupp ies
c l
ĠSo f
h i
Ġscrew s
Ġast ron
ĠR e
Ġsome body
ig ning
Ġliqu id
am my
Ġwake s
Ġsqu ish
ĠW oof
Ġbrace lets
Ġastron aut
im mer
are n
Ġthr own
Ġloop s
ĠO ther
L uckily
Ġwra pping
Ġpl ain
Ġtr amp
Ġplan ning
Ġsk unk
Ġa imed
Ġpen nies
Ġsh oo
Ġlift s
Ġdanc ers
Ġspark s
Ġfiref ly
p en
D an
Ġpo ster
y an
end y
Ġc ust
ĠChrist mas
Ġreward ed
Ġobject s
Ġdire ctions
us ing
ing o
Ġrefle ction
Ġhus band
âĢ Ķ
T ake
ri ver
Ġcl ues
u ppy
Ġlead s
Ġincre ased
Ġbl ocked
Ġr ising
Ġdo d
Ġcous in
ĠY esterday
ĠWith out
Ġforget ting
rig ued
Ġcust om
K ate
u de
Ġtramp oline
Ġbegin ning
Ġstore keeper
Ġpout ed
Ġzebra s
Ġhedge hog
Ġa ff
ĠâĢ ĺ
Ġborrow ed
ĠRo llie
Ġsnow fl
Ġcountry side
J ump
Ġmes mer
ĠJ ay
Ġvehic les
Ġinstr um
ĠM ic
ĠK ayla
ĠU p
Ġfrown ing
iv ity
P at
U nder
Ġmark er
y ond
Ġpres ses
Ġbe yond
ĠQ ueen
Ġdam age
ĠOn ly
ie ce
i very
Ġfar t
ĠT ara
ĠB iggie
j o
Ġheal th
Ġwhisp ers
Ġswims uit
Ġslip s
Ġn ibb
ĠJul ia
arm er
Ġwarm er
Ġfl apping
Ġtipto ed
Ġregret ted
itt ed
Z ip
Ġlay ing
ĠRob o
ad es
Ġy elp
ĠF ire
Ġrain s
Ġgl ued
Ġevery body
Ġcre ations
Ġhear ing
Ġsw ir
Ġcold er
iver sity
a el
Ġshap ed
ĠE lephant
Ġstreet s
Ġfin s
Ġrust y
Ġcush ions
O ut
Ġsa n
Ġfart hest
Ġcreat ivity
ĠMike y
an s
Ġsa le
Al ways
C o
Ġstrong est
ibb it
Ġfit s
ĠSpark y
Ġbell s
Ġdoll ars
ĠL arry
Ġe arn
i am
ang le
Ġlend ing
ĠM oon
ĠCh irp
ee se
Ġcash ier
M illy
Ġinclu ding
Ġsniff s
Ġsan k
Ġrainco at
ĠR ich
Ġtremb led
Ġsto pping
Ġsour ce
it i
im on
ĠMiss y
Ġwob bly
Ġind eed
ter s
Ġguest s
Ġsing le
Ġrecommend ed
Ġwe e
Ġspell s
Ġaccomplish ment
Ġbel ts
Ġsurpr ising
Ġend s
Ġhope ful
Ġseas ons
ĠT ake
ĠSnow man
ĠE ls
B ear
Ġplan s
ich ael
Ġencou rag
Ġsupp orted
st ick
ill ed
Ġsuff ered
Ġart ist
Ġperform ance
e et
N ina
Ġslow ed
Ġg ross
Ġflav ors
id ing
ert ain
Ġsp ins
ch o
Qu ack
Ġlabel s
Ġraindr ops
Ġdel ivery
u ing
ara c
Ġrac coon
Ġforgi ving
ob ody
ĠW oo
Ġpour s
t he
il ity
Ġvan illa
Ġturt les
Ġstand s
B ill
u ess
Ġrec ipe
Ġbe am
Ġt ying
ĠS w
Ġg eese
Ġwill ing
Ġrob ber
Ġdraw n
V room
Ġwe pt
ĠB ones
Ġch arac
Ġpop s
Ġcorn ers
ĠS ophia
el ia
Ġque ens
Ġsail boat
Ġgri p
Ġd ie
Ġdriver s
it ude
Ġm oo
Ġhall way
Ġimag ining
Ġsecond s
ĠFu zzy
M ine
Ġprep aring
Ġwid ened
Ġad ult
ĠSp irit
Ġgro cer
Ġc oop
Ġtalent ed
ĠP am
ĠBe aky
ĠI zzy
umm ies
Ġsail ors
ll ing
Ġso fter
Ġas ide
Ġwater ing
Ġsend ing
Ġknot s
Ġuns ure
Ġt ipped
L ulu
Ġtree house
Ġhor iz
ĠL izzie
Ġnot es
Ġe cho
ig ers
Ġachie ved
Ġhoriz on
Ġsque ak
Ġdeliver ing
Ġple asure
Ġhot ter
ĠSt ella
Cl ara
Ġpupil s
Ġbur row
Ġangel s
Ġcurious ly
E llie
Ġy um
Ġblin king
ĠJ une
Ġtw eet
Ġsymbol s
Ġd et
ĠSt retch
w k
Ġpass en
ĠRu dy
ĠC indy
Ġt ummies
Ġt iss
Ġpige ons
Ġfigure s
umb ling
o ey
Ġband ages
ĠRob ert
Ġc oup
ĠDo ctor
Ġrobot s
al ph
Ġtoss ed
Ġh our
Ġback wards
Ġro ars
B aby
Ġmer ma
u zz
Ġr ather
at ur
Mar ia
c ited
ĠP lay
ĠCra b
M oo
ight ing
Do lly
Ġgrocer ies
Ġzipp ing
P ut
V ery
Ġun w
p rin
Ġam ong
Ġbl own
Ġ icing
!âĢĿ .
Ġr umble
Ġafter wards
ipp er
Ġscrew d
us hing
Ġsp ed
Ġpr ove
Ġg lee
ĠT iti
ĠT ia
Ġd ip
Ġover come
Ru by
Qu ick
Ġsurf board
Ġshovel s
Ġslice s
ĠTo ot
Ġm erry
Ġwob ble
Ġm ate
ĠT urt
ĠA bbie
Ġhead ing
Ġdisturb ing
Ġsw all
Ġrever sed
Ġfirefight ers
J ul
Ġswall owed
Ġch ip
ed s
Ġsc ored
Ġfl ipped
ĠJ ump
Ġsquee zing
ust y
Fr ank
at y
S u
Ġwa king
Ġint rigued
S ad
L ike
Ġm aker
ĠB arky
aw n
B etty
Ġp uff
Ġha wk
Ġencourag ing
Ġa ud
ĠE x
os en
on ies
Ġch osen
ĠR on
he w
ĠF armer
ĠA ng
Ġcoup le
Ġdesign s
Ġslipp ing
Ġscrewd river
Ġsquish y
ĠEm my
Ġgarden er
Ġcent er
Ġriver s
Ġresp ond
Ġmark ers
ile y
Ġt igers
Ġjar s
pec ting
Ġfrown s
b ird
Ġflutter ed
ĠSad ly
ĠK it
R ibbit
Ġfirefight er
ĠS l
ĠR yan
Ġsuit s
Ġsec ure
Ġsprink led
Ġcream y
as hes
Ġshark s
Ġignor ing
Ġbr u
Ġgigg les
Ġtiss ue
Ġtight er
Ġfirm ly
oun ce
ĠL aura
f ly
Ġsh own
Ġfamil iar
Ġthorn s
Sp ike
ĠW o
Ġdraw ers
ch ild
ĠZ ee
Ġexp ress
C ar
ment s
Ġde f
Ġd aring
Ġcross ing
Ġaud ience
Ġperform ing
Ġcolour ed
Ġcloud y
Ġc or
Ġa is
ĠN ick
a e
r at
Ġpedal ed
G et
Ġmix ture
Ġt il
Ġgrace fully
g gy
Ġhaircut s
Ġyield ed
Ġp onies
Ġdis ob
Ġcrown s
Ġbit s
Ġto dd
ĠS leep
Ġnervous ly
Ġhang ers
bb led
ĠP atch
Z oomy
Ġpay s
Ġ 2
Ġpe ck
Ġstro ke
Ġe v
f all
B ang
e en
Ġres pected
Ġn apped
a ven
Ġmind ed
dd ie
B essie
ab ly
B oys
Ġtest ed
ad ing
p arent
ĠChr is
K im
ĠUn iversity
ĠN ear
Ġbee h
ĠTurt le
Ġsurf ing
Ġneighb ours
ar row
ver ed
Ġsh ady
ion a
arl ings
Ġmagic ian
Ġenthusia sm
Ġd arlings
Ġwis ely
Ġst itches
Ġsail s
ke nd
D ear
Ġwee kend
Ġthought s
Fred dy
ĠTweet ie
Ġremind s
Ġtemp er
or ing
th a
ant ha
Ġsurround ings
Ġspit s
Ġfle as
Ġteam s
Ġlesson s
Ġfill s
Ġfl ip
ĠAl ong
Ġpaint brush
Ġmel ons
Ġmerma id
on i
K atie
Ġgrand child
Ġhoop s
Ġexpl o
Ġel bow
Ġsport s
G uess
Ġli es
ĠF ighting
ra c
Ġpan icked
Ġclean er
Ġam ount
c used
Ġlong est
Ġscoot ers
Ġl ent
it a
immer ing
Ġs ill
Ġbel oved
Pipp in
Ġbeeh ive
Al right
ong rat
og a
ll e
ongrat ul
Ġoy sters
Ġgrand parent
Ġforgi ven
Ġmagaz ines
Ġar r
ĠW ise
Ġe lf
Ġrepe ating
Ġdiscuss ed
Ġsweet est
ĠThank s
K eep
Ġwa dd
ĠMay a
Ġre ass
Ġla ce
ĠGr anny
Ġnightmare s
Ġtub es
ĠW illy
Ġunderstand s
Ġspoon ful
Ġn ood
Ġbat hing
ĠZ oey
ast y
A m
Ġswe ep
Ġman ners
c row
Un cle
Ġwr ink
Ġspr ang
Ġn ur
Ġb ully
ĠH olly
Ġgu ide
ĠY et
on na
an cy
Ġc rew
rom ise
J azz
Ġbreat hed
wh ile
step s
ild a
ent ly
ĠB ally
Ġbulb s
Ġne are
Ġgrass y
Ġwigg ly
Ġtest ing
Ġsp ies
Ġc oug
Ġsol ving
Ġsheet s
ĠR oo
Ġfoot steps
nt il
After wards
Ġspeed ing
Ġfo cused
oun ced
ce pt
? !"
Ġmesmer ized
Ġcam el
Ġbra ver
Ġhesit ant
ĠSpark le
Ġlick ing
Ġr ushing
ĠW ell
Ġjoin ing
ĠP uppy
Ġpol ar
Ġgreet ed
ĠMar tha
es pite
- -
ĠBu bb
Wh ich
K iki
Ġwor n
Ġmaterial s
Ġch anges
ĠN obody
und red
Ġstor ed
Ġbicy cles
Ġm ast
Ġan ger
Le ave
Ġpeace fully
Ġship s
Ġsp ice
Ġterri fied
Ġn uzz
Ġg onna
ĠSh ow
Ġpol itely
Sn ow
Ġspill s
Ġscare crow
Ġkn ives
Ġev il
ĠMix y
pp ies
Ġbury ing
c a
Ġheal ing
Ġare n
Ġdon key
Ġaeropl anes
f reeze
E ven
Ġse als
Ġscatter ing
Ġm iles
ĠChew y
am boo
Ġd ump
Ġworry ing
B ee
z oom
be ep
D avid
ĠL enny
Ġpuzz led
Ġst acked
ĠK ip
P enny
ĠN ice
Ġlo ses
dd ing
Ġtrave lled
Ġbasket s
ĠW in
ĠO kay
Ġgaz ing
Ġbl ast
ip es
ĠT ess
H urry
Ġtemper ature
Ġu nd
Ġtast ing
Ġdri pping
Ġcl ue
Ġbelie ving
Ġpinch ing
er m
Ġso aking
Ġrat s
Ġ1 0
is c
Ġsand y
re ct
ĠIs n
ĠS imon
re y
an while
ĠAb i
B inky
Ġpunish ment
Ġban ged
Ġhuman s
Ġcras hing
Ġfor ce
ĠA na
Ġh undred
Ġg est
ĠL ia
Ġswim mer
ĠChe ss
Ġsnowfl akes
Ġrelax ing
Ġres isted
Ġbeep ed
ĠF airy
Ġquarrel ed
f orm
el ie
Ġr amp
ĠW endy
Ġjo ins
ab by
Ġbackpack s
ĠP h
year s
Ġdress ing
Ġdelay ed
Ġtodd ler
ĠL uckily
Ġfl ight
Ġcover ing
ĠT e
or ter
Tw o
O pen
B y
Ġencourage ment
Ġben ches
Ġtow ard
Ġscra ped
Ġpurp ose
Ġfo cus
ĠJu dy
B ow
Ġcor rect
' ."
Ġlip stick
Ġb amboo
S pe
Ġtwink led
Ġpot ion
Ġperm itted
Ġmonth s
ĠC ow
Ġlangu ages
Ġord ers
Ġfreed om
T ony
Ġrisk s
Ġpo ppies
Ġm aster
sh m
Ġnood les
Ġf aded
Ġwound s
shm allow
ri er
K ids
is ions
ĠJo jo
Ġcream s
Ġbird house
Ġcell s
Ġannoy ed
ĠHer b
op es
Ġsniff ing
Ġche ers
Ġad ults
Bird y
Ġunw ra
ec ca
Bu zzy
Ġp uck
Ġopin ions
Ġflo ats
and as
In stead
Ġfl own
Ġsnee zes
Ġsc en
Ġhands ome
Ġno dding
ĠM int
Ġsmell ing
Ġbur nt
Ġ 5
Ġdri fted
id er
b age
Ġwith in
Ġsc ient
Ġhe ight
Ġdam aged
Ġbother ing
Ġte aring
Ġsl ither
Ġple aded
Ġinstrum ents
Ġe ase
ĠAl i
d a
B ack
Ġscient ist
ĠMar ie
M ira
Good night
Ġp ound
Ġsell er
Ġhand ing
Ġg erm
ĠS ay
Ġwas ting
Ġfile s
Ġres ults
Ġdream t
ĠM abel
b ell
Ġexplain s
Ġdestro ying
Ġbrus hing
ous y
Ġhis s
Ġcharac ters
ĠR azor
ĠC r
C arl
Ġc ertain
ĠSt e
P andy
Be hind
Ġsweat y
ĠH ug
un ched
Ġbus iness
ĠRob bie
Ġtal ents
Ġon ward
T ry
Ġeng ines
Ġbrave st
it ion
Ġstern ly
ĠP en
ĠJan ie
prin ts
Ġpost man
Ġmosquito es
Ġmind s
u nder
c ake
Ġt uck
Ġscare s
u rious
Ġstom p
Ġapolog ised
u el
Ġman ag
Ġsn uck
Ġb itten
atter ed
Ġtil ted
Ġsw itched
Ġremind ing
Ġdec isions
Ġsing ers
Ġdes per
Ġbehavi or
ĠPo or
as hing
ĠJu dge
bb ers
in ny
Ġsque aked
Ġpeel ed
ĠEvery body
Ġy umm
Ġpur rs
ĠB ra
Ġtreat ed
Ġsm ashed
Ġrust ling
Ġdisplay ed
ĠU ntil
Ġneat ly
Ġmate y
Ġplant ing
ĠB ess
Ġmar shmallow
Ġin sp
Ġyelp ed
Ġs y
Ġgrandparent s
Ġcra cks
Ġbell ies
a ver
Ġshin es
Ġsc amp
ĠN avy
Ġh oo
Ġfa iled
Ġcolor ing
ĠY oga
l ine
Ġzoom s
ĠM ake
r up
Ġn asty
Ġbreat hing
Ġcomb ed
Ġp andas
Ġdes pite
Ġadd ress
ig hing
Ġwater fall
uff in
om p
c c
ĠL oop
ĠAng el
T illy
Ġwid er
Ġro bbers
Ġant ic
P lay
Ab igail
Ġsweat ers
Ġecho ed
Ġdoor way
ĠTo dd
e vin
Ġed ges
Ġin j
ĠSh adow
A unt
Ġg ap
Ġdisob ey
ĠBl inky
w ise
L iz
ĠM ichael
Ġt ar
ĠFl ick
os cope
or king
W ake
Ġtap ed
Ġmagn if
ul p
f ather
Ġscold s
Ġflap s
Ġact ion
Ġcrawl s
ĠM indy
R os
Ġsw ap
Ġgo bbled
Ġback s
ĠG ary
Ġwar ri
ĠFish y
ĠE ddie
S low
Ġst eth
Ġse ver
Ġshin ier
Ġprob ably
Ġnewsp apers
Ġsever al
Ġo cc
R ock
L ena
Ġenc ount
ĠMe g
Ġser ving
Ġquiet er
Ġpl ucked
Ġconn ected
t ock
ĠSh are
Ġ ouch
ig ger
T ed
A dam
Ġgest ure
T oo
F l
Ġstud ent
Ġpl ot
Ġdoor bell
Ġsqu aw
Ġcare s
f ire
Ġresc uing
Ġgrand son
ĠS e
Ġsp y
Ġsimp ly
Ġrow s
Ġg oo
i el
Ġwhist les
m ies
v ant
Sh rink
M agic
Ġsnap s
Ġsh orter
Ġastronaut s
ss ss
Ġunpack ing
Ġcott age
ĠTim e
Ġsw o
Ġaccident s
ib i
Ġswo llen
Ġm ood
ĠN ut
St eve
ab elle
ĠZ ippy
ĠM ousy
an ie
Z ara
Ġbother ed
H annah
Ġsteth oscope
f ound
Ġtrust ing
Ġca using
M at
M ad
Ġleap t
Ġdress er
ain t
Ġs ou
Ġprop er
Ġpill s
ret ty
Ġthrough out
O live
Ġrun ner
Ġpray ers
ĠD ina
Ġjoy ful
Th omas
m ates
Ġlo cks
ĠPr ince
J amie
Ġgoat s
wh at
Ġtar get
re st
ĠW ait
ĠK aren
Ġde ars
ĠB ang
art led
R ed
Ġwadd led
Ġm unch
Ġfl ips
ĠC ro
Ġlow ered
Ġste pping
Ġcon s
ĠJack ie
Ġteacher s
Ġcowb oy
ĠT oys
Ġin ches
Ġenvel opes
ear s
Ġch ar
ĠV room
Ġexplore r
Ġantic ip
Ġplay d
ĠRe ady
ĠR uff
ĠR alph
un ity
N ice
Fin n
ĠB ad
en ing
Ġknock ing
Ġfloor s
Ġeffort s
ĠP l
Ġuniform s
l ied
ĠT ri
Ġaw are
Ġfoot prints
Some one
Ġnear ly
ĠF iona
ll as
Ġdis c
ĠR ia
iv i
Ġwh imp
Ġtr ot
Ġs ens
Ġgl itt
Ġappreci ation
oo sh
Ġne cks
Ġcoll ap
Ġche cks
Ġla pt
Ġex cept
Ġpl ug
Ġch arge
ĠJack y
Ġflutter ing
Ġumbre llas
Ġstamp ed
ac y
Ġsandcast les
ĠDave y
Ġstat ues
ĠH oney
om b
isc uit
ail s
H oppy
Ġshr ank
ĠAm elia
r ily
Ġpri ck
Ġfin ishing
Ġadd s
r ons
Ġstro ll
Ġhunt ers
Ġdod ged
Ġchocol ates
Ġpassen gers
Ġgerm s
og er
Ġwr igg
Ġap rons
Ġais le
Ġset s
.' "
ĠG erry
Ġwe eds
Ġnovel s
or der
Ġdemand ing
ĠT aking
Ġscratch ing
Ġmeow s
iss a
D r
Ġnur ses
L ucky
Ġmind ing
Ġdiscuss ing
ur render
Ġk illed
Ġdrive way
ĠC ari
Ġbec omes
Ġtool box
Ġlapt op
Ġha ird
ĠEl iz
Ġpo sit
Ġatt ack
ĠSad ie
ĠD espite
Spe edy
ĠG l
so l
Ġscamp ered
Ġbounce s
Ġsupp lied
Ġspray s
Ġde ed
Ġtem pt
Ġsuggest ion
Ġfriendship s
Ġburn s
Co co
Ġsl apping
Ġclos ing
A rrr
Ġinvit es
Ġbelong ings
Ġanticip ation
Ġspring ing
Ġfor m
Ġer ase
Ġcott on
ĠSt an
Ġtwist s
Ġr ays
Ġsnugg le
Ġforgive s
Ġmodel s
Ġsh all
Ġmass ages
Ġhum ming
on nie
Ġrespond ed
Ġnew found
Ġghost s
Ġex pecting
ĠShe lly
Ġche ated
Do es
ĠWoo ly
G igi
ott e
Ġtravel ing
ĠN e
Ġco nd
Ġbat tle
Ġal though
allow een
Ġmom mies
Ġinvit ations
Ġcar ries
Ġa im
Ġrefres hing
Ġpresent ed
Ġcon c
he l
Ġtw enty
Ġr owed
ĠB umpy
ot s
Ġsqu ir
ri e
arl otte
Ġfox es
Ġcoop er
Ġfin al
Ġduck ling
Ġca fe
ĠB ibi
P ip
Ġmarshmallow s
Ġcl icked
ĠZ ipper
o or
Ġjet s
Ġdes igning
Ġbe aver
f ive
ĠM uffin
ĠH alloween
Ġmug s
ĠWho ever
Ġdr own
ĠAl though
Ġtri cycle
Ġpicnic s
Ġopp os
Ġcon vin
ĠR uth
ĠEx cited
i ens
ĠC le
p o
Ġscoop s
Ġc ongratul
ĠP op
ĠMad die
Sad ly
ĠâĢ Ķ
Ġtravel s
Ġal iens
Ġtest s
Ġquestion ed
ĠSpe ed
in ted
Ġstrip s
Ġcra ft
N ear
at ty
M ouse
co vered
Ġde fe
ĠFl utter
ĠBubb a
ir i
B r
Ġfight s
ro ken
B all
Ġoppos ite
ĠBig gy
H mm
F ind
E lly
Ch loe
ĠI m
Ġr out
Ġgrand father
Ġencount ered
Ġaff ord
ĠN ever
Ġdec l
in ch
Ġra ising
im ent
Ġup side
ĠV ivi
Me anwhile
J ess
Ġfl ashed
Ġcalm ly
ĠR ita
Ġyaw ning
Ġsince re
Ġreal izes
atur day
Tr ust
Ch oo
Ġcryst als
Ġb uddy
ĠSam antha
Ġcup cakes
Ġbuck led
by es
B oth
Ġwin ners
Ġdef in
ver se
r is
' ,
Ġweap ons
Ġca w
sh adow
Jo sh
Ġpack ages
Ġche at
ĠS aturday
Ġsa cks
Ġmes ses
Ġgood byes
Ġco ach
Ġatt em
qu et
Ġcon vers
ĠTr uck
ĠFl o
v al
Ġdri ft
Ġcap s
ĠM ina
ĠE va
em ies
Ġen emies
ash a
Ġyumm iest
Ġscr ub
Ġsw allow
Ġreturn ing
ri an
Ġadmir ation
ĠSof ty
ĠMe gan
S ince
Ġspr out
ĠLou ise
Ġun able
ĠPlay ing
ĠAn other
ugg ing
ook s
Ġsad der
Ġfreez ing
Ġbright est
Ġb less
ĠY awn
Ġresp on
ĠM an
re verse
Ġrespon se
Ġco sy
ĠO h
Ġdiamond s
Ġbr ide
st alk
Ġre app
Ġopp ort
Ġhon king
Ġgar bage
Ġwhisper ing
Ġstret ches
Ġprevent ed
er k
ant astic
Ġwho ever
Ġo dd
Ġaw ful
ĠG ray
al th
Ġweigh s
Ġjourney s
Ġaw oke
B rrr
Ġtrap s
Ġspice s
Ġdragon fly
o ff
Ġb orn
Ġreass ured
Ġcl ip
iv ia
Ġst all
Ġbean stalk
Ġarg um
Ġexam ining
Ġdefin itely
Ġbeet les
Ġautomobile s
ĠM aisy
m ine
ic i
H op
Ġvisit ors
Ġstuff ing
Ġplayd ate
Ġwas hes
c ie
b roken
Ġwis er
Ġcustom er
up er
em ma
R achel
Ġtrave lling
ĠSof ia
ĠJo lly
ĠFl op
ou quet
Ġhaird ress
Ġb ouquet
ĠN urse
or se
bb le
, '
Ġt umbled
Ġdecor ation
Ġcamp fire
ĠE lle
Ġhonest y
Ġbu d
v y
eb ecca
On ly
Ġb omb
Ġwelc oming
Ġoffer ing
Ġwe alth
Ġtrou bles
Ġocc as
Ġincre asing
ĠO t
ĠJ ax
ĠHe llo
Ġloud est
Ġinsp ired
Ġty pe
Ġpar ted
Ġgro an
ĠCh ick
ĠNut ty
ir ac
Ġwh ales
ĠTh under
ĠR icky
y l
Ġdecl ared
Ġcorrect ly
y ler
ook y
f us
Ġbeak s
ĠQuack y
ath an
Ġcle ared
Ġcowb oys
Ġnuzz led
ĠDot ty
Ġpri zes
Ġex ch
Fin ny
Ġwarm ly
ĠMiss ile
Ġre wards
Ġobey ed
Ġcustom ers
Sh ould
Ġsiren s
Ġcomfort ing
ĠF el
sh aped
Ġconn ect
ĠFl appy
m atch
Ġtown s
ĠM agic
ĠB ingo
elie ve
Ġre ly
ĠV icky
H oney
Ġtr igger
Ġown s
Ġinsist ing
Ġf antastic
Ġbend s
ĠF e
Ġspo iling
Ġhairdress er
Ġsurrender ed
Ġsupport ing
Ġshare s
Ġpo ses
Ġp ipes
Ġclean s
ren ch
S un
Out side
Jul ie
Ġwrink led
ĠC ook
Ġcho pped
Ġrec order
Ġmo ons
Ġbeam ing
un es
ell ow
B eth
Ġthan king
Ġsnow y
ĠWo lf
Ġsc urry
Ġexper ien
Ġenjoy able
Ġact ive
Ġc oral
ĠP iggy
Ġenv iron
Ġdoll ar
ĠK evin
w orm
el ope
Ġlo c
J e
Ġstream ers
ĠB ub
ud ged
ĠPat ty
ĠM other
ĠZ ack
ing er
Su zy
Ġex amp
Ġshort s
Ġshoo ed
Ġenviron ment
T ree
Ġ ill
Ġsc ent
Ġbru ises
ust er
Ġgr at
ĠL uc
B o
Ġhis ses
Ġsteer ing
Ġsel f
Ġpl ugged
ĠEls a
Ġwarri or
Ġvisit s
Ġexerc ises
sc reen
ir l
ap tain
Ġdan gers
Ġcudd les
ĠR el
ĠM in
ĠA r
Ġun fortunately
Ġsqu ished
Ġs igning
ĠL ight
be e
R ay
Ġpilot s
Ġdisappoin t
m unk
Ġgrat itude
Ġapplaud ing
Ġprov iding
ĠM oppy
al f
Ġtick les
Ġt ing
ĠR ub
G row
Ġstorm s
Ġnight s
Ġju d
Ġconvin ced
Ġbad ger
ĠEls ie
Ġyou n
Ġrespons ib
Ġchoo sing
ĠK elly
J oy
Ġyoun gest
Ġneare st
Ġbra ins
Ġactiv ity
A bby
Ġexplo ded
Ġcoug hed
Ġarr anged
C laire
Ġreward ing
ĠT re
ĠF ly
p r
g ood
erp iece
Ġsun screen
Ġpe ep
Ġbo nd
ĠFl oppy
as ers
M on
ĠTweet y
ĠS weet
ĠK aty
ĠJo an
ĠS al
il ities
Ġannoy ing
s n
Ġsoap y
me ow
S plash
Ġrail s
Ġlace s
Ġthread s
Ġt apping
Ġoff ic
Ġappreci ated
ĠP ine
ĠPh il
bo ards
Ġwe ighing
Ġheart broken
Ġemer ged
Ġcongratul ated
ĠP ick
D anger
Ġt in
ĠS il
Ġcrocodile s
Ġcl erk
Ġscr am
Ġattem pt
ĠN ancy
w ater
Ah oy
Ġsn ug
Ġmess ed
Ġexamp le
Ġd ial
ĠK ay
ĠA ny
Mom ma
Ġhook s
ĠJon ny
Ġtop s
Ġchip munk
Ġso ot
Ġguard ing
Ġbat hed
Ġmanag er
ĠT ippy
ort unately
ĠMic roscope
F riends
ĠD e
et ah
Snow y
Ġmast erpiece
ĠB aa
Ġer asers
Ġtip s
Ġfin ishes
Ġf et
Ġcomm on
ĠTom orrow
mb ers
Ġtrot ted
Ġnibb led
Ġme mbers
Ġdig s
Pe ople
Ġkind er
Ġche etah
Ġparticular ly
Ġchew s
Ġbl ond
ir cle
Ġrip s
Ġbe ast
L izzy
Ġargum ent
at ive
Ġfa ith
ĠHelp ing
Ġearn ed
Ann e
Ġobser ving
Ġforgiven ess
ĠJo ke
ĠC ici
chie vous
Ġinst antly
Ġfis hes
Ġexperien ced
Ġcur l
Ġche aper
ĠJ umpy
Ros ie
Ġmis chievous
Ġgener osity
Ġc ages
ĠTw ist
G r
B aa
Ġmeow ing
Ġfo am
m ered
C indy
Ġstore s
Ġgrand d
ĠA g
etch up
Ġmatter ed
Ġte les
Ġp asses
Ġl imp
S que
Ġsleep s
io let
Ġbreath s
ord inary
et tle
end ing
Ġtr ans
Ġr in
Ġgasp s
ĠFred die
G ot
Ġr umbling
Ġhat ch
ĠMom ma
o ver
ab ra
Ġgrass ho
Ġaccompl ished
ĠHo pper
ac ing
Ġth ump
Ġteles cope
Ġstr um
Ġsmart est
Ġmat s
Ġwh ined
Ġmo at
G ina
Ġscram bled
Ġj ugg
Ġfarm ers
ĠI ce
Ġdri p
Rob bie
Ġsy rup
Ġgarden s
Ġcollap sed
Ġang rily
ĠM ore
ou raged
ide y
Ġve gg
Ġsty les
Ġforest s
Ġexperience s
Ġdiscover ies
ho le
Ġto r
Ġmed als
Ġty pes
Ġotter s
Ġmean ing
Ġf aint
Ġcon qu
ĠDo es
p it
ad abra
ac ock
Ġsn apping
Ġhard est
Ġf if
er ing
Ġmove ments
Ġexpress ion
Ġsur v
Ġch illy
Ġbubb ly
Ġaff ect
P inky
Ġvest s
Ġunf air
Ġcour t
When ever
Ġtooth brush
Ġscore s
Ġextra ordinary
N ever
Ġatt itude
Ġvi br
Ġhor ri
Ġblue bird
ĠMon key
m el
ll s
M o
Ġspear s
Ġk etchup
ĠB erry
M other
Ġsoon er
Ġgrassho pper
Ġbehavi our
Ġpat ches
Ġha bit
y d
er ts
K aren
Ġpoke s
Ġmom ma
Ġaf ar
ĠAsh ley
l o
ie ves
J acob
Ġthick er
Ġsc ri
ĠF riend
J on
Ġsquee zes
Ġslither ed
Ġshr unk
Ġclass mates
ĠT erry
ĠF le
Ġ icky
Ġprick ly
Ġglitter ing
Ġexp ert
Ġto pp
Ġkneel ing
Ġann ounced
ĠS uper
ĠR iri
ell ing
Ġpe acock
Ġmark ing
ct ric
Ġcost s
ĠC ally
ĠA choo
Ġzigzag s
Ġwater mel
Ġth ieves
Ġsk irts
Ġjump er
Ġh ood
Ġact s
ĠZ og
ĠA pp
Ġwo lves
ĠSw im
ĠCl oud
P apa
Ġthumb s
Ġsque aky
Ġcon cer
Ġco coon
Ġwood cut
Ġbo ards
ĠEliz a
ĠBe cky
Ġser vant
id ence
aff le
Ġche ating
ĠJ ason
b u
Ġtr ading
Ġr aking
c at
J essie
Ġexplain ing
ĠE ric
ri ck
Ġtid ied
Ġb iscuit
Ġlunch time
Ġluck ily
ĠA c
an ced
Fr og
ĠP uffy
Ġspill ing
ĠD ay
F ire
Ġtrans form
Ġdess erts
ĠU se
ĠMad dy
ĠDan iel
ĠAn imal
âĢ ¦
r or
ĠP ig
ĠM ine
ĠSt ill
ĠG ill
r ough
am ma
Ġmess ages
Ġm irac
ĠC aptain
id y
Ġwindows ill
Ġch ill
Ġbe ating
ĠT ammy
ĠL ung
ĠG illy
o ot
Ġsee king
Ġa ctor
ĠRain bow
ĠL ina
ĠWill iam
se ss
it s
ĠM ath
pr il
A ny
Ġfore shadow
w ar
ac les
Blue y
Ġlean s
ĠSt ep
ĠP inch
ĠH i
rac adabra
F reeze
B ounce
Ġwatermel on
Ġhis sing
Ġfl ashing
Ġde v
Ġcloth s
ĠT iger
ĠMon ster
ĠFrank ie
Ġwind ing
Ġposit ive
Ġfun n
Ġdisc ouraged
ĠW il
p op
Ġwoodcut ter
Ġfor ts
Ġdri pped
Ġcompet e
Ġtea pot
Ġpress ing
Ġdisagree ing
ick ing
Ġgl immering
Ġvegg ies
Ġtrust s
Ġtidy ing
Ġkangaroo s
ĠPe ep
Ġtemp ted
Ġland ing
ĠFl ora
Ġdo ck
Ġsh allow
Ġover w
Ġfor med
l ers
Ġr ack
Ġf ade
ĠTo oth
f lowers
Ġwor st
Ġele ctric
Ġcop s
el ing
Not hing
Ġapolog y
i ving
cream s
a i
Ġsled s
ĠSil ver
ĠL ife
up id
Ġcomet s
Ġas s
Ow l
Ġsa v
ĠSh ark
ĠM ag
ĠJ elly
B ug
Ġsitu ations
Ġp apa
Ġoffic ers
Ġconvers ation
Ġ 4
R ain
ĠR oger
ĠCh arlotte
st orm
ay e
Ġsun s
Ġd ing
âĢĿ ,
Ġzip s
Ġstructure s
Ġscurry ing
Ġpizz as
Ġoverw hel
Ġmill er
ĠBut ter
Ġgrandd aughter
Ġf oggy
ĠOl ivia
ĠH urry
ĠAm ber
Z oe
ĠJane y
Ġweb s
Ġdeser ved
R abbit
Ġopport unity
Ġcub s
ĠY ummy
ĠSp idey
ĠS asha
ĠMix ie
ĠB uster
Ġsn orted
Ġrhin o
Ġdifference s
ĠGo ld
Ġquack ing
ĠT ell
if ully
end ed
F ifi
Ġhe aven
ĠBird s
Ġunl o
Ġle vers
Ġinch worm
Ġin ter
Ġappro ach
ĠT yler
s sess
Ġseagull s
Ġpo ssess
Ġcooper ate
ĠRu fus
ĠFel ix
ĠB oom
wel come
s ers
rag on
o f
?âĢĿ .
and ra
Ġpo se
Ġdisappoint ment
ĠSm oke
oc ular
Ġspeak s
Ġsneak s
sn ap
Ġbin ocular
Ġart work
Ġsurf ed
Ġsc owl
Ġanswer ing
ĠSn ake
Ġshort cut
ĠGra nd
Ġs ipped
Ġrob in
Ġd ep
Cl imb
Ġar rest
ĠIn ky
ss y
Ġunwra pped
Ġribb it
Ġre un
Ġam used
ĠAm anda
ug ar
Ġrepe ats
Ġpepper oni
Ġappl ause
Ġkey hole
Ġcheck out
ĠM ae
ĠC ars
L ia
D eal
Ġvisit or
Ġstri king
Ġpuppet s
Ġpadd ling
E at
Ġun z
Ġcro aked
Ġatt acked
ĠC ircle
ĠB rian
ors ie
Ġsp ooky
ĠOt to
ĠG us
E ach
Ġgroan ed
Ġbeaut ifully
ĠJe an
g ar
cident s
Ġswimsuit s
Ġcons ider
Ġcheck ing
u ses
ĠY ellow
j est
Ġwater s
Ġg room
ĠSque ak
ĠSl inky
y le
Ġin vent
L uke
Ġnet s
Ġexam s
ot ion
et s
Ġdry ing
ĠR ebecca
u dy
art in
ag ine
Ġshrug s
Ġl ump
ĠAunt ie
s ie
le st
Ġso bbing
Ġshy ly
Ġshoot s
Ġhonk s
Ġheel s
Ġcheer fully
ĠS ince
il i
h ny
es ses
Ġsh h
Ġch in
an ish
Ġwhimp ered
Ġhealth ier
Ġhang s
ic ious
M ilo
ĠM us
Ġcaterpill ars
izz es
Slow ly
Ġsqu inted
Ġmagnif ying
Ġf ries
ĠR atty
Ġfascin ating
Ġbl amed
ĠF ind
ulp ture
ch ing
Ġsc ulpture
Ġfrustr ation
ĠT ip
ou ched
Ġsh immering
ĠPen elope
Ġpo ss
ĠPe ace
ed ic
Sh aring
Ġs uck
Ġple as
Ġnumber ed
Ġnibb le
ĠW affle
oth y
i bbles
ell ie
am il
Ġflow ing
Ġba a
hing s
Pe pper
Ġra ked
Ġgr umbled
ĠO ff
th at
Bu bbles
Ġbuild er
rac ted
e at
Ġsway ing
Ġpet ting
Ġgu ards
Ġfa cing
ĠWoo lly
Ġsprink le
Ġmyster ies
Ġdet ails
ĠH ar
se y
Ġsn ort
Ġfl ock
Ġen emy
ĠBo at
Ġtexture s
Ġtable t
Ġgood ies
ĠC urious
ĠB arry
Y esterday
Ġw ig
Ġpo pping
Ġwild flowers
Ġstack s
Ġmar ve
Ġfan s
Ġcr ops
Ġcount ries
ĠJen n
ĠGra cie
h ow
Ġknob s
ĠTess a
ĠSee ing
Ġloc al
Ġbush y
Ġste w
Ġpeep ed
Ġhunt ing
Ġdrown ed
Ġbow ing
Ġbinocular s
Ġang rier
ĠBub u
Ġmap s
ĠM atch
Ġqu izzes
Ġn iece
Ġmoon light
ĠG low
Ġoutfit s
ĠJohn son
ĠD eal
O O
Ġwh oosh
Ġweak er
Ġw rench
Ġmind ful
Ġcrow ded
cy cles
S qu
Ġend ings
ĠBee f
o ll
I m
Ġproper ty
Ġhesit ation
Ġfl ashes
amil iar
Ġun less
Ġimagination s
Ġfo nd
Ġcar ts
Ġbo il
Ġab ility
ĠO xy
ĠAnd rew
get ic
Ġgl ared
ĠR ight
ĠAc cidents
st and
Ġunf amiliar
Ġspace s
Ġmic row
Ġkn it
Ġha ven
Ġfold s
th s
s aw
T una
Ġresponsib ility
Ġdirt ier
ĠP et
b ank
Ġp ouch
Ġmicrow ave
Ġdesk s
ib ly
B less
Ġcrack er
rn ie
Ġsw apped
Ġmem ber
Ġd ate
Ġast on
ĠO xygen
ĠR ing
ĠR avi
l t
f ree
W ant
C ra
Ġwh ine
Ġsoft ened
Ġre bu
Ġdoor step
Ġdisappear ing
ĠPe ggy
ĠHel en
ĠB un
Ġquack s
Ġn atur
ĠCh ip
sc ar
Ġwrit er
Ġlisten er
ĠT oo
ĠF ix
Ġpri v
Ġbl ushed
ĠSp icy
ven ir
Ġpalm s
Ġnot icing
u pt
re pe
po ison
Ġsou venir
ĠP ast
repe at
ent r
Ġlaw s
Ġdis aster
ĠT ra
ĠR es
ĠG abby
st r
re g
end ant
Rob by
Ġph ones
al a
A va
Ġconf idence
ĠL i
ĠCo al
ĠC ut
ĠB ert
Ġtim id
Ġstir s
Ġoverwhel med
ing ly
Be ing
Ġmay or
Ġfl ick
gu ess
as mine
C he
Ġt ugging
ĠP retty
ĠMo le
l or
Ġunt angle
Ġsatis fa
Ġowl s
Ġmail ing
Ġinj ured
Wh ose
Ġsatisfa ction
Ġconc entr
ĠWh ite
ĠIm mediately
ĠB ooks
F ly
ĠMar ch
ĠAnimal s
m ers
S c
M ittens
Ġl im
ĠE at
th is
M abel
Ġpr ank
ĠWo nder
ĠN ora
ĠB onnie
W iggly
Ġhoo ves
ĠTri angle
ĠR un
ĠP ot
ĠMel issa
ĠK n
w ell
Je ff
Ġfix er
ĠSt artled
ĠS ir
ĠCle an
ĠCl ose
ic ate
Ġsn ar
Ġcl ut
l ish
b ling
Ex cited
Ġsk ies
Ġinstrum ent
ĠTr ucky
Ġcap t
ĠMat ilda
ĠH orsie
ĠF aye
ad ually
Ġdisag re
ik y
Ġwrigg led
Ġstain s
Ġrin se
Ġpe cks
Ġcre ak
ĠSleep y
S usan
Ġsh ave
Ġbump ing
ĠS ing
ĠI cy
ĠHel i
ĠCra bby
ul f
Ġswir l
Ġr uff
Ġbend ing
cess ary
Play ing
Cl ose
Ġsand pit
Ġexplor ation
Ġchat ted
ĠSc issors
M ake
Ġrod s
Ġle ver
Ġfact s
S m
Ġattach ing
ĠC andy
Ġfool ed
Ġbur ger
ĠB ro
Ġglow s
Ġconcer ned
Ġclear ly
May a
Ġsal on
Ġrever sing
Ġla va
Ġcomp an
Ġcertain ly
el s
W ally
Ġsm elt
Ġmotor cycles
Ġfet ched
Ġcir c
Ġtr oll
Ġt unes
Ġsomet ime
Ġpro d
Ġold est
Ġfiref lies
R ing
Ġkiss ing
Ġchallen ges
Ġblond e
K ayla
Ġwarm ed
ĠBob bie
Ġunlock ing
Ġnatur al
Ġdifferent ly
Ġb ound
ĠL ots
urp le
s a
er g
T ara
D ino
Ab racadabra
Ġru bb
Ġriver bank
Ġdet ect
Ġcut ter
Ġcup cake
Ġconqu ered
Ġhat es
Ġall ey
ĠFl ap
s orry
Ġswir ls
Ġsend s
Ġreal ise
ĠO pen
ĠFlop sy
Jul ia
Is n
Ġwigg ling
Ġsens ation
Ġm unched
Ġbang ing
ĠC ammy
Ġtopp ings
Ġhipp os
Ġf ist
Ġcl ips
ĠRel iable
Do ctor
Ġsway ed
Ġst ings
Ġro be
Ġmirac le
Ġha lves
Ġbr akes
ĠGreen y
H ope
F ish
Ġsurv ive
Ġostri ches
ĠP ink
ĠCl imb
ul a
keep ers
ber t
M ichael
Ġtor to
Ġother wise
Ġemb ra
Ġcr ushed
Ġbubb ling
Ġtent s
ĠLook ing
an i
Ġrepair ing
ĠO f
Ġvine gar
Ġstretch y
Ġrubb ish
Ġliz ards
ĠW orking
ĠFlick er
Ġpassen ger
ĠE d
ast e
M any
Ġvibr ant
Ġtorto ise
Ġp ounced
ĠWh ich
Su zie
Ġscen e
ĠR h
ĠGr ump
g r
Ġmoo ed
Ġgl ided
Ġdesper ately
Ġb as
Ġsn ip
Ġp oop
Ġma jest
Ġint ently
Ġcop ied
Ġcalm er
ĠSunday s
ĠLight ning
ra p
n et
Ġwo ken
Ġtw el
Ġrag s
Ġjud ges
Ġjoy fully
Ġj ing
Ġcoo lest
ĠP er
sm elling
Ġlecture s
Ġgl ob
ĠJo dy
ly n
is ible
Ġh ips
Ġcous ins
Ġaston ished
Ġcap es
ĠOut side
ĠL u
un o
Ew w
Ġsuccess fully
Ġspeak er
Ġreun ited
Ġinv isible
Ġgu esses
Ġgoo ey
Ġarri ves
wh y
Ġtwel ve
Ġbat s
ur ity
Mike y
Ġgood ness
Ġcomput ers
Ġchat ting
ĠCarl a
nd ed
m ie
Ġstack ing
Ġsnowfl ake
ist ory
Ġreapp eared
Ġrac er
Ġpound s
Ġpark s
Ġdesper ate
Ġcompan ion
Ġcomm un
b ed
Z igzag
O l
Ġluck iest
Ġle vel
Ġd ou
Ġan k
Ġt ale
Ġstomach s
Ġsell s
Ġg all
Ġd umb
Ġcricket s
ĠS ugar
igg les
N ick
Ġwind s
Ġs us
Ġg ates
Ġdisobey ed
Ġdisagre ement
ĠSte ven
h ile
M ore
Ġpearl s
Ġho ses
Ġcr isp
Ġaw hile
ĠW hee
it es
L ou
Ġso da
Ġpops ic
Ġloyal ty
ĠOr ange
L inda
Ġtong ues
ĠRos a
us ion
re nt
Ġrid er
ĠC D
O oh
ĠBl ack
p an
Ġsure ly
Ġab o
ĠL aw
ĠAnn abelle
d es
col ored
Ġoccas ion
Ġbu nd
r um
izz a
d og
! âĢĻ
Ġst un
Ġguit ars
Ġchick s
ch ief
Ġsepar ating
Ġseas he
Ġrebu ild
Ġintellig ence
Ġalligator s
Ġabo ard
ĠR aven
ĠI ron
ĠA pril
F ound
Ġcro ak
Ġcre ep
ĠW inky
ĠV iolet
aid s
Somet hing
C atch
Ġlearn er
Ġcaut ion
Ġc uc
ĠO ld
ĠC are
sol ut
Ġwh ines
Ġsp iky
Ġreveal ing
Ġr ins
ĠUn i
w orking
Ġtick ling
Ġesc ap
ĠS ettle
Ġunder water
Ġglob e
Ġcr ouched
ĠRo ar
ĠC oby
ĠB a
u dge
ever se
!' .
Ġpr og
Ġbloom s
Ġappear ance
Ġ' '
ur ricane
st op
se ph
if er
f ived
J an
Ġstroke s
Ġle aking
Ġhat ched
Ġguard ian
ĠSo cky
eal ing
arn ing
Ġzoo keepers
Ġt ant
Ġrout ine
Ġpersist ence
Ġdo ves
Sn ap
S leep
Ch icky
Ġtap s
Ġsqu ashes
Ġqu ilt
Ġpain ful
Ġlight ing
Ġbl ame
Ġadm it
T oys
Ah h
Ġtempt ing
Ġsh attered
Ġri pp
Ġmo ld
Ġdeep ly
ĠP uff
gg les
Th ree
R alph
Mat t
Ġthr one
Ġsquir ted
Ġsec urity
Ġpeek s
Ġelectric ity
Ġcent re
Ġbur gers
ĠSp in
em on
c on
Ġreal izing
Ġcook s
Ġallow ing
ĠL iam
us hes
ort h
o ss
ck er
Jess ica
Ġl ar
Ġexch ange
Ġcho pping
Sh are
S ophia
Ġsweet ly
ĠR ace
ĠQuick ly
ĠA lf
ver ing
Ġsweet er
Ġrins ed
Ġglitt ered
is app
Z ero
S w
Ġmelt s
Ġmel ody
Ġgo ggles
Ġfu rious
Ġener getic
Ġdefe ated
Ġbuild ers
ĠIn ch
as y
Ġwa ded
Ġtant rum
Ġsniff led
Ġchoo ses
ĠOther wise
ĠCat s
ĠC omet
Ġcontain er
Ġcompet ing
ĠG iant
ere my
b ang
ĠSh arp
ĠM ila
ar ted
Ġund one
Ġserious ly
Ġprotect ion
Ġlar ger
Ġl ull
Ġh udd
Ġattempt s
ĠR ara
ĠP ark
ĠD uke
Sh oo
L izzie
Ġtoss ing
Ġhelicopter s
Ġcoo ed
Ġcl uck
Ġbuck les
ĠWh ale
ĠPinch y
ĠC her
S weet
ĠT ears
ĠSm o
ĠO ver
solut ely
St ill
Sque aky
Ġhum med
Ġd edic
Ġcourage ous
ĠM a
ĠH or
ĠD in
Mad dy
Every thing
C urious
Ġrac ers
Ġpatient s
Ġmu ster
Ġgo d
Ġdeser ves
Ġal oud
ĠT hings
ap s
U se
ĠSque e
ĠD ragon
Ġtour s
Ġmeet s
Ġmar vel
ĠR usty
ĠLiz a
ĠJ et
Fr oggy
Ġwra pper
ĠR eddy
ĠH ops
ĠCr usty
Ġwh iskers
Ġnice st
Ġimpro ving
Ġbo oth
ĠL and
S urrender
Rock y
Ġmeadow s
Ġimag inary
Ġbo ld
