{
  "Ā": 0,
  "ā": 1,
  "Ă": 2,
  "ă": 3,
  "Ą": 4,
  "ą": 5,
  "Ć": 6,
  "ć": 7,
  "Ĉ": 8,
  "ĉ": 9,
  "Ċ": 10,
  "ċ": 11,
  "Č": 12,
  "č": 13,
  "Ď": 14,
  "ď": 15,
  "Đ": 16,
  "đ": 17,
  "Ē": 18,
  "ē": 19,
  "Ĕ": 20,
  "ĕ": 21,
  "Ė": 22,
  "ė": 23,
  "Ę": 24,
  "ę": 25,
  "Ě": 26,
  "ě": 27,
  "Ĝ": 28,
  "ĝ": 29,
  "Ğ": 30,
  "ğ": 31,
  "Ġ": 32,
  "!": 33,
  "\"": 34,
  "#": 35,
  "$": 36,
  "%": 37,
  "&": 38,
  "'": 39,
  "(": 40,
  ")": 41,
  "*": 42,
  "+": 43,
  ",": 44,
  "-": 45,
  ".": 46,
  "/": 47,
  "0": 48,
  "1": 49,
  "2": 50,
  "3": 51,
  "4": 52,
  "5": 53,
  "6": 54,
  "7": 55,
  "8": 56,
  "9": 57,
  ":": 58,
  ";": 59,
  "<": 60,
  "=": 61,
  ">": 62,
  "?": 63,
  "@": 64,
  "A": 65,
  "B": 66,
  "C": 67,
  "D": 68,
  "E": 69,
  "F": 70,
  "G": 71,
  "H": 72,
  "I": 73,
  "J": 74,
  "K": 75,
  "L": 76,
  "M": 77,
  "N": 78,
  "O": 79,
  "P": 80,
  "Q": 81,
  "R": 82,
  "S": 83,
  "T": 84,
  "U": 85,
  "V": 86,
  "W": 87,
  "X": 88,
  "Y": 89,
  "Z": 90,
  "[": 91,
  "\\": 92,
  "]": 93,
  "^": 94,
  "_": 95,
  "`": 96,
  "a": 97,
  "b": 98,
  "c": 99,
  "d": 100,
  "e": 101,
  "f": 102,
  "g": 103,
  "h": 104,
  "i": 105,
  "j": 106,
  "k": 107,
  "l": 108,
  "m": 109,
  "n": 110,
  "o": 111,
  "p": 112,
  "q": 113,
  "r": 114,
  "s": 115,
  "t": 116,
  "u": 117,
  "v": 118,
  "w": 119,
  "x": 120,
  "y": 121,
  "z": 122,
  "{": 123,
  "|": 124,
  "}": 125,
  "~": 126,
  "ġ": 127,
  "Ģ": 128,
  "ģ": 129,
  "Ĥ": 130,
  "ĥ": 131,
  "Ħ": 132,
  "ħ": 133,
  "Ĩ": 134,
  "ĩ": 135,
  "Ī": 136,
  "ī": 137,
  "Ĭ": 138,
  "ĭ": 139,
  "Į": 140,
  "į": 141,
  "İ": 142,
  "ı": 143,
  "Ĳ": 144,
  "ĳ": 145,
  "Ĵ": 146,
  "ĵ": 147,
  "Ķ": 148,
  "ķ": 149,
  "ĸ": 150,
  "Ĺ": 151,
  "ĺ": 152,
  "Ļ": 153,
  "ļ": 154,
  "Ľ": 155,
  "ľ": 156,
  "Ŀ": 157,
  "ŀ": 158,
  "Ł": 159,
  "ł": 160,
  "¡": 161,
  "¢": 162,
  "£": 163,
  "¤": 164,
  "¥": 165,
  "¦": 166,
  "§": 167,
  "¨": 168,
  "©": 169,
  "ª": 170,
  "«": 171,
  "¬": 172,
  "Ń": 173,
  "®": 174,
  "¯": 175,
  "°": 176,
  "±": 177,
  "²": 178,
  "³": 179,
  "´": 180,
  "µ": 181,
  "¶": 182,
  "·": 183,
  "¸": 184,
  "¹": 185,
  "º": 186,
  "»": 187,
  "¼": 188,
  "½": 189,
  "¾": 190,
  "¿": 191,
  "À": 192,
  "Á": 193,
  "Â": 194,
  "Ã": 195,
  "Ä": 196,
  "Å": 197,
  "Æ": 198,
  "Ç": 199,
  "È": 200,
  "É": 201,
  "Ê": 202,
  "Ë": 203,
  "Ì": 204,
  "Í": 205,
  "Î": 206,
  "Ï": 207,
  "Ð": 208,
  "Ñ": 209,
  "Ò": 210,
  "Ó": 211,
  "Ô": 212,
  "Õ": 213,
  "Ö": 214,
  "×": 215,
  "Ø": 216,
  "Ù": 217,
  "Ú": 218,
  "Û": 219,
  "Ü": 220,
  "Ý": 221,
  "Þ": 222,
  "ß": 223,
  "à": 224,
  "á": 225,
  "â": 226,
  "ã": 227,
  "ä": 228,
  "å": 229,
  "æ": 230,
  "ç": 231,
  "è": 232,
  "é": 233,
  "ê": 234,
  "ë": 235,
  "ì": 236,
  "í": 237,
  "î": 238,
  "ï": 239,
  "ð": 240,
  "ñ": 241,
  "ò": 242,
  "ó": 243,
  "ô": 244,
  "õ": 245,
  "ö": 246,
  "÷": 247,
  "ø": 248,
  "ù": 249,
  "ú": 250,
  "û": 251,
  "ü": 252,
  "ý": 253,
  "þ": 254,
  "ÿ": 255,
  "Ġt": 256,
  "he": 257,
  "Ġa": 258,
  "Ġs": 259,
  "Ġw": 260,
  "nd": 261,
  "Ġthe": 262,
  "ed": 263,
  "Ġb": 264,
  "Ġto": 265,
  "Ġand": 266,
  "Ġh": 267,
  "Ġf": 268,
  "in": 269,
  "ĠT": 270,
  "Ġwa": 271,
  "re": 272,
  "it": 273,
  "ou": 274,
  "Ġl": 275,
  "Ġd": 276,
  "Ġc": 277,
  "Ġp": 278,
  "ay": 279,
  "Ġm": 280,
  "er": 281,
  "Ġwas": 282,
  "om": 283,
  "ĠThe": 284,
  "Ġhe": 285,
  "is": 286,
  "ar": 287,
  "Ġn": 288,
  "im": 289,
  "on": 290,
  "Ġsa": 291,
  "id": 292,
  "ll": 293,
  "Ġha": 294,
  "Ġg": 295,
  "at": 296,
  "ĠS": 297,
  "ing": 298,
  "ot": 299,
  "en": 300,
  "an": 301,
  "le": 302,
  "or": 303,
  "ir": 304,
  "am": 305,
  "et": 306,
  "ĠH": 307,
  "Ġit": 308,
  "Ġth": 309,
  "ig": 310,
  "ĠThey": 311,
  "Ġin": 312,
  "il": 313,
  "Ġpl": 314,
  "ĠHe": 315,
  "Ġ\"": 316,
  "ow": 317,
  "ver": 318,
  "ri": 319,
  "ut": 320,
  "Ġbe": 321,
  "Ġu": 322,
  "Ġsaid": 323,
  "Ġplay": 324,
  "ith": 325,
  "Ġday": 326,
  "Ġwith": 327,
  "pp": 328,
  "On": 329,
  "Ġo": 330,
  "Ġy": 331,
  "oo": 332,
  "ked": 333,
  "Ġr": 334,
  "Ġher": 335,
  "ce": 336,
  "ĠI": 337,
  "ĠShe": 338,
  "ld": 339,
  "ĠTim": 340,
  "Ġhis": 341,
  "Ġst": 342,
  "ke": 343,
  "Ġe": 344,
  "Ġbig": 345,
  "nt": 346,
  "ck": 347,
  "Ġyou": 348,
  "very": 349,
  "st": 350,
  "ve": 351,
  "end": 352,
  "Ġon": 353,
  "un": 354,
  "Ġhapp": 355,
  "riend": 356,
  "Ġfriend": 357,
  "all": 358,
  "ily": 359,
  "ĠL": 360,
  "Ġthey": 361,
  "Ġwe": 362,
  "Ġhad": 363,
  "Ġnot": 364,
  "Ġli": 365,
  "Ġup": 366,
  "her": 367,
  "Ġwant": 368,
  "Ġof": 369,
  "ad": 370,
  "itt": 371,
  "se": 372,
  "ĠB": 373,
  "Ġdo": 374,
  "Ġhappy": 375,
  "ent": 376,
  "Ġvery": 377,
  "ĠM": 378,
  "es": 379,
  "Ġthat": 380,
  "Ġsaw": 381,
  "One": 382,
  "'s": 383,
  "ould": 384,
  "Ġmom": 385,
  "Ġfor": 386,
  "Ġsh": 387,
  "ittle": 388,
  "Ġlittle": 389,
  "Ġso": 390,
  "Ġshe": 391,
  "ch": 392,
  "ime": 393,
  "Ġne": 394,
  "Ġnam": 395,
  ".\"": 396,
  "Ġtime": 397,
  "Ġk": 398,
  "ound": 399,
  "Ġthere": 400,
  "Ġnamed": 401,
  "Ġsm": 402,
  "Ġbo": 403,
  "Ġwere": 404,
  "ĠLily": 405,
  "Ġwanted": 406,
  "Ġbut": 407,
  "out": 408,
  "The": 409,
  "Ġfriends": 410,
  "ved": 411,
  "!\"": 412,
  "ht": 413,
  "ĠTom": 414,
  "ird": 415,
  "el": 416,
  "Ġbird": 417,
  "al": 418,
  "Ġan": 419,
  "ake": 420,
  "Ġtoo": 421,
  "ome": 422,
  "ĠIt": 423,
  "ug": 424,
  "ide": 425,
  "Ġwent": 426,
  "Ġwh": 427,
  "Ġhel": 428,
  "Once": 429,
  "Ġis": 430,
  "Ġall": 431,
  "Ġhelp": 432,
  "ue": 433,
  "Ġloo": 434,
  "Ġlo": 435,
  "ter": 436,
  "ĠA": 437,
  "Ġupon": 438,
  "ry": 439,
  "ore": 440,
  "ind": 441,
  "Ġfun": 442,
  "get": 443,
  "Ġtoy": 444,
  "ill": 445,
  "ame": 446,
  "Ġas": 447,
  "Ġat": 448,
  "ra": 449,
  "Ġj": 450,
  "Ġdid": 451,
  "gether": 452,
  "Ġre": 453,
  "ur": 454,
  "Ġse": 455,
  "Ġtogether": 456,
  "ack": 457,
  "Ġcat": 458,
  "ly": 459,
  "Ġtre": 460,
  "ood": 461,
  "ic": 462,
  "ted": 463,
  "Ġdog": 464,
  "Ġcould": 465,
  "Ġcan": 466,
  "Ġtheir": 467,
  "ard": 468,
  "ec": 469,
  "ark": 470,
  "Ġgir": 471,
  "Ġplayed": 472,
  "Ġhim": 473,
  "Ġball": 474,
  "?\"": 475,
  "Ġgirl": 476,
  "way": 477,
  "Ġro": 478,
  "Ġgo": 479,
  "hed": 480,
  "my": 481,
  "Ġare": 482,
  "Ġout": 483,
  "Ġle": 484,
  "Ġfr": 485,
  "ain": 486,
  "Ġkn": 487,
  "hen": 488,
  "Ġthem": 489,
  "um": 490,
  "'t": 491,
  "ax": 492,
  "Ġsad": 493,
  "ul": 494,
  "Ġboy": 495,
  "Ġtree": 496,
  "other": 497,
  "Ġhave": 498,
  "Ġman": 499,
  "Ġcl": 500,
  "Ġloved": 501,
  "Ġlooked": 502,
  "oug": 503,
  "Ġfound": 504,
  "Ġsp": 505,
  "Ġstar": 506,
  "ĠSue": 507,
  "one": 508,
  "hing": 509,
  "Ġsc": 510,
  "Ġback": 511,
  "own": 512,
  "ĠMax": 513,
  "are": 514,
  "Ġlike": 515,
  "ful": 516,
  "side": 517,
  "Ġme": 518,
  "Ġbec": 519,
  "Ġpark": 520,
  "ight": 521,
  "ong": 522,
  "Ġcar": 523,
  "op": 524,
  "elt": 525,
  "ĠOne": 526,
  "Ġliked": 527,
  "Ġwould": 528,
  "Ġmake": 529,
  "round": 530,
  "Ġla": 531,
  "Ġfa": 532,
  "Ġfelt": 533,
  "You": 534,
  "ĠW": 535,
  "ell": 536,
  "Ġsee": 537,
  "ĠBut": 538,
  "omet": 539,
  "Ġasked": 540,
  "ag": 541,
  "Ġnew": 542,
  "Ġno": 543,
  "ice": 544,
  "ĠSam": 545,
  "ouse": 546,
  "Ġstarted": 547,
  "ared": 548,
  "Ġcame": 549,
  "ĠBen": 550,
  "Ġal": 551,
  "Ġother": 552,
  "ought": 553,
  "iled": 554,
  "Ġsomet": 555,
  "Ġag": 556,
  "Ġgood": 557,
  "Ġsmall": 558,
  "ss": 559,
  "Ġbr": 560,
  "Ġsmiled": 561,
  "Ġsay": 562,
  "ried": 563,
  "ade": 564,
  "ings": 565,
  "ob": 566,
  "pot": 567,
  "Ġwor": 568,
  "Ġfind": 569,
  "Ġex": 570,
  "ia": 571,
  "Ġaway": 572,
  "ty": 573,
  "Ġput": 574,
  "Ġwhat": 575,
  "Ġsomething": 576,
  "Ġco": 577,
  "Ġfrom": 578,
  "Ġmade": 579,
  "Ġthought": 580,
  "ened": 581,
  "Ġhome": 582,
  "Ġplaying": 583,
  "ook": 584,
  "Ġevery": 585,
  "Ġwal": 586,
  "Ġmu": 587,
  "uc": 588,
  "ach": 589,
  "arn": 590,
  "ĠSpot": 591,
  "Ġran": 592,
  "ile": 593,
  "ĠF": 594,
  "ie": 595,
  "ĠJ": 596,
  "ave": 597,
  "Ġagain": 598,
  "Ġsome": 599,
  "Ġlaug": 600,
  "dd": 601,
  "Ġhouse": 602,
  "Ġdown": 603,
  "Ġfl": 604,
  "king": 605,
  "Ġtook": 606,
  "Ġscared": 607,
  "Ġpr": 608,
  "ny": 609,
  "ure": 610,
  "Ġtoys": 611,
  "Ġlearn": 612,
  "ĠYou": 613,
  "if": 614,
  "Ġwill": 615,
  "Ġbox": 616,
  "ick": 617,
  "ret": 618,
  "ab": 619,
  "ep": 620,
  "Ġmy": 621,
  "Ġaround": 622,
  "Ġthings": 623,
  "Ġyour": 624,
  "oud": 625,
  "Ġbl": 626,
  "uck": 627,
  "Ġwhen": 628,
  "ish": 629,
  "Ġlived": 630,
  "Ġfe": 631,
  "Ġthen": 632,
  "Ġsun": 633,
  "as": 634,
  "Ġsw": 635,
  ",\"": 636,
  "Ġch": 637,
  "us": 638,
  "pped": 639,
  "Ġab": 640,
  "ĠMia": 641,
  "ank": 642,
  "Ġget": 643,
  "ucy": 644,
  "Tim": 645,
  "ump": 646,
  "Th": 647,
  "Ġlot": 648,
  "ist": 649,
  "oth": 650,
  "Ġtried": 651,
  "ap": 652,
  "Ġknow": 653,
  "Ġsays": 654,
  "Ġgot": 655,
  "ited": 656,
  "Ġwho": 657,
  "Ġkne": 658,
  "ust": 659,
  "Ġmany": 660,
  "nder": 661,
  "Ġint": 662,
  "Ġabout": 663,
  "Lily": 664,
  "Ġpret": 665,
  "Ġdec": 666,
  "Ġany": 667,
  "Ġred": 668,
  "ĠD": 669,
  "ive": 670,
  "Ġknew": 671,
  "ace": 672,
  "ous": 673,
  "Ġmore": 674,
  "ise": 675,
  "Ġcare": 676,
  "ally": 677,
  "Ġpic": 678,
  "au": 679,
  "qu": 680,
  "Ġhug": 681,
  "ĠLucy": 682,
  "Ġlearned": 683,
  "Ġpo": 684,
  "Ġwater": 685,
  "fter": 686,
  "Ġv": 687,
  "Ġbecame": 688,
  "Ġbest": 689,
  "ause": 690,
  "Ġop": 691,
  "Ġgre": 692,
  "Ġexc": 693,
  "urp": 694,
  "ways": 695,
  "âĢ": 696,
  "Ġoutside": 697,
  "Ġlaughed": 698,
  "Ġlook": 699,
  "Ġalways": 700,
  "Ġdecid": 701,
  "Ġshow": 702,
  "Ġun": 703,
  "ant": 704,
  "ĠBob": 705,
  "Ġroom": 706,
  "fe": 707,
  "Ġdecided": 708,
  "Ġho": 709,
  "Ġbecause": 710,
  "ĠSo": 711,
  "Ġinto": 712,
  "Ġeat": 713,
  "ite": 714,
  "Ġjump": 715,
  "ĠAnd": 716,
  "Ġpe": 717,
  "Ġboth": 718,
  "ers": 719,
  "ĠMom": 720,
  "Ġdad": 721,
  "They": 722,
  "udd": 723,
  "Ġke": 724,
  "Ġone": 725,
  "nn": 726,
  "Ġthis": 727,
  "Ġexcited": 728,
  "Ġfast": 729,
  "Ġnice": 730,
  "ĠE": 731,
  "Ġfeel": 732,
  "Tom": 733,
  "Yes": 734,
  "Ġrun": 735,
  "Ġlong": 736,
  "Ġtold": 737,
  "Ġsk": 738,
  "Ġam": 739,
  "urpr": 740,
  "our": 741,
  "Ġinside": 742,
  "ull": 743,
  "Ġtr": 744,
  "Ġsurpr": 745,
  "Ġmo": 746,
  "ink": 747,
  "Ġpretty": 748,
  "iny": 749,
  "Ġsor": 750,
  "Wh": 751,
  "Ġtake": 752,
  "og": 753,
  "Ġsl": 754,
  "Ġeach": 755,
  "Ġgave": 756,
  "Ġmuch": 757,
  "Ġgra": 758,
  "lew": 759,
  "nna": 760,
  "Ġrock": 761,
  "Ġhow": 762,
  "Ġstr": 763,
  "ara": 764,
  "imal": 765,
  "Ġanimal": 766,
  "ged": 767,
  "Ġneed": 768,
  "Ġthan": 769,
  "But": 770,
  "ven": 771,
  "etter": 772,
  "Ġtow": 773,
  "Ġor": 774,
  "ĠC": 775,
  "Ġunder": 776,
  "ess": 777,
  "Ġold": 778,
  "Ġsorry": 779,
  "ge": 780,
  "ised": 781,
  "ro": 782,
  "urt": 783,
  "Ġcle": 784,
  "Ġfish": 785,
  "Ġwalked": 786,
  "Ġclo": 787,
  "and": 788,
  "Ġbear": 789,
  "ft": 790,
  "ase": 791,
  "ast": 792,
  "Ġhand": 793,
  "urn": 794,
  "ĠWe": 795,
  "Ġkind": 796,
  "ĠHis": 797,
  "Ġte": 798,
  "here": 799,
  "Ġhappened": 800,
  "Ġjust": 801,
  "Ġflow": 802,
  "Ġfood": 803,
  "Ġlist": 804,
  "Ġdidn": 805,
  "Ġanimals": 806,
  "Ġhig": 807,
  "pl": 808,
  "Ġnear": 809,
  "Ġwat": 810,
  "Ġide": 811,
  "Ġtry": 812,
  "ched": 813,
  "Ġsky": 814,
  "ine": 815,
  "Ġsn": 816,
  "ving": 817,
  "Ġfi": 818,
  "rom": 819,
  "Ġus": 820,
  "Ġidea": 821,
  "Ġbetter": 822,
  "ĠAmy": 823,
  "Ġbug": 824,
  "Ġheard": 825,
  "gry": 826,
  "Ġits": 827,
  "Ġtw": 828,
  "Ġlet": 829,
  "pec": 830,
  "ate": 831,
  "able": 832,
  "ff": 833,
  "Ġen": 834,
  "Ġcareful": 835,
  "Ġshare": 836,
  "ex": 837,
  "Ġif": 838,
  "Thank": 839,
  "Mom": 840,
  "Ġfly": 841,
  "Ġstor": 842,
  "ial": 843,
  "Ġflew": 844,
  "more": 845,
  "Ġanymore": 846,
  "ĠTh": 847,
  "Ġspec": 848,
  "Ġspecial": 849,
  "ion": 850,
  "Ġcom": 851,
  "Ġlots": 852,
  "Ġnever": 853,
  "Ġby": 854,
  "lf": 855,
  "ream": 856,
  "Ġdan": 857,
  "Ġbu": 858,
  "Ġfo": 859,
  "Ġwind": 860,
  "Ġdon": 861,
  "Ġtal": 862,
  "Ġclean": 863,
  "ort": 864,
  "Ġgr": 865,
  "Ġlove": 866,
  "rm": 867,
  "ber": 868,
  "Ġend": 869,
  "ĊĊ": 870,
  "ĠThen": 871,
  "ople": 872,
  "Ġeven": 873,
  "Ġmag": 874,
  "Ġhard": 875,
  "Ġshiny": 876,
  "udden": 877,
  "Ġfore": 878,
  "Ġover": 879,
  "Ġcake": 880,
  "ak": 881,
  "Ġbook": 882,
  "Ġcol": 883,
  "Ġturn": 884,
  "Ġfam": 885,
  "Ġbad": 886,
  "Ġsafe": 887,
  "Ġafter": 888,
  "ady": 889,
  "ĠAnna": 890,
  "uddenly": 891,
  "Ġpeople": 892,
  "Ġproud": 893,
  "ĠEvery": 894,
  "Ġsurprised": 895,
  "pected": 896,
  "Let": 897,
  "Ġhigh": 898,
  "Ġcu": 899,
  "Ġhurt": 900,
  "Ġcome": 901,
  "imb": 902,
  "arden": 903,
  "Ġdoor": 904,
  "Ġgarden": 905,
  "bb": 906,
  "Ġground": 907,
  "Ġopened": 908,
  "Ġpicked": 909,
  "Ġloud": 910,
  "Ġclimb": 911,
  "expected": 912,
  "Ġunexpected": 913,
  "Ġgl": 914,
  "Ġche": 915,
  "ild": 916,
  "Ġim": 917,
  "As": 918,
  "Ġgive": 919,
  "Ġway": 920,
  "ail": 921,
  "'m": 922,
  "Ġthanked": 923,
  "Ġcolor": 924,
  "Ġblue": 925,
  "Ġstill": 926,
  "Ġever": 927,
  "Ġhugged": 928,
  "ĠFrom": 929,
  "Ġcall": 930,
  "Ġfar": 931,
  "ip": 932,
  "ĠHer": 933,
  "ĠSara": 934,
  "ĠWhen": 935,
  "No": 936,
  "Ġoff": 937,
  "Ġmagic": 938,
  "iz": 939,
  "ough": 940,
  "age": 941,
  "ummy": 942,
  "ĠK": 943,
  "Ġjumped": 944,
  "Ġshould": 945,
  "Ġfamily": 946,
  "Ġpar": 947,
  "ool": 948,
  "Ġkid": 949,
  "Ġsmile": 950,
  "hes": 951,
  "uff": 952,
  "Ġplace": 953,
  "kay": 954,
  "Ġwalk": 955,
  "Ġnow": 956,
  "ct": 957,
  "ĠIn": 958,
  "Ġgreat": 959,
  "em": 960,
  "ture": 961,
  "Ġqu": 962,
  "les": 963,
  "Ġstrong": 964,
  "Ġstay": 965,
  "Ġunt": 966,
  "Ġsto": 967,
  "aut": 968,
  "Ġforest": 969,
  "ane": 970,
  "Ġbra": 971,
  "itty": 972,
  "ĠP": 973,
  "Ġfrog": 974,
  "Ġbro": 975,
  "Ġuntil": 976,
  "oon": 977,
  "Ġbeaut": 978,
  "dy": 979,
  "Ġsqu": 980,
  "Ġstick": 981,
  "xt": 982,
  "Ġnext": 983,
  "Ġboat": 984,
  "lease": 985,
  "ning": 986,
  "Ġhappily": 987,
  "Ġlisten": 988,
  "aking": 989,
  "Ġkids": 990,
  "Ġtra": 991,
  "ies": 992,
  "iful": 993,
  "Ġbeautiful": 994,
  "Ġapp": 995,
  "th": 996,
  "Ġhelped": 997,
  "Ġdra": 998,
  "Ġshowed": 999,
  "Ġclos": 1000,
  "be": 1001,
  "Ġimp": 1002,
  "Ġstory": 1003,
  "unny": 1004,
  "oy": 1005,
  "Ġwhile": 1006,
  "Ġtown": 1007,
  "rel": 1008,
  "pt": 1009,
  "Ġrain": 1010,
  "ress": 1011,
  "Ġpicture": 1012,
  "Ġbeing": 1013,
  "Ġrem": 1014,
  "Ġeveryone": 1015,
  "It": 1016,
  "ary": 1017,
  "ree": 1018,
  "Ġmor": 1019,
  "Ġhat": 1020,
  "Ġcalled": 1021,
  "Ġmet": 1022,
  "Ġstopped": 1023,
  "Ġad": 1024,
  "Ġgame": 1025,
  "Now": 1026,
  "He": 1027,
  "Can": 1028,
  "Ġangry": 1029,
  "ger": 1030,
  "uffy": 1031,
  "Ġopen": 1032,
  "Ġwo": 1033,
  "Ġtruck": 1034,
  "Ġkeep": 1035,
  "Ġsoft": 1036,
  "When": 1037,
  "Ġcry": 1038,
  "Ġyummy": 1039,
  "Ġlost": 1040,
  "Ġbed": 1041,
  "ĠLet": 1042,
  "ĠSally": 1043,
  "Ġwarm": 1044,
  "by": 1045,
  "vent": 1046,
  "Ġbrave": 1047,
  "Ġmouse": 1048,
  "ĠWh": 1049,
  "Ġate": 1050,
  "ĠKitty": 1051,
  "ished": 1052,
  "Ġde": 1053,
  "fore": 1054,
  "Ġdoll": 1055,
  "so": 1056,
  "Ġcouldn": 1057,
  "Ġwatch": 1058,
  "Ġleave": 1059,
  "Ġalso": 1060,
  "dded": 1061,
  "Ġfell": 1062,
  "Ġgreen": 1063,
  "Ġface": 1064,
  "Ġtwo": 1065,
  "gan": 1066,
  "iss": 1067,
  "Ġflowers": 1068,
  "bit": 1069,
  "What": 1070,
  "ĠR": 1071,
  "ble": 1072,
  "Ġnoise": 1073,
  "abbit": 1074,
  "irst": 1075,
  "owl": 1076,
  "Ġwhere": 1077,
  "az": 1078,
  "ock": 1079,
  "Ġsoon": 1080,
  "self": 1081,
  "Ġslide": 1082,
  "Ġrabbit": 1083,
  "Ġhole": 1084,
  "luffy": 1085,
  "Ġbefore": 1086,
  "irrel": 1087,
  "Ġpus": 1088,
  "ired": 1089,
  "Ġsat": 1090,
  "illy": 1091,
  "Ġhear": 1092,
  "Ġuse": 1093,
  "âĢĿ": 1094,
  "Hi": 1095,
  "Ġpa": 1096,
  "Ġkept": 1097,
  "âĢľ": 1098,
  "That": 1099,
  "Ġsquirrel": 1100,
  "ear": 1101,
  "Then": 1102,
  "ma": 1103,
  "Ġnodded": 1104,
  "Ġexpl": 1105,
  "Ġstore": 1106,
  "Ġcook": 1107,
  "Ġhands": 1108,
  "Look": 1109,
  "Ġbirds": 1110,
  "Ġpain": 1111,
  "Ġgoing": 1112,
  "Ġfunny": 1113,
  "Ġhaving": 1114,
  "day": 1115,
  "Ġsing": 1116,
  "aybe": 1117,
  "uch": 1118,
  "Ġey": 1119,
  "aug": 1120,
  "Ġcatch": 1121,
  "aught": 1122,
  "ĠCan": 1123,
  "ĠFluffy": 1124,
  "uit": 1125,
  "Ġyell": 1126,
  "Ġthink": 1127,
  "leep": 1128,
  "Ġcra": 1129,
  "Ġfin": 1130,
  "Ben": 1131,
  "Ġbre": 1132,
  "Ġfix": 1133,
  "Ġtired": 1134,
  "Ġbunny": 1135,
  "Ġused": 1136,
  "Ġlooking": 1137,
  "Ġbus": 1138,
  "ange": 1139,
  "air": 1140,
  "Ġwork": 1141,
  "Ġwr": 1142,
  "Ġour": 1143,
  "Ġpull": 1144,
  "We": 1145,
  "Ġthr": 1146,
  "thing": 1147,
  "ĠNow": 1148,
  "Ġwait": 1149,
  "Ġkit": 1150,
  "Ġsound": 1151,
  "ting": 1152,
  "Ġjo": 1153,
  "Ġhas": 1154,
  "ĠG": 1155,
  "Ġmean": 1156,
  "Ġpond": 1157,
  "ember": 1158,
  "Ġbeh": 1159,
  "Ġdr": 1160,
  "Ġsunny": 1161,
  "led": 1162,
  "Ġothers": 1163,
  "Ġask": 1164,
  "ng": 1165,
  "chen": 1166,
  "Ġkitchen": 1167,
  "Ġtalk": 1168,
  "Ġflo": 1169,
  "Ġdif": 1170,
  "rew": 1171,
  "Ġpie": 1172,
  "ĠJo": 1173,
  "Ġhead": 1174,
  "Ġreal": 1175,
  "Ġfirst": 1176,
  "Ġtri": 1177,
  "Ġmommy": 1178,
  "Ġeyes": 1179,
  "ello": 1180,
  "Ġimport": 1181,
  "Hello": 1182,
  "Ġfav": 1183,
  "ath": 1184,
  "joy": 1185,
  "Ġz": 1186,
  "Ġremember": 1187,
  "Ġright": 1188,
  "Ġflower": 1189,
  "Ġcon": 1190,
  "Ġmess": 1191,
  "Ġparty": 1192,
  "Ġcold": 1193,
  "ĠDo": 1194,
  "Ġvo": 1195,
  "Ġswe": 1196,
  "ious": 1197,
  "Ġsand": 1198,
  "ĠâĢľ": 1199,
  "ac": 1200,
  "orn": 1201,
  "Ġrace": 1202,
  "Ġcuri": 1203,
  "imes": 1204,
  "Ġimportant": 1205,
  "Ġduck": 1206,
  "Ġmoral": 1207,
  "Ġshared": 1208,
  "zy": 1209,
  "ount": 1210,
  "ĠJack": 1211,
  "Ġice": 1212,
  "Ġokay": 1213,
  "Ġadvent": 1214,
  "Ġworked": 1215,
  "llow": 1216,
  "At": 1217,
  "Ġenjoy": 1218,
  "Ġdress": 1219,
  "Ġbright": 1220,
  "Ġmaking": 1221,
  "Ġcurious": 1222,
  "Ġown": 1223,
  "Ġtall": 1224,
  "Ġdir": 1225,
  "Ġhop": 1226,
  "reed": 1227,
  "Ġhid": 1228,
  "Ġfavor": 1229,
  "Ġri": 1230,
  "hn": 1231,
  "Ġsleep": 1232,
  "Ġdis": 1233,
  "Wow": 1234,
  "Ġfavorite": 1235,
  "Ġthing": 1236,
  "Ġbegan": 1237,
  "Ġmon": 1238,
  "Ġbag": 1239,
  "Ġhill": 1240,
  "Don": 1241,
  "Ġcla": 1242,
  "Ġdraw": 1243,
  "Ġrest": 1244,
  "Ġhere": 1245,
  "Ġyard": 1246,
  "Ġtell": 1247,
  "ĠFin": 1248,
  "ster": 1249,
  "Ġwatched": 1250,
  "que": 1251,
  "Ġfollow": 1252,
  "Ġmove": 1253,
  "Ġbel": 1254,
  "ect": 1255,
  "Ġcut": 1256,
  "Ġnight": 1257,
  "Ġagreed": 1258,
  "Ġpick": 1259,
  "co": 1260,
  "Ġblock": 1261,
  "Ġhun": 1262,
  "aper": 1263,
  "lly": 1264,
  "Ġstop": 1265,
  "Ġbehind": 1266,
  "ĠThis": 1267,
  "Ġsurprise": 1268,
  "ied": 1269,
  "Ġsho": 1270,
  "Ġhot": 1271,
  "After": 1272,
  "Ġtable": 1273,
  "Ġgrass": 1274,
  "Ġworry": 1275,
  "Ġdark": 1276,
  "Ġtrees": 1277,
  "Ġvoice": 1278,
  "Ġwalking": 1279,
  "fere": 1280,
  "Ġfloor": 1281,
  "Ġfarm": 1282,
  "Ġlion": 1283,
  "Ġtop": 1284,
  "Ġdiffere": 1285,
  "Ġplease": 1286,
  "Ġru": 1287,
  "Ġsong": 1288,
  "Ġbutter": 1289,
  "Ġtail": 1290,
  "Ġsweet": 1291,
  "Max": 1292,
  "Ġshout": 1293,
  "Ġcolors": 1294,
  "Ġread": 1295,
  "ĠDad": 1296,
  "Ġlady": 1297,
  "Ġforg": 1298,
  "isy": 1299,
  "Ġleaves": 1300,
  "Ġcloser": 1301,
  "ign": 1302,
  "Ġcars": 1303,
  "Ġturned": 1304,
  "Ġneeded": 1305,
  "Ġtast": 1306,
  "Why": 1307,
  "aring": 1308,
  "Ġwood": 1309,
  "Ġcried": 1310,
  "Ġdifferent": 1311,
  "Ġlaugh": 1312,
  "Ġdel": 1313,
  "Ġpiece": 1314,
  "âĢĻ": 1315,
  "ered": 1316,
  "ĠMr": 1317,
  "Ġroll": 1318,
  "Ġadventure": 1319,
  "Ġfire": 1320,
  "Ġdoes": 1321,
  "ike": 1322,
  "Ġcr": 1323,
  "Ġhungry": 1324,
  "Ġhair": 1325,
  "ĠSuddenly": 1326,
  "Ġpaper": 1327,
  "Ġfeeling": 1328,
  "Ġyellow": 1329,
  "Ġfull": 1330,
  "bo": 1331,
  "Ġprin": 1332,
  "Sue": 1333,
  "Ġtouch": 1334,
  "ĠAs": 1335,
  "Anna": 1336,
  "Sam": 1337,
  "Ġwet": 1338,
  "Ġfriendly": 1339,
  "Ġper": 1340,
  "oom": 1341,
  "ken": 1342,
  "cked": 1343,
  "ached": 1344,
  "Ġswing": 1345,
  "Ġfruit": 1346,
  "ient": 1347,
  "Ġbroken": 1348,
  "Ġready": 1349,
  "bye": 1350,
  "ppy": 1351,
  "Ġprom": 1352,
  "ĠThat": 1353,
  "Ġanother": 1354,
  "Ġlight": 1355,
  "Ġpretend": 1356,
  "Ġdance": 1357,
  "ater": 1358,
  "Ġclimbed": 1359,
  "where": 1360,
  "Ġlistened": 1361,
  "ĠBobo": 1362,
  "Ġdanc": 1363,
  "Ġrunning": 1364,
  "Ġonly": 1365,
  "Ġplan": 1366,
  "Ġgone": 1367,
  "Ġswim": 1368,
  "bbed": 1369,
  "Suddenly": 1370,
  "sh": 1371,
  "Ġtrain": 1372,
  "ila": 1373,
  "ndma": 1374,
  "Sara": 1375,
  "ĠJane": 1376,
  "Ġclose": 1377,
  "av": 1378,
  "She": 1379,
  "Ġsmell": 1380,
  "So": 1381,
  "aby": 1382,
  "Ġamaz": 1383,
  "Ġhold": 1384,
  "Ġblocks": 1385,
  "Ġwonder": 1386,
  "ĠTimmy": 1387,
  "Ġrepl": 1388,
  "ĠAll": 1389,
  "Ġbutterf": 1390,
  "Ġsees": 1391,
  "Ġreached": 1392,
  "Ġwall": 1393,
  "Ġpu": 1394,
  "oney": 1395,
  "red": 1396,
  "Ġslow": 1397,
  "Ġhelping": 1398,
  "Ġdri": 1399,
  "Ġcream": 1400,
  "Ġcool": 1401,
  "Ġglad": 1402,
  "af": 1403,
  "Ġant": 1404,
  "Ġless": 1405,
  "Ġbeen": 1406,
  "Ġgoodbye": 1407,
  "Ġac": 1408,
  "Ġfight": 1409,
  "ather": 1410,
  "Mia": 1411,
  "Ġpushed": 1412,
  "iced": 1413,
  "Ġfair": 1414,
  "Ġmust": 1415,
  "Ġhide": 1416,
  "Ġmoment": 1417,
  "Ġwindow": 1418,
  "ĠO": 1419,
  "Ġsit": 1420,
  "Ġballoon": 1421,
  "Ġsnow": 1422,
  "Ġchild": 1423,
  "Ġexplore": 1424,
  "ĠEveryone": 1425,
  "Ġar": 1426,
  "Ġwished": 1427,
  "Ġbaby": 1428,
  "Ġdone": 1429,
  "Ġwag": 1430,
  "Ġste": 1431,
  "Ġbuy": 1432,
  "Ġstuck": 1433,
  "Ġperf": 1434,
  "Ġthank": 1435,
  "Ġmight": 1436,
  "icy": 1437,
  "Ġname": 1438,
  "ized": 1439,
  "Ġtrying": 1440,
  "Ġbit": 1441,
  "Ġcoming": 1442,
  "Ġbar": 1443,
  "Ġquick": 1444,
  "Ġfall": 1445,
  "Ġapple": 1446,
  "ash": 1447,
  "Ġscary": 1448,
  "Ġlooks": 1449,
  "Ġbuild": 1450,
  "Ġdoing": 1451,
  "Ġwin": 1452,
  "Ġunderst": 1453,
  "aisy": 1454,
  "Ġdin": 1455,
  "Ġdream": 1456,
  "Ġdirty": 1457,
  "Ġheld": 1458,
  "ames": 1459,
  "Ġbooks": 1460,
  "Ġmar": 1461,
  "In": 1462,
  "Ġbutterfly": 1463,
  "Ġleft": 1464,
  "Ġshouted": 1465,
  "Ġcount": 1466,
  "Ġreplied": 1467,
  "avy": 1468,
  "Ġreach": 1469,
  "Ġtiny": 1470,
  "Ġthrough": 1471,
  "ott": 1472,
  "Ġdro": 1473,
  "Ġwhy": 1474,
  "Ġair": 1475,
  "Ġbran": 1476,
  "Ġland": 1477,
  "key": 1478,
  "Ġthree": 1479,
  "Ġpulled": 1480,
  "Ġspl": 1481,
  "Ġgrow": 1482,
  "Ġtreat": 1483,
  "Ġbrother": 1484,
  "Ġwise": 1485,
  "Ġwoods": 1486,
  "Ġsure": 1487,
  "'re": 1488,
  "Ġchair": 1489,
  "ix": 1490,
  "Ġmat": 1491,
  "ins": 1492,
  "Ġseen": 1493,
  "Ġpink": 1494,
  "Ġclapped": 1495,
  "Ġplant": 1496,
  "ely": 1497,
  "Ġowl": 1498,
  "Ġcup": 1499,
  "ield": 1500,
  "Ġsometimes": 1501,
  "andy": 1502,
  "Ġfill": 1503,
  "Ġcloud": 1504,
  "ask": 1505,
  "Ġswam": 1506,
  "outh": 1507,
  "Ġjob": 1508,
  "Ġcolorful": 1509,
  "Ġremembered": 1510,
  "Ġbigger": 1511,
  "Ġnest": 1512,
  "Ġmouth": 1513,
  "pe": 1514,
  "Okay": 1515,
  "Ġlesson": 1516,
  "Ġjoin": 1517,
  "Ġcre": 1518,
  "ph": 1519,
  "ĠThere": 1520,
  "oup": 1521,
  "room": 1522,
  "art": 1523,
  "Ġwaved": 1524,
  "uddy": 1525,
  "Ġgrabbed": 1526,
  "Ġstayed": 1527,
  "Oh": 1528,
  "Ġpaint": 1529,
  "This": 1530,
  "Ġclot": 1531,
  "Ġcont": 1532,
  "Ġclothes": 1533,
  "Ġve": 1534,
  "ower": 1535,
  "ĠAfter": 1536,
  "Ġwaited": 1537,
  "Ġquickly": 1538,
  "cle": 1539,
  "Ġword": 1540,
  "Ġbroke": 1541,
  "ucky": 1542,
  "Ġgames": 1543,
  "Ġcast": 1544,
  "Ġblew": 1545,
  "Ġgent": 1546,
  "ĠMommy": 1547,
  "Ġenjoyed": 1548,
  "Ġnoticed": 1549,
  "Jo": 1550,
  "ries": 1551,
  "ation": 1552,
  "Ġset": 1553,
  "Ġlikes": 1554,
  "Ġpictures": 1555,
  "ton": 1556,
  "de": 1557,
  "Ġsea": 1558,
  "Ġheavy": 1559,
  "Ġmus": 1560,
  "Ġalone": 1561,
  "Ġgif": 1562,
  "asure": 1563,
  "Ġanything": 1564,
  "Ġspot": 1565,
  "Ġmiss": 1566,
  "Ġhopped": 1567,
  "Ġworld": 1568,
  "Ġturns": 1569,
  "orm": 1570,
  "Ġyear": 1571,
  "der": 1572,
  "Ġbott": 1573,
  "Ġpat": 1574,
  "Ġpot": 1575,
  "Ġpen": 1576,
  "lc": 1577,
  "Her": 1578,
  "Ġmix": 1579,
  "Ġarm": 1580,
  "Ġbike": 1581,
  "Ġtight": 1582,
  "Ġeverywhere": 1583,
  "Ġwon": 1584,
  "Lucy": 1585,
  "Ġtower": 1586,
  "Ġthrew": 1587,
  "Ġhimself": 1588,
  "Ġfollowed": 1589,
  "ĠBuddy": 1590,
  "Ġride": 1591,
  "man": 1592,
  "less": 1593,
  "Ġju": 1594,
  "Ġje": 1595,
  "amp": 1596,
  "Bob": 1597,
  "ape": 1598,
  "Ġcomp": 1599,
  "Ġkey": 1600,
  "row": 1601,
  "\".": 1602,
  "Ġwhite": 1603,
  "ctor": 1604,
  "Ġwrong": 1605,
  "ĠDaisy": 1606,
  "Ġmakes": 1607,
  "ĠWhat": 1608,
  "Ġbreak": 1609,
  "Ġblack": 1610,
  "arent": 1611,
  "ee": 1612,
  "ner": 1613,
  "Spot": 1614,
  "Do": 1615,
  "Ġdeep": 1616,
  "thy": 1617,
  "Ġmusic": 1618,
  "Ġpol": 1619,
  "Ġdelic": 1620,
  "cess": 1621,
  "ued": 1622,
  "Ġforgot": 1623,
  "Ġbee": 1624,
  "Ġparent": 1625,
  "Ġcastle": 1626,
  "ves": 1627,
  "olly": 1628,
  "Ġem": 1629,
  "iet": 1630,
  "Ġwear": 1631,
  "Ġhit": 1632,
  "ister": 1633,
  "oun": 1634,
  "Ġquiet": 1635,
  "Ġround": 1636,
  "ance": 1637,
  "Ġstu": 1638,
  "Ġdanced": 1639,
  "Ġvis": 1640,
  "ully": 1641,
  "Ġwants": 1642,
  "Ġleaf": 1643,
  "Ġmonster": 1644,
  "Ġnap": 1645,
  "ĠJohn": 1646,
  "Ġunderstand": 1647,
  "ang": 1648,
  "Ġbowl": 1649,
  "os": 1650,
  "rot": 1651,
  "ren": 1652,
  "Ġbor": 1653,
  "Ġtalked": 1654,
  "itten": 1655,
  "Ġdry": 1656,
  "Ġfaster": 1657,
  "Ġcookies": 1658,
  "Ġbrought": 1659,
  "fully": 1660,
  "Ġleg": 1661,
  "ross": 1662,
  "Ġmum": 1663,
  "zz": 1664,
  "Ġside": 1665,
  "ts": 1666,
  "From": 1667,
  "Ġsign": 1668,
  "ĠInside": 1669,
  "Ġsmart": 1670,
  "cy": 1671,
  "Ġrocks": 1672,
  "Ġsomeone": 1673,
  "His": 1674,
  "Ġpoin": 1675,
  "Ġsec": 1676,
  "Ġsharing": 1677,
  "Ġfox": 1678,
  "Ġwell": 1679,
  "Ġres": 1680,
  "Ġrel": 1681,
  "Ġhappen": 1682,
  "Ġbutton": 1683,
  "Ġbranch": 1684,
  "ĠLila": 1685,
  "Ġreally": 1686,
  "Ġfinished": 1687,
  "ence": 1688,
  "ards": 1689,
  "Ġdinner": 1690,
  "Ġsister": 1691,
  "Ġflying": 1692,
  "eddy": 1693,
  "Ġcontin": 1694,
  "Ġworried": 1695,
  "Ġele": 1696,
  "ĠTo": 1697,
  "Ġvisit": 1698,
  "ĠMaybe": 1699,
  "Ġbeach": 1700,
  "Ġque": 1701,
  "Ġsecret": 1702,
  "Ġel": 1703,
  "ĠSarah": 1704,
  "Ġking": 1705,
  "John": 1706,
  "gy": 1707,
  "Ġtoday": 1708,
  "Ġperfect": 1709,
  "Ġriver": 1710,
  "Ġeverything": 1711,
  "Ġsilly": 1712,
  "Ġshin": 1713,
  "ĠJoe": 1714,
  "Ġdanger": 1715,
  "ipp": 1716,
  "Ġchildren": 1717,
  "Ġgu": 1718,
  "ĠSoon": 1719,
  "Ġfield": 1720,
  "Ġfilled": 1721,
  "Ġfur": 1722,
  "Ġelse": 1723,
  "Ġsmiles": 1724,
  "Ġwelc": 1725,
  "ĠAt": 1726,
  "Ġwish": 1727,
  "ĠEm": 1728,
  "While": 1729,
  "Ġsang": 1730,
  "Ġgi": 1731,
  "ze": 1732,
  "Ġpudd": 1733,
  "Ġsnack": 1734,
  "Ġeating": 1735,
  "Ġrealized": 1736,
  "Ġpieces": 1737,
  "Ġpromised": 1738,
  "ord": 1739,
  "Ġspr": 1740,
  "Ġpig": 1741,
  "Ġfree": 1742,
  "Ġcontinued": 1743,
  "Ġbite": 1744,
  "ead": 1745,
  "Ġparents": 1746,
  "Ġcarefully": 1747,
  "ated": 1748,
  "itting": 1749,
  "Ġear": 1750,
  "Just": 1751,
  "Ġjar": 1752,
  "Maybe": 1753,
  "Ġcow": 1754,
  "Amy": 1755,
  "Ġblank": 1756,
  "Ġdrag": 1757,
  "stead": 1758,
  "Ġorange": 1759,
  "Ġmud": 1760,
  "Ġcrying": 1761,
  "Ġblanket": 1762,
  "Ġenough": 1763,
  "Ġrolled": 1764,
  "cket": 1765,
  "Ġsoup": 1766,
  "Ġsail": 1767,
  "Ġpurp": 1768,
  "imi": 1769,
  "Ġyes": 1770,
  "ale": 1771,
  "Ġdrink": 1772,
  "Ġsnake": 1773,
  "ses": 1774,
  "Ġboun": 1775,
  "Ġpet": 1776,
  "Ġcrab": 1777,
  "Ġthrow": 1778,
  "Ġlaughing": 1779,
  "Ġfairy": 1780,
  "Ġwords": 1781,
  "Ġamazing": 1782,
  "Ġbath": 1783,
  "ich": 1784,
  "Ġpurple": 1785,
  "ĠZ": 1786,
  "Ġwithout": 1787,
  "ire": 1788,
  "Ġbottle": 1789,
  "ĠBilly": 1790,
  "Ġgift": 1791,
  "Ġgrandma": 1792,
  "Fin": 1793,
  "used": 1794,
  "ons": 1795,
  "Ġpast": 1796,
  "Ġmoney": 1797,
  "iver": 1798,
  "fort": 1799,
  "Ġmail": 1800,
  "ĠGra": 1801,
  "Ġbarked": 1802,
  "Ġwagged": 1803,
  "Ġatt": 1804,
  "chool": 1805,
  "Ġmonkey": 1806,
  "Ġdoctor": 1807,
  "unch": 1808,
  "Ġbrown": 1809,
  "Ġmoved": 1810,
  "ises": 1811,
  "Ġasks": 1812,
  "Ġgetting": 1813,
  "Ġclosed": 1814,
  "Ġwhe": 1815,
  "Ġwelcome": 1816,
  "Ġsu": 1817,
  "Ġcandy": 1818,
  "Ġschool": 1819,
  "Ġmorning": 1820,
  "Ġowner": 1821,
  "gg": 1822,
  "Ġlon": 1823,
  "Ġmother": 1824,
  "Ġhigher": 1825,
  "Ġsitting": 1826,
  "Ġtreasure": 1827,
  ".âĢĿ": 1828,
  "Ġsmo": 1829,
  "!âĢĿ": 1830,
  "Ġdangerous": 1831,
  "Ġlonely": 1832,
  "ĠCh": 1833,
  "Ġliving": 1834,
  "Ġapples": 1835,
  "ush": 1836,
  "Ġshop": 1837,
  "ased": 1838,
  "Ġstrange": 1839,
  "vel": 1840,
  "Ġshining": 1841,
  "Ġroad": 1842,
  "ere": 1843,
  "ĠTommy": 1844,
  "Ġcreat": 1845,
  "una": 1846,
  "Ġpaw": 1847,
  "Ġra": 1848,
  "ey": 1849,
  "Ġshoes": 1850,
  "Ġpre": 1851,
  "ible": 1852,
  "Ġ-": 1853,
  "Ġstre": 1854,
  "Ġtalking": 1855,
  "althy": 1856,
  "Ġcaught": 1857,
  "Ġegg": 1858,
  "ol": 1859,
  "Ġpass": 1860,
  "me": 1861,
  "Ġlake": 1862,
  "Ġruns": 1863,
  "Ġbuck": 1864,
  "Ġletter": 1865,
  "Ġwings": 1866,
  "Ġchee": 1867,
  "fish": 1868,
  "Ġmad": 1869,
  "Ġfan": 1870,
  "asket": 1871,
  "Ġbasket": 1872,
  "ass": 1873,
  "Ġdragon": 1874,
  "app": 1875,
  "Mommy": 1876,
  "set": 1877,
  "cks": 1878,
  "Ġstone": 1879,
  "Ġthinks": 1880,
  "Ġstand": 1881,
  "Ġdelicious": 1882,
  "Ġnose": 1883,
  "Ġpuddle": 1884,
  "Ġtom": 1885,
  "ĠBl": 1886,
  "ĠMimi": 1887,
  "Ġbelie": 1888,
  "Ġfarmer": 1889,
  "Ġsame": 1890,
  "Ġyears": 1891,
  "board": 1892,
  "Ġteddy": 1893,
  "Ġbat": 1894,
  "isk": 1895,
  "itch": 1896,
  "Ġmine": 1897,
  "Ġsear": 1898,
  "Ġcoat": 1899,
  "ches": 1900,
  "igh": 1901,
  "Ġdays": 1902,
  "Ġbring": 1903,
  "Ġgentle": 1904,
  "Ġfit": 1905,
  "Ġstart": 1906,
  "Ġfinally": 1907,
  "Ġwhist": 1908,
  "Ġcray": 1909,
  "igg": 1910,
  "Ġscream": 1911,
  "Ġkite": 1912,
  "Ġpill": 1913,
  "phant": 1914,
  "arm": 1915,
  "Ġvill": 1916,
  "Ġcho": 1917,
  "Ġsinging": 1918,
  "ella": 1919,
  "sw": 1920,
  "ined": 1921,
  "Ġtasty": 1922,
  "Ġph": 1923,
  "Ġben": 1924,
  "Ġtrou": 1925,
  "Ġshell": 1926,
  "Ġherself": 1927,
  "Ġhoped": 1928,
  "Ġansw": 1929,
  "Ġwore": 1930,
  "Ġswings": 1931,
  "sy": 1932,
  "Ġhor": 1933,
  "Ġbelong": 1934,
  "Please": 1935,
  "Ġpush": 1936,
  "Ġbush": 1937,
  "iskers": 1938,
  "Ġcarrot": 1939,
  "Ġarri": 1940,
  "aughty": 1941,
  "Ġteach": 1942,
  "bow": 1943,
  "ract": 1944,
  "Ġnaughty": 1945,
  "Ġelephant": 1946,
  "Ġdropped": 1947,
  "Ġshap": 1948,
  "ier": 1949,
  "Ġcoll": 1950,
  "sc": 1951,
  "Ġteac": 1952,
  "emy": 1953,
  "Ġwoke": 1954,
  "ball": 1955,
  "Ġpile": 1956,
  "Ġhiding": 1957,
  "Ġcour": 1958,
  "isa": 1959,
  "erry": 1960,
  "Ġtouc": 1961,
  "Ġmin": 1962,
  "Ġpuppy": 1963,
  "'ll": 1964,
  "Ġseem": 1965,
  "llie": 1966,
  "Ġtwins": 1967,
  "ama": 1968,
  "Ġlunch": 1969,
  "Ġbow": 1970,
  "Ġsack": 1971,
  "Ġpers": 1972,
  "Ġcourse": 1973,
  "Ġcheered": 1974,
  "Ġshapes": 1975,
  "ĠJen": 1976,
  "Ġgrew": 1977,
  "fused": 1978,
  "Ġrope": 1979,
  "Ġvillage": 1980,
  "irth": 1981,
  "irthday": 1982,
  "Ġjuice": 1983,
  "ipped": 1984,
  "Ġrainbow": 1985,
  "Ġspin": 1986,
  "OK": 1987,
  "Ġshook": 1988,
  "Jack": 1989,
  "Ġspoon": 1990,
  "Ġbench": 1991,
  "Ġstreet": 1992,
  "Ġfence": 1993,
  "Ġcute": 1994,
  "ĠFred": 1995,
  "Ġrob": 1996,
  "Ġnut": 1997,
  "Ġcheese": 1998,
  "Ġprob": 1999,
  "Ġtouched": 2000,
  "idge": 2001,
  "col": 2002,
  "Ġjoy": 2003,
  "ĠWhiskers": 2004,
  "Ġarrived": 2005,
  "Ġseed": 2006,
  "Ġwar": 2007,
  "Ġteacher": 2008,
  "Ġcorn": 2009,
  "Good": 2010,
  "Ġforever": 2011,
  "Ġable": 2012,
  "Ġbell": 2013,
  "Ġfew": 2014,
  "Ġcarry": 2015,
  "Ġmost": 2016,
  "Ġplane": 2017,
  "ĠBlue": 2018,
  "lem": 2019,
  "Ġeas": 2020,
  "Ġsounds": 2021,
  "lla": 2022,
  "Ġdes": 2023,
  "Ġspo": 2024,
  "Ġproblem": 2025,
  "Ġbirthday": 2026,
  "Ġpower": 2027,
  "Ġinc": 2028,
  "umb": 2029,
  "br": 2030,
  "ĊĠ": 2031,
  "Ġbugs": 2032,
  "ilk": 2033,
  "Ġwonderful": 2034,
  "Ġdolls": 2035,
  "Ġbusy": 2036,
  "ato": 2037,
  "irp": 2038,
  "eb": 2039,
  "Ġwra": 2040,
  "Ġpromise": 2041,
  "ĠThank": 2042,
  "Ġfeels": 2043,
  "ian": 2044,
  "ĠEmma": 2045,
  "eter": 2046,
  "Ġbread": 2047,
  "Ġneck": 2048,
  "Finally": 2049,
  "Ġmilk": 2050,
  "Ġrobot": 2051,
  "Ġrec": 2052,
  "Ġshy": 2053,
  "ountain": 2054,
  "Ġkiss": 2055,
  "irt": 2056,
  "Ġheart": 2057,
  "Ġband": 2058,
  "Ġcave": 2059,
  "Ġpocket": 2060,
  "ub": 2061,
  "Ġhelpful": 2062,
  "gly": 2063,
  "Ġslowly": 2064,
  "Ġbelieve": 2065,
  "Ġshake": 2066,
  "umpy": 2067,
  "eared": 2068,
  "Ġpatient": 2069,
  "Ġpop": 2070,
  "Ġob": 2071,
  "arp": 2072,
  "Ġlive": 2073,
  "Ġstorm": 2074,
  "Ġholding": 2075,
  "Ġugly": 2076,
  "Ġtowards": 2077,
  "Ġupset": 2078,
  "Ġturt": 2079,
  "Ġshr": 2080,
  "adow": 2081,
  "Ġcover": 2082,
  "Ġkitten": 2083,
  "ost": 2084,
  "ĠRemy": 2085,
  "Ġsharp": 2086,
  "Ġdisapp": 2087,
  "Ġstories": 2088,
  "Ġsuc": 2089,
  "Ġhoney": 2090,
  "ove": 2091,
  "ĠBella": 2092,
  "read": 2093,
  "Ġnoises": 2094,
  "ĠLe": 2095,
  "Ġcir": 2096,
  "Ġballs": 2097,
  "Ġspark": 2098,
  "Ġgray": 2099,
  "Ġdist": 2100,
  "Ġdirt": 2101,
  "oggy": 2102,
  "Ġlate": 2103,
  "Ġdriver": 2104,
  "Ġseat": 2105,
  "Ġbucket": 2106,
  "Ġmeet": 2107,
  "Ġyoung": 2108,
  "Ġamazed": 2109,
  "Ġturtle": 2110,
  "alm": 2111,
  "Ġspid": 2112,
  "Ġtreats": 2113,
  "Ġmagical": 2114,
  "unt": 2115,
  "ator": 2116,
  "Ġglow": 2117,
  "Ġseek": 2118,
  "Ġzoom": 2119,
  "Ġlem": 2120,
  "Ġsandw": 2121,
  "fortable": 2122,
  "umber": 2123,
  "Ġtrip": 2124,
  "Ġmist": 2125,
  "ourn": 2126,
  "Ġsplas": 2127,
  "Ġmark": 2128,
  "Ġjourn": 2129,
  "Ġfold": 2130,
  "Ġmach": 2131,
  "Ġpuzz": 2132,
  "Ġpart": 2133,
  "ling": 2134,
  "Ġhorse": 2135,
  "Ġorgan": 2136,
  "Ġwild": 2137,
  "Ġprincess": 2138,
  "pping": 2139,
  "oose": 2140,
  "Ġcookie": 2141,
  "Sure": 2142,
  "ens": 2143,
  "Ġhugs": 2144,
  "ĠMark": 2145,
  "Ġtaking": 2146,
  "ung": 2147,
  "Ġwheel": 2148,
  "epend": 2149,
  "Ġcloth": 2150,
  "ĠLisa": 2151,
  "Ġsug": 2152,
  "Ġinstead": 2153,
  "Ġbubb": 2154,
  "Ġstring": 2155,
  "Ġnet": 2156,
  "Ġdrove": 2157,
  "iling": 2158,
  "Ġrude": 2159,
  "Ġhuge": 2160,
  "ĠJim": 2161,
  "Ġcoin": 2162,
  "Ġstars": 2163,
  "Ġfighting": 2164,
  "Be": 2165,
  "Ġspicy": 2166,
  "Ġlucky": 2167,
  "Of": 2168,
  "Ġcraw": 2169,
  "Hey": 2170,
  "Ġbone": 2171,
  "Ġinv": 2172,
  "ĠGrandma": 2173,
  "ors": 2174,
  "not": 2175,
  "Ġca": 2176,
  "pper": 2177,
  "Ġforget": 2178,
  "up": 2179,
  "Ġdi": 2180,
  "aur": 2181,
  "Ġsal": 2182,
  "ĠFinally": 2183,
  "Ġcannot": 2184,
  "Ġwhistle": 2185,
  "Ġcard": 2186,
  "Ġsick": 2187,
  "Ġpath": 2188,
  "Ġcou": 2189,
  "Ġspider": 2190,
  "Ġwide": 2191,
  "Lila": 2192,
  "Ġfoot": 2193,
  "Ġsnowman": 2194,
  "Ġsongs": 2195,
  "Ġlife": 2196,
  "Ġpillow": 2197,
  "ize": 2198,
  "ular": 2199,
  "ĠJust": 2200,
  "Later": 2201,
  "est": 2202,
  "ĠAnn": 2203,
  "ert": 2204,
  "Ġfixed": 2205,
  "Ġgiant": 2206,
  "oph": 2207,
  "rill": 2208,
  "Ġnod": 2209,
  "Ġboss": 2210,
  "Ġlast": 2211,
  "Ġcomes": 2212,
  "Ġjoke": 2213,
  "Ġmoon": 2214,
  "Ġtaste": 2215,
  "den": 2216,
  "Ġmachine": 2217,
  "Ġgrumpy": 2218,
  "Ġwave": 2219,
  "Ġthin": 2220,
  "Ġdrive": 2221,
  "Ġcart": 2222,
  "Ġash": 2223,
  "Ġser": 2224,
  "Ġgrab": 2225,
  "Ġpeace": 2226,
  "lower": 2227,
  "Ġdaddy": 2228,
  "ĠOn": 2229,
  "ĠLeo": 2230,
  "ery": 2231,
  "Ġsel": 2232,
  "Ġshelf": 2233,
  "Ġhidden": 2234,
  "erest": 2235,
  "Ġsuddenly": 2236,
  "Ġwasn": 2237,
  "Ġwrite": 2238,
  "Ġlanded": 2239,
  "Ġconfused": 2240,
  "Ġring": 2241,
  "Ġchange": 2242,
  "Ġworm": 2243,
  "Ġinterest": 2244,
  "Ġchased": 2245,
  "oop": 2246,
  "Ġfruits": 2247,
  "Ġsour": 2248,
  "ity": 2249,
  "Ġmyster": 2250,
  "Ġbark": 2251,
  "Ġrad": 2252,
  "Ġsmooth": 2253,
  "ĠCome": 2254,
  "Ġadventures": 2255,
  "Ġval": 2256,
  "Ġstepped": 2257,
  "Ġfle": 2258,
  "ope": 2259,
  "Ġoven": 2260,
  "Ġtakes": 2261,
  "Ġmissed": 2262,
  "Ġselfish": 2263,
  "kin": 2264,
  "Ġsheep": 2265,
  "Ġmessy": 2266,
  "To": 2267,
  "Ġacross": 2268,
  "Ġent": 2269,
  "Ġexp": 2270,
  "to": 2271,
  "Ġce": 2272,
  "Ġlater": 2273,
  "elly": 2274,
  "ĠN": 2275,
  "ife": 2276,
  "Ġsticks": 2277,
  "Ġtie": 2278,
  "St": 2279,
  "ever": 2280,
  "ĠLuna": 2281,
  "Ġstep": 2282,
  "Ġbought": 2283,
  "Ġdrew": 2284,
  "Ġtea": 2285,
  "pect": 2286,
  "Ġban": 2287,
  "irpy": 2288,
  "box": 2289,
  "?âĢĿ": 2290,
  "Ġwash": 2291,
  "Ġlay": 2292,
  "Ġpour": 2293,
  "Ġbeak": 2294,
  "ose": 2295,
  "Ġjog": 2296,
  "Ġgrate": 2297,
  "Ġducks": 2298,
  "Ġspe": 2299,
  "Ġlegs": 2300,
  "ugg": 2301,
  "Ġfil": 2302,
  "ĠBu": 2303,
  "Ġemp": 2304,
  "mer": 2305,
  "Ġhope": 2306,
  "Ġempty": 2307,
  "Ġslid": 2308,
  "Ġfeather": 2309,
  "Ġsleepy": 2310,
  "Ġdrum": 2311,
  "amed": 2312,
  "ars": 2313,
  "eth": 2314,
  "Ġzoo": 2315,
  "Ġpan": 2316,
  "Ġphone": 2317,
  "Ġgrateful": 2318,
  "Ġfing": 2319,
  "ions": 2320,
  "Ġlemon": 2321,
  "let": 2322,
  "ĠCat": 2323,
  "Ġclever": 2324,
  "ĠMolly": 2325,
  "Ġsmelly": 2326,
  "Ġimag": 2327,
  "Ġsplash": 2328,
  "Ġinteresting": 2329,
  "ĠJill": 2330,
  "Ġsave": 2331,
  "Ġchick": 2332,
  "Ġcalm": 2333,
  "Ġmed": 2334,
  "Ġwatching": 2335,
  "Soon": 2336,
  "izzy": 2337,
  "izz": 2338,
  "Ġplate": 2339,
  "Ġign": 2340,
  "yard": 2341,
  "Ġclouds": 2342,
  "Ġbanan": 2343,
  "Ġline": 2344,
  "Ġfaces": 2345,
  "Ġba": 2346,
  "Ġact": 2347,
  "Ġlift": 2348,
  "Ġthough": 2349,
  "Ġwolf": 2350,
  "Ġbackyard": 2351,
  "wel": 2352,
  "Ġseemed": 2353,
  "Ġdogs": 2354,
  "Ġspray": 2355,
  "Come": 2356,
  "Ġprot": 2357,
  "Ġwhole": 2358,
  "Ġmot": 2359,
  "Ġfancy": 2360,
  "ĠDaddy": 2361,
  "Ġquest": 2362,
  "Ġarms": 2363,
  "Ġpuzzle": 2364,
  "Ġhealthy": 2365,
  "Ġsupp": 2366,
  "ward": 2367,
  "Ġfinish": 2368,
  "erly": 2369,
  "Ġalong": 2370,
  "llo": 2371,
  "Ġrocket": 2372,
  "Ġexplain": 2373,
  "dge": 2374,
  "Ġeasy": 2375,
  "Ġjewel": 2376,
  "ont": 2377,
  "Ġpract": 2378,
  "Ġjelly": 2379,
  "ĠChirpy": 2380,
  "Ġtid": 2381,
  "Ġfake": 2382,
  "Ġcrayons": 2383,
  "Ġwondered": 2384,
  "Ġmaybe": 2385,
  "Ġscar": 2386,
  "Ġship": 2387,
  "Ġnothing": 2388,
  "onest": 2389,
  "Ġemb": 2390,
  "iger": 2391,
  "Ġpool": 2392,
  "Ġlonger": 2393,
  "Ġanyone": 2394,
  "ĠBe": 2395,
  "ĠJerry": 2396,
  "ually": 2397,
  "Ġfront": 2398,
  "Ġworking": 2399,
  "Ġgives": 2400,
  "irr": 2401,
  "Ġpack": 2402,
  "Ġsuch": 2403,
  "ĠBunny": 2404,
  "ocked": 2405,
  "ment": 2406,
  "Ġbossy": 2407,
  "ĠDoggy": 2408,
  "Ġtrouble": 2409,
  "Ġsmelled": 2410,
  "Ġsaved": 2411,
  "Ġpin": 2412,
  "rass": 2413,
  "Ġneigh": 2414,
  "arrass": 2415,
  "iting": 2416,
  "Ġhonest": 2417,
  "Ġav": 2418,
  "arge": 2419,
  "Ġembarrass": 2420,
  "Ġvan": 2421,
  "Ġforgive": 2422,
  "Ġtidy": 2423,
  "Ġweak": 2424,
  "urse": 2425,
  "Ġputs": 2426,
  "unk": 2427,
  "Ġkick": 2428,
  "Ġshirt": 2429,
  "ĠWith": 2430,
  "Ġmind": 2431,
  "ĠOllie": 2432,
  "Ġneighb": 2433,
  "Ġplants": 2434,
  "Ġsol": 2435,
  "ĠMomo": 2436,
  "Ġgently": 2437,
  "Ġcozy": 2438,
  "orrow": 2439,
  "ming": 2440,
  "Ġexplor": 2441,
  "sp": 2442,
  "Ġmistake": 2443,
  "Ġyog": 2444,
  "oc": 2445,
  "oomy": 2446,
  "Ġpointed": 2447,
  "Ġlad": 2448,
  "Ġaf": 2449,
  "Ġstood": 2450,
  "ork": 2451,
  "Ġonto": 2452,
  "Ġwaiting": 2453,
  "Ġjumping": 2454,
  "Ġprince": 2455,
  "Ġcross": 2456,
  "Ġlock": 2457,
  "Ġcheer": 2458,
  "Ġqueen": 2459,
  "ĠWhy": 2460,
  "ĠMary": 2461,
  "Ġwing": 2462,
  "ones": 2463,
  "we": 2464,
  "Ġlarge": 2465,
  "Ġlovely": 2466,
  "ult": 2467,
  "Ġsur": 2468,
  "Ġret": 2469,
  "And": 2470,
  "Ġdeer": 2471,
  "Ġchew": 2472,
  "Ġcouch": 2473,
  "Ġbal": 2474,
  "aughter": 2475,
  "Ġstret": 2476,
  "era": 2477,
  "ĠTheir": 2478,
  "Ġplaces": 2479,
  "ĠMy": 2480,
  "Ġladder": 2481,
  "oof": 2482,
  "Ġreturn": 2483,
  "raid": 2484,
  "Ġants": 2485,
  "Ġdish": 2486,
  "Ġafraid": 2487,
  "Ġcleaned": 2488,
  "Ġtomorrow": 2489,
  "Ġbuilding": 2490,
  "Ġsandwich": 2491,
  "Ġperson": 2492,
  "Sally": 2493,
  "ned": 2494,
  "Ġpretended": 2495,
  "Ġbounce": 2496,
  "Ġwip": 2497,
  "gest": 2498,
  "Ġmatch": 2499,
  "Ġrich": 2500,
  "uce": 2501,
  "Ġpizz": 2502,
  "Ġgather": 2503,
  "Ġsearch": 2504,
  "Ġboring": 2505,
  "oman": 2506,
  "ĠSomet": 2507,
  "Ġteeth": 2508,
  "Ġhum": 2509,
  "Kitty": 2510,
  "My": 2511,
  "aced": 2512,
  "Ġdaughter": 2513,
  "Ġwoman": 2514,
  "Ġscarf": 2515,
  "Ġgoes": 2516,
  "ĠTogether": 2517,
  "Ġlaw": 2518,
  "Ġstra": 2519,
  "Ġswimming": 2520,
  "Ġfurry": 2521,
  "Ġsplashed": 2522,
  "Ġpri": 2523,
  "Ġloves": 2524,
  "Ġtrue": 2525,
  "Ġscreamed": 2526,
  "Ġlazy": 2527,
  "Ġgen": 2528,
  "Ġanswer": 2529,
  "Ġnumber": 2530,
  "Ġeag": 2531,
  "Ġashamed": 2532,
  "Ġpizza": 2533,
  "aw": 2534,
  "Ġappeared": 2535,
  "Ġfear": 2536,
  "Ġnearby": 2537,
  "Ġpowerful": 2538,
  "Ġflag": 2539,
  "ĠSt": 2540,
  "Ġhang": 2541,
  "vous": 2542,
  "Ġclown": 2543,
  "ek": 2544,
  "Ġchase": 2545,
  "Ġmotor": 2546,
  "Ġwand": 2547,
  "ĠTV": 2548,
  "Ġrub": 2549,
  "Ġsuccess": 2550,
  "Ġchocol": 2551,
  "ĠIf": 2552,
  "Ġcreative": 2553,
  "Ġtrust": 2554,
  "Ġwearing": 2555,
  "Ġnoisy": 2556,
  "Ġmatter": 2557,
  "pa": 2558,
  "Ġdig": 2559,
  "Ġhello": 2560,
  "Ġner": 2561,
  "Ġtool": 2562,
  "Ġsaf": 2563,
  "ĠBird": 2564,
  "ado": 2565,
  "Ġnervous": 2566,
  "elp": 2567,
  "Ġtest": 2568,
  "Ġsmiling": 2569,
  "Ġsold": 2570,
  "icked": 2571,
  "oppy": 2572,
  "osaur": 2573,
  "Ġcircle": 2574,
  "mb": 2575,
  "Ġmap": 2576,
  "Ġdrank": 2577,
  "Ġclass": 2578,
  "Ġtries": 2579,
  "Ġchocolate": 2580,
  "ĠPlease": 2581,
  "Ġimpress": 2582,
  "Ġknee": 2583,
  "Ġgener": 2584,
  "Ġdinosaur": 2585,
  "Ġpolite": 2586,
  "Ġmirr": 2587,
  "ĠBobby": 2588,
  "ĠTiny": 2589,
  "Ġballoons": 2590,
  "Ġgold": 2591,
  "Ġrare": 2592,
  "Ġprotect": 2593,
  "Ġcand": 2594,
  "Stop": 2595,
  "Ġcarried": 2596,
  "ĠGo": 2597,
  "ensive": 2598,
  "Ġap": 2599,
  "Ġshadow": 2600,
  "Ġmirror": 2601,
  "ĠDon": 2602,
  "Ġbald": 2603,
  "Ġgun": 2604,
  "ina": 2605,
  "Ġexpensive": 2606,
  "Ġreg": 2607,
  "iff": 2608,
  "Ġmysterious": 2609,
  "ĠSp": 2610,
  "Ġpump": 2611,
  "Ġnote": 2612,
  "Ġhero": 2613,
  "Ġmarch": 2614,
  "Ġhar": 2615,
  "arl": 2616,
  "Ġicy": 2617,
  "Ġrespect": 2618,
  "Ġweird": 2619,
  "Ġsnee": 2620,
  "Ġcri": 2621,
  "Ġgate": 2622,
  "Ġsoap": 2623,
  "rag": 2624,
  "ute": 2625,
  "issors": 2626,
  "Ġthese": 2627,
  "Ġpoor": 2628,
  "Ġtowel": 2629,
  "Ġwhale": 2630,
  "Ġfeet": 2631,
  "Ġtape": 2632,
  "Ġdizzy": 2633,
  "itter": 2634,
  "Ġgenerous": 2635,
  "ndpa": 2636,
  "Ġpres": 2637,
  "ĠBenny": 2638,
  "nic": 2639,
  "Ġdisco": 2640,
  "Help": 2641,
  "ventually": 2642,
  "Ġpicnic": 2643,
  "Ġmic": 2644,
  "Ġlead": 2645,
  "Ġsque": 2646,
  "Ġembarrassed": 2647,
  "Ġjourney": 2648,
  "Ġsugar": 2649,
  "isp": 2650,
  "scape": 2651,
  "Ġboot": 2652,
  "Ġtent": 2653,
  "Ġpeaceful": 2654,
  "Ġfat": 2655,
  "ĠBear": 2656,
  "Ġscissors": 2657,
  "Ġtasted": 2658,
  "Ġyelled": 2659,
  "Tommy": 2660,
  "Ġtick": 2661,
  "Ġmel": 2662,
  "Ġbrush": 2663,
  "Ġdancing": 2664,
  "ness": 2665,
  "Ġglue": 2666,
  "Ġhur": 2667,
  "Ġrough": 2668,
  "Ġclap": 2669,
  "Ġbridge": 2670,
  "ote": 2671,
  "Ġdecor": 2672,
  "Ġcloset": 2673,
  "Ġcrown": 2674,
  "Ġstir": 2675,
  "ual": 2676,
  "imp": 2677,
  "Ġprint": 2678,
  "ĠSometimes": 2679,
  "owed": 2680,
  "airs": 2681,
  "ĠHow": 2682,
  "ume": 2683,
  "Ġcap": 2684,
  "Ġlamp": 2685,
  "Ġvase": 2686,
  "Ġscare": 2687,
  "lebr": 2688,
  "Ġrelie": 2689,
  "lves": 2690,
  "any": 2691,
  "Ġeld": 2692,
  "Ġtele": 2693,
  "Ġcelebr": 2694,
  "Ġgigg": 2695,
  "Ġwhisp": 2696,
  "Ġlog": 2697,
  "Ġsco": 2698,
  "Ġblow": 2699,
  "Ġpainted": 2700,
  "ĠDucky": 2701,
  "Ġpay": 2702,
  "erries": 2703,
  "Ġwis": 2704,
  "Ġberries": 2705,
  "Ġmixed": 2706,
  "Ġspread": 2707,
  "Ġwouldn": 2708,
  "Ġcage": 2709,
  "Ġbake": 2710,
  "rob": 2711,
  "getable": 2712,
  "Ġmountain": 2713,
  "Ġadm": 2714,
  "Ġdrawing": 2715,
  "Ġbecome": 2716,
  "Ġfamous": 2717,
  "Ġknocked": 2718,
  "Ġbean": 2719,
  "Ġnorm": 2720,
  "Ġvegetable": 2721,
  "asp": 2722,
  "Ġkicked": 2723,
  "ustr": 2724,
  "Ġshark": 2725,
  "ser": 2726,
  "Ġincred": 2727,
  "Ġlose": 2728,
  "Ġnormal": 2729,
  "Ġwrap": 2730,
  "ced": 2731,
  "Ġgroup": 2732,
  "Ġthick": 2733,
  "Ġ3": 2734,
  "Ġfine": 2735,
  "Ġglass": 2736,
  "Ġignor": 2737,
  "Ġclock": 2738,
  "Ġteam": 2739,
  "Ġelderly": 2740,
  "Ġclear": 2741,
  "Ġcorner": 2742,
  "Ġfrustr": 2743,
  "Ġmighty": 2744,
  "robe": 2745,
  "Ġcone": 2746,
  "Ġincredible": 2747,
  "ĠBr": 2748,
  "ighed": 2749,
  "Dad": 2750,
  "Ġmoms": 2751,
  "Ġbalance": 2752,
  "Ġsock": 2753,
  "Ġspace": 2754,
  "Ġjam": 2755,
  "ragile": 2756,
  "Ġfright": 2757,
  "Ġorganized": 2758,
  "Ġbranches": 2759,
  "Ġroar": 2760,
  "port": 2761,
  "Ġsword": 2762,
  "alous": 2763,
  "ĠMama": 2764,
  "Ġguess": 2765,
  "Ġfool": 2766,
  "Ġsell": 2767,
  "Ġfeed": 2768,
  "ĠSome": 2769,
  "Ġwhich": 2770,
  "Ġhorn": 2771,
  "Ġpresent": 2772,
  "Ġjealous": 2773,
  "Ġyarn": 2774,
  "ony": 2775,
  "Ġfragile": 2776,
  "Ġburn": 2777,
  "Ġunderstood": 2778,
  "Ġmis": 2779,
  "Ġstubb": 2780,
  "Ġter": 2781,
  "Ġfrustrated": 2782,
  "Where": 2783,
  "ray": 2784,
  "Ġhose": 2785,
  "cient": 2786,
  "Ġspent": 2787,
  "Ġshoe": 2788,
  "Ġtaught": 2789,
  "Ġstubborn": 2790,
  "Ġtwist": 2791,
  "Ġcreature": 2792,
  "Ġchest": 2793,
  "Ġspoiled": 2794,
  "Ġrelieved": 2795,
  "Ġancient": 2796,
  "ique": 2797,
  "Ġwake": 2798,
  "Ġfier": 2799,
  "Ġpray": 2800,
  "Ġfierce": 2801,
  "Ġeggs": 2802,
  "Ġcab": 2803,
  "Ġterri": 2804,
  "Ġbarn": 2805,
  "Ġpumpkin": 2806,
  "Ġcomfortable": 2807,
  "Ġord": 2808,
  "ym": 2809,
  "Ġfrightened": 2810,
  "orry": 2811,
  "Ġtoug": 2812,
  "Ġunique": 2813,
  "Ġmeasure": 2814,
  "Ġgoat": 2815,
  "Ġwagon": 2816,
  "Ġunus": 2817,
  "Ġbreath": 2818,
  "Ġfoolish": 2819,
  "Ġuseful": 2820,
  "Ġexploring": 2821,
  "dle": 2822,
  "Ġstraw": 2823,
  "Ġunusual": 2824,
  "Ġdug": 2825,
  "Ġclay": 2826,
  "Ġdiscover": 2827,
  "Ġtomato": 2828,
  "ĠPe": 2829,
  "Ġdead": 2830,
  "Ġfinding": 2831,
  "Ġpolice": 2832,
  "Ġwrote": 2833,
  "Ġclum": 2834,
  "Ġexam": 2835,
  "lace": 2836,
  "Ġwaves": 2837,
  "Ġsquare": 2838,
  "Ġhears": 2839,
  "Ġcabin": 2840,
  "Ġtells": 2841,
  "Ġnecklace": 2842,
  "Ġdull": 2843,
  "Ġclumsy": 2844,
  "Ġtough": 2845,
  "Ġbubbles": 2846,
  "Ġnosy": 2847,
  "kn": 2848,
  "Ġsearched": 2849,
  "Together": 2850,
  "Ġwashed": 2851,
  "Ġbathroom": 2852,
  "Ġpaws": 2853,
  "bby": 2854,
  "ond": 2855,
  "unn": 2856,
  "anged": 2857,
  "Ġboard": 2858,
  "fic": 2859,
  "known": 2860,
  "Ġasking": 2861,
  "Ġcrazy": 2862,
  "Ġthankful": 2863,
  "Ġsunf": 2864,
  "Ġbitter": 2865,
  "yal": 2866,
  "Ġpir": 2867,
  "berry": 2868,
  "alk": 2869,
  "Ġind": 2870,
  "Ġdiffic": 2871,
  "Ġrose": 2872,
  "cil": 2873,
  "Ġswan": 2874,
  "Ġbloom": 2875,
  "Ġunknown": 2876,
  "ĠElla": 2877,
  "Ġcovered": 2878,
  "Ġdifficult": 2879,
  "Ġadd": 2880,
  "Ġpencil": 2881,
  "Ġfinger": 2882,
  "Ġham": 2883,
  "Ġhoop": 2884,
  "Ġjet": 2885,
  "Ġwitch": 2886,
  "Ġdrop": 2887,
  "Me": 2888,
  "Ġ'": 2889,
  "Ġchicken": 2890,
  "Ġgloomy": 2891,
  "apped": 2892,
  "Ġloyal": 2893,
  "als": 2894,
  "Here": 2895,
  "Ġwealthy": 2896,
  "com": 2897,
  "light": 2898,
  "Ġunl": 2899,
  "Ġcats": 2900,
  "Ġending": 2901,
  "Ġguit": 2902,
  "bled": 2903,
  "shine": 2904,
  "Ġdove": 2905,
  "Ġjoined": 2906,
  "Ġcher": 2907,
  "anut": 2908,
  "Ġmov": 2909,
  "Ġterrible": 2910,
  "Ġyours": 2911,
  "iant": 2912,
  "ĠU": 2913,
  "ĠRex": 2914,
  "Ġsalad": 2915,
  "ĠAndy": 2916,
  "Ġnuts": 2917,
  "Ġrat": 2918,
  "ground": 2919,
  "Ġtiger": 2920,
  "Ġpotato": 2921,
  "Ġmask": 2922,
  "xible": 2923,
  "selves": 2924,
  "Ġvalue": 2925,
  "Ġchanged": 2926,
  "Ġmoving": 2927,
  "Ġexciting": 2928,
  "ormous": 2929,
  "ĠMany": 2930,
  "Ġbody": 2931,
  "ĠTr": 2932,
  "Ġtoast": 2933,
  "Ġrecord": 2934,
  "erp": 2935,
  "Ġzip": 2936,
  "Ġdisg": 2937,
  "Ġcheap": 2938,
  "Ġguitar": 2939,
  "irsty": 2940,
  "Ġknowing": 2941,
  "Ġadventur": 2942,
  "Ġyourself": 2943,
  "Ġenormous": 2944,
  "Ġhairy": 2945,
  "Every": 2946,
  "Ġshoot": 2947,
  "ĠBrown": 2948,
  "Ġbored": 2949,
  "Ġpepper": 2950,
  "Ġremind": 2951,
  "ory": 2952,
  "land": 2953,
  "Ġacorn": 2954,
  "Ġadventurous": 2955,
  "Ġsunshine": 2956,
  "Ġsmaller": 2957,
  "Ġstuff": 2958,
  "Ġhats": 2959,
  "Ġsolve": 2960,
  "ĠJimmy": 2961,
  "Ġflexible": 2962,
  "Ġcost": 2963,
  "rilliant": 2964,
  "Ġknife": 2965,
  "Ġperform": 2966,
  "Ġsnacks": 2967,
  "Ġnods": 2968,
  "Ġshore": 2969,
  "Ġbrilliant": 2970,
  "Ġthirsty": 2971,
  "Ġdelicate": 2972,
  "Ġfrown": 2973,
  "Ġdisgust": 2974,
  "Ġcollect": 2975,
  "Ġstri": 2976,
  "Ġseeds": 2977,
  "Ġcounted": 2978,
  "Ġasleep": 2979,
  "Ġbanana": 2980,
  "reen": 2981,
  "Ġmailbox": 2982,
  "iness": 2983,
  "Ġdough": 2984,
  "Ġtrick": 2985,
  "Ġneighbor": 2986,
  "ungle": 2987,
  "Ġheal": 2988,
  "live": 2989,
  "Who": 2990,
  "Ġstage": 2991,
  "ident": 2992,
  "Ġmarket": 2993,
  "Ġcube": 2994,
  "Ġstat": 2995,
  "Ġjungle": 2996,
  "Ġsquee": 2997,
  "mbre": 2998,
  "Ġexplained": 2999,
  "ates": 3000,
  "Ġumbre": 3001,
  "Ġdisgusting": 3002,
  "Jim": 3003,
  "fted": 3004,
  "Ġlab": 3005,
  "Ġjolly": 3006,
  "Ġflash": 3007,
  "und": 3008,
  "Ġfridge": 3009,
  "inal": 3010,
  "pid": 3011,
  "ilt": 3012,
  "Ġcrane": 3013,
  "corn": 3014,
  "Ġsuit": 3015,
  "Ġrh": 3016,
  "iddle": 3017,
  "Ġsunflower": 3018,
  "Ġtimes": 3019,
  "ĠAl": 3020,
  "erpill": 3021,
  "Ġcaterpill": 3022,
  "Ġrelax": 3023,
  "Ġshiver": 3024,
  "Ġfour": 3025,
  "Ġisland": 3026,
  "iginal": 3027,
  "Ġharm": 3028,
  "ict": 3029,
  "ĠWhile": 3030,
  "ying": 3031,
  "Ġstupid": 3032,
  "Ġmedic": 3033,
  "ĠInstead": 3034,
  "Ġcomb": 3035,
  "Ġgoose": 3036,
  "Ġcro": 3037,
  "edient": 3038,
  "ĠWill": 3039,
  "Ġstove": 3040,
  "If": 3041,
  "Are": 3042,
  "Ġindepend": 3043,
  "Mum": 3044,
  "most": 3045,
  "Ġspring": 3046,
  "Ġgem": 3047,
  "Ġbatter": 3048,
  "Ġsighed": 3049,
  "Ġvegetables": 3050,
  "Ġstones": 3051,
  "pes": 3052,
  "Ġshine": 3053,
  "How": 3054,
  "Ġmedicine": 3055,
  "Ġdepend": 3056,
  "Ġrug": 3057,
  "ĠYour": 3058,
  "Ġcareless": 3059,
  "Ġoriginal": 3060,
  "Ġstamp": 3061,
  "Ġgar": 3062,
  "Ġcries": 3063,
  "Inside": 3064,
  "gu": 3065,
  "Ġcarrots": 3066,
  "Ġscr": 3067,
  "Ġsuccessful": 3068,
  "Ġsauce": 3069,
  "Ġjeep": 3070,
  "Ġpopcorn": 3071,
  "Ġmeal": 3072,
  "Ġobedient": 3073,
  "Ġalmost": 3074,
  "Ġmiddle": 3075,
  "Ġmagn": 3076,
  "Ġstudy": 3077,
  "Ġindependent": 3078,
  "Ġfearful": 3079,
  "Ġjack": 3080,
  "met": 3081,
  "inky": 3082,
  "Sorry": 3083,
  "ĠSammy": 3084,
  "Ġescape": 3085,
  "Ġcaterpillar": 3086,
  "Ġserious": 3087,
  "Ġpeanut": 3088,
  "Ġbedroom": 3089,
  "Ġeager": 3090,
  "aken": 3091,
  "Ġgets": 3092,
  "Ġparrot": 3093,
  "Ġstatue": 3094,
  "Ġhelmet": 3095,
  "Ġpebb": 3096,
  "ĠNo": 3097,
  "Ġfountain": 3098,
  "Ġraven": 3099,
  "Ġang": 3100,
  "Ġpasta": 3101,
  "Ġumbrella": 3102,
  "Ġcompet": 3103,
  "There": 3104,
  "Ġjacket": 3105,
  "Ġbelonged": 3106,
  "Ġdest": 3107,
  "Ġfilthy": 3108,
  "Ġdesign": 3109,
  "Ġborrow": 3110,
  "Ġcam": 3111,
  "erable": 3112,
  "Ġhouses": 3113,
  "Ġprize": 3114,
  "Ġhay": 3115,
  "Ġbrace": 3116,
  "Ġstanding": 3117,
  "Ġmiserable": 3118,
  "Ġraced": 3119,
  "Ġtaken": 3120,
  "ages": 3121,
  "Ġfork": 3122,
  "Ġcrayon": 3123,
  "Ġpainting": 3124,
  "io": 3125,
  "Ġtriang": 3126,
  "Ġimpressive": 3127,
  "Ġchoose": 3128,
  "Ġfig": 3129,
  "Ġtied": 3130,
  "iable": 3131,
  "Ġspotted": 3132,
  "Ġlifted": 3133,
  "Ġslipped": 3134,
  "ours": 3135,
  "Ġtank": 3136,
  "Ġthoughtful": 3137,
  "Ġdependable": 3138,
  "Ġsteal": 3139,
  "Ġgarage": 3140,
  "enny": 3141,
  "Ġbuilt": 3142,
  "Ġmush": 3143,
  "Ġer": 3144,
  "ipe": 3145,
  "Ġmole": 3146,
  "Ġcrawled": 3147,
  "Ġscale": 3148,
  "Ġboats": 3149,
  "Ġpian": 3150,
  "Ġpant": 3151,
  "Ġhammer": 3152,
  "Ġbottom": 3153,
  "lph": 3154,
  "Ġcheerful": 3155,
  "Ġusing": 3156,
  "Ġsmoke": 3157,
  "Ġpicks": 3158,
  "Ġmoder": 3159,
  "berries": 3160,
  "Ġshows": 3161,
  "rn": 3162,
  "Ġpiano": 3163,
  "Ġmagnet": 3164,
  "dile": 3165,
  "codile": 3166,
  "Ġhurts": 3167,
  "inary": 3168,
  "Ġref": 3169,
  "Ġcrack": 3170,
  "Ġeng": 3171,
  "Ġaunt": 3172,
  "Ġmelon": 3173,
  "Ġwaff": 3174,
  "Ġmodern": 3175,
  "Ġdolph": 3176,
  "unnel": 3177,
  "cream": 3178,
  "pack": 3179,
  "Ġtunnel": 3180,
  "oin": 3181,
  "Ġarrow": 3182,
  "Ġreliable": 3183,
  "Ġhopping": 3184,
  "Ġmushroom": 3185,
  "Ġjug": 3186,
  "Timmy": 3187,
  "Ġsquash": 3188,
  "Ġgum": 3189,
  "Ġsink": 3190,
  "Ġmovie": 3191,
  "Ġtax": 3192,
  "Ġflute": 3193,
  "Ġbeet": 3194,
  "Ġlean": 3195,
  "Their": 3196,
  "iv": 3197,
  "Ġpopular": 3198,
  "opter": 3199,
  "icopter": 3200,
  "Ġcryst": 3201,
  "Ġones": 3202,
  "Ġsil": 3203,
  "Ġcompetit": 3204,
  "Ġhelicopter": 3205,
  "aser": 3206,
  "Ġneeds": 3207,
  "ipop": 3208,
  "llipop": 3209,
  "Ġcrocodile": 3210,
  "Ġliz": 3211,
  "Molly": 3212,
  "Ġpress": 3213,
  "Ġtroubled": 3214,
  "Ġpige": 3215,
  "Ġlocked": 3216,
  "Ġtricks": 3217,
  "Ġlollipop": 3218,
  "Ġplayful": 3219,
  "Ġhumble": 3220,
  "Ġtaxi": 3221,
  "Ġkissed": 3222,
  "Ġlow": 3223,
  "appy": 3224,
  "comfortable": 3225,
  "amond": 3226,
  "Ġuncomfortable": 3227,
  "Ġrid": 3228,
  "host": 3229,
  "Ġwander": 3230,
  "atch": 3231,
  "Ġangel": 3232,
  "edy": 3233,
  "cles": 3234,
  "Ġtorn": 3235,
  "Ġgrace": 3236,
  "Ġanx": 3237,
  "Ġwrapped": 3238,
  "Ġmuff": 3239,
  "Ġtwig": 3240,
  "Ġpants": 3241,
  "Ġdisappoin": 3242,
  "ĠSn": 3243,
  "Ġhelps": 3244,
  "Ġdiamond": 3245,
  "Ġcamera": 3246,
  "atter": 3247,
  "oto": 3248,
  "Ġanxious": 3249,
  "Ġghost": 3250,
  "Ġtears": 3251,
  "Ġruined": 3252,
  "cident": 3253,
  "ĠJenny": 3254,
  "ilty": 3255,
  "Ġquar": 3256,
  "aff": 3257,
  "ĠEven": 3258,
  "Ġfis": 3259,
  "opl": 3260,
  "Ġbelt": 3261,
  "eropl": 3262,
  "Ġenv": 3263,
  "Ġguilty": 3264,
  "Ġbull": 3265,
  "Ġaeropl": 3266,
  "Ġhelpless": 3267,
  "Ġhappiness": 3268,
  "Ġlizard": 3269,
  "Ġboys": 3270,
  "cut": 3271,
  "ext": 3272,
  "Ġcere": 3273,
  "Ġwalks": 3274,
  "cean": 3275,
  "Ġpassed": 3276,
  "Ġmeant": 3277,
  "Ġocean": 3278,
  "Ġfluffy": 3279,
  "Ġwire": 3280,
  "Ġnail": 3281,
  "Ġbracelet": 3282,
  "Ġdeaf": 3283,
  "zed": 3284,
  "Ġstretch": 3285,
  "Ġcandle": 3286,
  "Ġcact": 3287,
  "tt": 3288,
  "Ġbeetle": 3289,
  "Ġmop": 3290,
  "Ġharmless": 3291,
  "umpet": 3292,
  "Ġordinary": 3293,
  "Ġanswered": 3294,
  "Ġcollar": 3295,
  "Ġcop": 3296,
  "Ġbees": 3297,
  "Ġtire": 3298,
  "Ġshape": 3299,
  "Ġquarrel": 3300,
  "Ġradio": 3301,
  "Ġflashlight": 3302,
  "Ġcrystal": 3303,
  "Ġharder": 3304,
  "Ġpoured": 3305,
  "Ġtrumpet": 3306,
  "Ġengine": 3307,
  "Mama": 3308,
  "Ġpersist": 3309,
  "Ġhunt": 3310,
  "Ġtooth": 3311,
  "Ġcereal": 3312,
  "Ġinvited": 3313,
  "Ġcomput": 3314,
  "Ġtag": 3315,
  "Ġoffice": 3316,
  "Ġmelt": 3317,
  "Ġspill": 3318,
  "Ġcharm": 3319,
  "coa": 3320,
  "Ġlit": 3321,
  "Ġscoot": 3322,
  "Ġcomet": 3323,
  "Ġtriangle": 3324,
  "ief": 3325,
  "Ġmug": 3326,
  "Ġrep": 3327,
  "ube": 3328,
  "Ġyogurt": 3329,
  "Ġspend": 3330,
  "Ġcompass": 3331,
  "Ġaccident": 3332,
  "Ġshade": 3333,
  "hett": 3334,
  "aghett": 3335,
  "aghetti": 3336,
  "Ġdisappointed": 3337,
  "Ġlicked": 3338,
  "Ġcactus": 3339,
  "Ġpale": 3340,
  "Ġcush": 3341,
  "Ġfigure": 3342,
  "Ġregular": 3343,
  "Ġgiving": 3344,
  "Ġavoc": 3345,
  "Ġpro": 3346,
  "Ġsheet": 3347,
  "Ġwhispered": 3348,
  "aze": 3349,
  "uth": 3350,
  "ellig": 3351,
  "Ġcreate": 3352,
  "Ġbarber": 3353,
  "Ġintellig": 3354,
  "Ġpipe": 3355,
  "Ġrode": 3356,
  "Ġroof": 3357,
  "Jane": 3358,
  "Ġthread": 3359,
  "ither": 3360,
  "Ġvi": 3361,
  "Ġload": 3362,
  "Ġlibr": 3363,
  "Ġgifted": 3364,
  "ccol": 3365,
  "Ġpracticed": 3366,
  "Ġdelight": 3367,
  "ccoli": 3368,
  "Ġharsh": 3369,
  "asses": 3370,
  "Ġpow": 3371,
  "Ġdust": 3372,
  "ĠTrue": 3373,
  "Ġbicy": 3374,
  "azz": 3375,
  "Ġspaghetti": 3376,
  "Ġcompassion": 3377,
  "Ġsailed": 3378,
  "urkey": 3379,
  "ubby": 3380,
  "Ġforward": 3381,
  "Ġpersistent": 3382,
  "Ġspeed": 3383,
  "Ġmitten": 3384,
  "Ġcocoa": 3385,
  "Ġenvel": 3386,
  "Ġquestions": 3387,
  "Ġcomputer": 3388,
  "Ġcoo": 3389,
  "Ġfeathers": 3390,
  "hip": 3391,
  "Ġglove": 3392,
  "ging": 3393,
  "Bobo": 3394,
  "Ġrice": 3395,
  "Ġshrimp": 3396,
  "Ġdesk": 3397,
  "Ġstream": 3398,
  "Ġinse": 3399,
  "Ġpigeon": 3400,
  "Ġcharming": 3401,
  "Ġears": 3402,
  "Ġcarp": 3403,
  "lcan": 3404,
  "Ġraft": 3405,
  "Ġenvious": 3406,
  "Ġknot": 3407,
  "Ġturkey": 3408,
  "Ġstronger": 3409,
  "omes": 3410,
  "Ġcoins": 3411,
  "Ġtap": 3412,
  "lcano": 3413,
  "weet": 3414,
  "Ġtrap": 3415,
  "umbers": 3416,
  "Ġaeroplane": 3417,
  "Ġtrunk": 3418,
  "Ġwheat": 3419,
  "Ġboxes": 3420,
  "Ġchubby": 3421,
  "Ġcarpet": 3422,
  "Ġrestless": 3423,
  "Ġintelligent": 3424,
  "Ġtube": 3425,
  "Ġspun": 3426,
  "Ġdreams": 3427,
  "Ġfriendship": 3428,
  "ulif": 3429,
  "olin": 3430,
  "Ġhalf": 3431,
  "Ġloop": 3432,
  "Ġcrawl": 3433,
  "Ġbroccoli": 3434,
  "Ġonion": 3435,
  "Ġdeliver": 3436,
  "anger": 3437,
  "Ġacce": 3438,
  "Ġvide": 3439,
  "Ġvolcano": 3440,
  "ĠJake": 3441,
  "Ġsle": 3442,
  "Ġtrack": 3443,
  "Ġbri": 3444,
  "Ġcaulif": 3445,
  "Ġvine": 3446,
  "ye": 3447,
  "Ġticket": 3448,
  "Ġthief": 3449,
  "essie": 3450,
  "cycle": 3451,
  "Ġlouder": 3452,
  "Ġinsect": 3453,
  "Ġnumbers": 3454,
  "asing": 3455,
  "Ġyaw": 3456,
  "Ġhaircut": 3457,
  "ital": 3458,
  "Ġsleeping": 3459,
  "Ġmill": 3460,
  "Ġeventually": 3461,
  "Ġalert": 3462,
  "Ġexcite": 3463,
  "Ġpebble": 3464,
  "Ġhosp": 3465,
  "Ġattract": 3466,
  "Ġplanet": 3467,
  "ĠToday": 3468,
  "Ġuniver": 3469,
  "isted": 3470,
  "ulu": 3471,
  "Ġhospital": 3472,
  "Ġeraser": 3473,
  "Ġreturned": 3474,
  "Ġdestro": 3475,
  "Ġgraceful": 3476,
  "Ġhappening": 3477,
  "ache": 3478,
  "ĠOK": 3479,
  "ĠEmily": 3480,
  "Ġdecide": 3481,
  "Ġlearning": 3482,
  "Ġscreen": 3483,
  "rework": 3484,
  "Ġnicely": 3485,
  "Ġleop": 3486,
  "Ġcauliflower": 3487,
  "Ġcompetitive": 3488,
  "Ġpoem": 3489,
  "Ġcelebrate": 3490,
  "Ġcurt": 3491,
  "Ġpeach": 3492,
  "Ġsoldier": 3493,
  "Ġsaus": 3494,
  "Ġparade": 3495,
  "atient": 3496,
  "Ġattractive": 3497,
  "Ġcurtain": 3498,
  "Ġdolphin": 3499,
  "Ġbase": 3500,
  "Ġviolin": 3501,
  "Ġways": 3502,
  "Go": 3503,
  "ats": 3504,
  "Ġtravel": 3505,
  "ten": 3506,
  "Ġrod": 3507,
  "Ġignorant": 3508,
  "ulb": 3509,
  "Ġwheels": 3510,
  "Ġyach": 3511,
  "Ġscatter": 3512,
  "Ġdeter": 3513,
  "Ġcompassionate": 3514,
  "Ġbarrel": 3515,
  "Ġenvelope": 3516,
  "Ġbubble": 3517,
  "Ġlying": 3518,
  "Ġfirework": 3519,
  "Ġsort": 3520,
  "Ġquestion": 3521,
  "zzy": 3522,
  "ĠPipp": 3523,
  "Ġscooter": 3524,
  "Ġdeterm": 3525,
  "Ġrag": 3526,
  "Ġthu": 3527,
  "Ġbicycle": 3528,
  "elery": 3529,
  "Ġneedle": 3530,
  "ĠFr": 3531,
  "Ġjudge": 3532,
  "Ġbulb": 3533,
  "Ġleopard": 3534,
  "Ġtem": 3535,
  "Ġyacht": 3536,
  "Ġpony": 3537,
  "Ġcricket": 3538,
  "Ġorder": 3539,
  "Ġhomes": 3540,
  "Ġador": 3541,
  "tern": 3542,
  "Ġtruth": 3543,
  "Ġhook": 3544,
  "dom": 3545,
  "Ġrubbed": 3546,
  "ete": 3547,
  "igator": 3548,
  "Ġbushes": 3549,
  "Sarah": 3550,
  "Ġuncle": 3551,
  "Ġcushion": 3552,
  "Ġspell": 3553,
  "Ġgrown": 3554,
  "Ġcooked": 3555,
  "Ġadorable": 3556,
  "Ġchalk": 3557,
  "Ġsoar": 3558,
  "Ġpurse": 3559,
  "Ġskin": 3560,
  "Ġthemselves": 3561,
  "Ġimpatient": 3562,
  "Ġcelery": 3563,
  "Ġtray": 3564,
  "Ġshells": 3565,
  "Ġpengu": 3566,
  "Ġsniff": 3567,
  "Ġprun": 3568,
  "Ġwalls": 3569,
  "Ġseal": 3570,
  "Ġlively": 3571,
  "Ġcase": 3572,
  "Ġalligator": 3573,
  "Ġdistant": 3574,
  "Ġradish": 3575,
  "Ġsaying": 3576,
  "Ġspeak": 3577,
  "Ġmotorcycle": 3578,
  "Ġmeat": 3579,
  "Ġsend": 3580,
  "illa": 3581,
  "Ġspinning": 3582,
  "Ġforth": 3583,
  "Ġcounting": 3584,
  "Ġenth": 3585,
  "Ġbounced": 3586,
  "Ġchain": 3587,
  "Ġed": 3588,
  "Ġcleaning": 3589,
  "ebra": 3590,
  "Ġfilm": 3591,
  "Ġslept": 3592,
  "Ġpit": 3593,
  "Ġsurf": 3594,
  "Ġmarry": 3595,
  "usia": 3596,
  "Ġwallet": 3597,
  "Ġenthusia": 3598,
  "Ġmetal": 3599,
  "urb": 3600,
  "ebook": 3601,
  "Ġbin": 3602,
  "Ġweek": 3603,
  "Ġnotebook": 3604,
  "Ġwiped": 3605,
  "Ġskip": 3606,
  "ision": 3607,
  "chair": 3608,
  "Ġbiggest": 3609,
  "Ġimpro": 3610,
  "Ġavocado": 3611,
  "Ġbehave": 3612,
  "Ġdestroy": 3613,
  "vator": 3614,
  "Ġbandage": 3615,
  "Ġlaughs": 3616,
  "Ġsteak": 3617,
  "Ġpattern": 3618,
  "ĠSh": 3619,
  "Ġpost": 3620,
  "Ġelevator": 3621,
  "ĠBuzz": 3622,
  "usie": 3623,
  "Ġdive": 3624,
  "Ġshut": 3625,
  "Ġskipped": 3626,
  "Ġunlock": 3627,
  "Ġdiary": 3628,
  "dest": 3629,
  "ject": 3630,
  "Ġzebra": 3631,
  "Ġbags": 3632,
  "ating": 3633,
  "Ġarmchair": 3634,
  "rage": 3635,
  "aged": 3636,
  "Ġdisturb": 3637,
  "Ġoy": 3638,
  "Ġpole": 3639,
  "Ġshowing": 3640,
  "Ġgathered": 3641,
  "Ġclub": 3642,
  "Ġnurse": 3643,
  "bul": 3644,
  "Ġearth": 3645,
  "Ġenc": 3646,
  "Ġstranger": 3647,
  "Ġsweater": 3648,
  "Ġjellyfish": 3649,
  "Ġscrew": 3650,
  "Ġtemp": 3651,
  "ĠPoppy": 3652,
  "Ġcompl": 3653,
  "Ġmixer": 3654,
  "Give": 3655,
  "Ġskull": 3656,
  "Ġlime": 3657,
  "Ġbump": 3658,
  "bulance": 3659,
  "Ġambulance": 3660,
  "nam": 3661,
  "Ġfather": 3662,
  "Ġjournal": 3663,
  "Gra": 3664,
  "Ġloudly": 3665,
  "ito": 3666,
  "Ġfolder": 3667,
  "Ġshield": 3668,
  "ĠBet": 3669,
  "ĠLulu": 3670,
  "Ġlibrary": 3671,
  "ĠPeter": 3672,
  "Ġbuttons": 3673,
  "Ġplayground": 3674,
  "Ġtrucks": 3675,
  "Ġink": 3676,
  "Ġlights": 3677,
  "Ġtummy": 3678,
  "Ġpointing": 3679,
  "Ġcity": 3680,
  "Ġdecorate": 3681,
  "Ġstation": 3682,
  "irit": 3683,
  "Ġprep": 3684,
  "Ġfalls": 3685,
  "quito": 3686,
  "ĠPolly": 3687,
  "Billy": 3688,
  "Ġfu": 3689,
  "ĠFo": 3690,
  "ention": 3691,
  "nger": 3692,
  "ĠBirdy": 3693,
  "lies": 3694,
  "Ġherb": 3695,
  "nament": 3696,
  "Ġornament": 3697,
  "Ġmodest": 3698,
  "Ġguard": 3699,
  "Ġmos": 3700,
  "Ġknows": 3701,
  "Ġcord": 3702,
  "Ġpolish": 3703,
  "Ġmarble": 3704,
  "oby": 3705,
  "Ġmosquito": 3706,
  "umbled": 3707,
  "Ġsalt": 3708,
  "Ġattic": 3709,
  "Ġwhenever": 3710,
  "Ġvest": 3711,
  "ctop": 3712,
  "Ġresc": 3713,
  "Ġyet": 3714,
  "Ġple": 3715,
  "Ġdisappeared": 3716,
  "ceed": 3717,
  "Ġstrawberry": 3718,
  "Ġonce": 3719,
  "ĠMum": 3720,
  "Ġkay": 3721,
  "Ġbrothers": 3722,
  "Ġitch": 3723,
  "Ġpirate": 3724,
  "Ġfootball": 3725,
  "Ġsplit": 3726,
  "kele": 3727,
  "keleton": 3728,
  "Ġhipp": 3729,
  "Ġaut": 3730,
  "Ġled": 3731,
  "uring": 3732,
  "ctopus": 3733,
  "Ġdriving": 3734,
  "Ġcable": 3735,
  "Ġsupport": 3736,
  "Ġcalling": 3737,
  "Ġcupboard": 3738,
  "aky": 3739,
  "ushed": 3740,
  "Ġwishes": 3741,
  "Ġcomplet": 3742,
  "Ġtripped": 3743,
  "Ġroot": 3744,
  "Ġkayak": 3745,
  "Ġoctopus": 3746,
  "obile": 3747,
  "Ġadded": 3748,
  "Ġedge": 3749,
  "Ġmild": 3750,
  "stic": 3751,
  "Ġdetermined": 3752,
  "Ġsucceed": 3753,
  "?\".": 3754,
  "Ġreading": 3755,
  "omobile": 3756,
  "Ġcoal": 3757,
  "Well": 3758,
  "gl": 3759,
  "utes": 3760,
  "par": 3761,
  "Ġsuggest": 3762,
  "Ġstack": 3763,
  "Ġthunder": 3764,
  "Ġkindness": 3765,
  "Ġautomobile": 3766,
  "Ġcomplain": 3767,
  "Ġenthusiastic": 3768,
  "Ġsneeze": 3769,
  "Ġcartoon": 3770,
  "Ġyoga": 3771,
  "ĠLittle": 3772,
  "Ġgrowl": 3773,
  "htub": 3774,
  "Ġflea": 3775,
  "la": 3776,
  "Ġmeadow": 3777,
  "Ġdrawer": 3778,
  "Ġbathtub": 3779,
  "Ġribb": 3780,
  "ophone": 3781,
  "Ġmeans": 3782,
  "Ġhall": 3783,
  "Ġgolf": 3784,
  "Ġskeleton": 3785,
  "Ġmath": 3786,
  "Ġveil": 3787,
  "Ġhunter": 3788,
  "Ġgor": 3789,
  "Ġflame": 3790,
  "Ġpoke": 3791,
  "Ġvideo": 3792,
  "Ġchess": 3793,
  "Ġtroph": 3794,
  "Ġcups": 3795,
  "Ġglowing": 3796,
  "Ġmatt": 3797,
  "Ġoyster": 3798,
  "work": 3799,
  "Ġpenny": 3800,
  "Ġspear": 3801,
  "Ġitself": 3802,
  "Ġdrawings": 3803,
  "Ġhippo": 3804,
  "Ġrepair": 3805,
  "Ġswitch": 3806,
  "glasses": 3807,
  "Ġsunglasses": 3808,
  "Ġteleph": 3809,
  "Ġcostume": 3810,
  "Ġdess": 3811,
  "Ġzipp": 3812,
  ",âĢĿ": 3813,
  "Ġrepe": 3814,
  "Ġmuffin": 3815,
  "Ġarg": 3816,
  "Ġpastry": 3817,
  "Ġpun": 3818,
  "Ġrolling": 3819,
  "Ġminutes": 3820,
  "Ġpacked": 3821,
  "Ġmakeup": 3822,
  "iron": 3823,
  "ric": 3824,
  "ĠPeople": 3825,
  "Ġwaffle": 3826,
  "case": 3827,
  "Ġhandle": 3828,
  "Ġpear": 3829,
  "Ġmaze": 3830,
  "Ġtelephone": 3831,
  "Ġpine": 3832,
  "ait": 3833,
  "Ġgear": 3834,
  "Ġhedge": 3835,
  "Ġmattress": 3836,
  "Ġpackage": 3837,
  "aving": 3838,
  "ĠMiss": 3839,
  "Ġshocked": 3840,
  "ines": 3841,
  "Ġtrophy": 3842,
  "Ġpowder": 3843,
  "Ġknight": 3844,
  "Ġcob": 3845,
  "Ġmissile": 3846,
  "Ġmanaged": 3847,
  "Ġframe": 3848,
  "Ġencou": 3849,
  "Ġwife": 3850,
  "Ġok": 3851,
  "Ġsepar": 3852,
  "web": 3853,
  "Ġstairs": 3854,
  "Ġrot": 3855,
  "Ġcamp": 3856,
  "urch": 3857,
  "rophone": 3858,
  "Ġmagaz": 3859,
  "Ġstrugg": 3860,
  "Ġcolour": 3861,
  "Ġgrapes": 3862,
  "time": 3863,
  "Ġfile": 3864,
  "head": 3865,
  "ĠTina": 3866,
  "Ġbasketball": 3867,
  "Bye": 3868,
  "old": 3869,
  "per": 3870,
  "Ġcobweb": 3871,
  "Re": 3872,
  "Jimmy": 3873,
  "ĠTweet": 3874,
  "See": 3875,
  "Ġperm": 3876,
  "Ġwool": 3877,
  "ĠDan": 3878,
  "Ġmicrophone": 3879,
  "esday": 3880,
  "Ġeye": 3881,
  "Ġleash": 3882,
  "Ġgasp": 3883,
  "iew": 3884,
  "keep": 3885,
  "Ġweep": 3886,
  "Ġbarking": 3887,
  "ature": 3888,
  "Ġsafely": 3889,
  "Ġtear": 3890,
  "Ġview": 3891,
  "ffe": 3892,
  "Ġslides": 3893,
  "Ġsteps": 3894,
  "istol": 3895,
  "ffee": 3896,
  "Ġbananas": 3897,
  "Ġstaff": 3898,
  "Ġspirit": 3899,
  "Ġtask": 3900,
  "Ġgiggled": 3901,
  "Ġhoc": 3902,
  "Ġhockey": 3903,
  "Ġvend": 3904,
  "Ġthose": 3905,
  "Ġgorilla": 3906,
  "Jill": 3907,
  "Ġcooler": 3908,
  "ĠRose": 3909,
  "was": 3910,
  "cing": 3911,
  "Ġearly": 3912,
  "Ġmarched": 3913,
  "rosc": 3914,
  "Ġmint": 3915,
  "ĠLook": 3916,
  "washer": 3917,
  "Ġflour": 3918,
  "Ġhotel": 3919,
  "hic": 3920,
  "Ġsailor": 3921,
  "Ġdessert": 3922,
  "Ġphoto": 3923,
  "roscope": 3924,
  "Ġvehic": 3925,
  "ilot": 3926,
  "Ġoften": 3927,
  "Ġchurch": 3928,
  "ĠPete": 3929,
  "Ġcooking": 3930,
  "Ġremain": 3931,
  "Ġfive": 3932,
  "Ġsausage": 3933,
  "otter": 3934,
  "Ġten": 3935,
  "Ġtools": 3936,
  "Ġmedal": 3937,
  "Ġeither": 3938,
  "Ġfireman": 3939,
  "chor": 3940,
  "Ġgrandpa": 3941,
  "Ġotter": 3942,
  "Ġbaseball": 3943,
  "Ġpretending": 3944,
  "Ġpistol": 3945,
  "Ġdishwasher": 3946,
  "Ġrever": 3947,
  "Ġorganize": 3948,
  "Ġpee": 3949,
  "Ġvendor": 3950,
  "Ġknock": 3951,
  "Ġsight": 3952,
  "Ġgrill": 3953,
  "Ġtemple": 3954,
  "Ġbattery": 3955,
  "Ġthinking": 3956,
  "Ġopens": 3957,
  "Ġow": 3958,
  "Ġrealised": 3959,
  "Ġiron": 3960,
  "Ġlaser": 3961,
  "Ġsne": 3962,
  "Ġsandbox": 3963,
  "Ġoil": 3964,
  "Ġpatch": 3965,
  "Ġhours": 3966,
  "Ġrise": 3967,
  "Ġwhip": 3968,
  "'d": 3969,
  "ctory": 3970,
  "ĠGive": 3971,
  "Ġanchor": 3972,
  "Ġtrash": 3973,
  "ense": 3974,
  "Ġshort": 3975,
  "ney": 3976,
  "ĠBetty": 3977,
  "Ġrhin": 3978,
  "Ġfactory": 3979,
  "seum": 3980,
  "Ġmay": 3981,
  "Ġward": 3982,
  "ately": 3983,
  "Ġcardboard": 3984,
  "ugged": 3985,
  "Ġlotion": 3986,
  "Al": 3987,
  "Ġmessage": 3988,
  "Ġvalu": 3989,
  "Ġwardrobe": 3990,
  "Ġcell": 3991,
  "Ġmuseum": 3992,
  "apers": 3993,
  "Ġur": 3994,
  "ination": 3995,
  "Ġhanging": 3996,
  "ucet": 3997,
  "ailable": 3998,
  "ĠSunny": 3999,
  "ĠZoom": 4000,
  "Ġhive": 4001,
  "eer": 4002,
  "Ġtowers": 4003,
  "keeper": 4004,
  "Ġblackboard": 4005,
  "Ġmem": 4006,
  "Ġexcitement": 4007,
  "Ġcoffee": 4008,
  "Ġpilot": 4009,
  "ready": 4010,
  "Fluffy": 4011,
  "Ġnapkin": 4012,
  "Ġpenguin": 4013,
  "ron": 4014,
  "Ġcheck": 4015,
  "Ġreward": 4016,
  "loo": 4017,
  "Ġquit": 4018,
  "ĠPippin": 4019,
  "Ġcane": 4020,
  "Ġpicking": 4021,
  "place": 4022,
  "ĠSnow": 4023,
  "azor": 4024,
  "Ġfaucet": 4025,
  "Ġig": 4026,
  "Ġpassport": 4027,
  "ĠRob": 4028,
  "Ġstumbled": 4029,
  "Ġdreamed": 4030,
  "Ġigloo": 4031,
  "ĠBessie": 4032,
  "aroo": 4033,
  "angaroo": 4034,
  "Ġfreez": 4035,
  "Ġjuicy": 4036,
  "Ġallowed": 4037,
  "play": 4038,
  "Ġholds": 4039,
  "Ġalready": 4040,
  "Ġavailable": 4041,
  "Ġsett": 4042,
  "Ġbathe": 4043,
  "Ġtornado": 4044,
  "imney": 4045,
  "Ġfingers": 4046,
  "htray": 4047,
  "Ġhanger": 4048,
  "Ġnewsp": 4049,
  "Ġsize": 4050,
  "Ġlaund": 4051,
  "Ġlend": 4052,
  "Ġchimney": 4053,
  "Ġlaundry": 4054,
  "Ġoak": 4055,
  "Ġfisher": 4056,
  "Ġkangaroo": 4057,
  "Ġmen": 4058,
  "ĠEverywhere": 4059,
  "Ġtelling": 4060,
  "Em": 4061,
  "Ġnovel": 4062,
  "body": 4063,
  "Ġmummy": 4064,
  "Ġpal": 4065,
  "Ġmule": 4066,
  "Ġcherries": 4067,
  "Ġnotice": 4068,
  "Ġpractice": 4069,
  "Ġspilled": 4070,
  "Ġreind": 4071,
  "Ġcomplete": 4072,
  "Ġenjoying": 4073,
  "Ġmicroscope": 4074,
  "arian": 4075,
  "ampoo": 4076,
  "Ġgain": 4077,
  "Ġsub": 4078,
  "Ġfireplace": 4079,
  "Ġimagine": 4080,
  "anda": 4081,
  "Ġdisplay": 4082,
  "ocer": 4083,
  "ĠZip": 4084,
  "Ġfastest": 4085,
  "Ġmagazine": 4086,
  "Ġhurry": 4087,
  "Ġcabinet": 4088,
  "Ġshrink": 4089,
  "Ġashtray": 4090,
  "Wait": 4091,
  "Ġcows": 4092,
  "ĠSpike": 4093,
  "Joe": 4094,
  "gen": 4095,
  "Ġpalace": 4096,
  "Ġimprove": 4097,
  "aches": 4098,
  "Ġrake": 4099,
  "Ġreindeer": 4100,
  "Ġfalling": 4101,
  "oceros": 4102,
  "Ġskirt": 4103,
  "ured": 4104,
  "Ġdiscovered": 4105,
  "Ġstared": 4106,
  "Ġroared": 4107,
  "aid": 4108,
  "Ġsilver": 4109,
  "Ġtub": 4110,
  "Ġtrail": 4111,
  "Is": 4112,
  "Ġminer": 4113,
  "come": 4114,
  "Ġbill": 4115,
  "iction": 4116,
  "Ġfog": 4117,
  "Ġax": 4118,
  "stairs": 4119,
  "ilet": 4120,
  "Ġhut": 4121,
  "Ġhappier": 4122,
  "Ġtaller": 4123,
  "ictionary": 4124,
  "Ġoats": 4125,
  "Ġfisherman": 4126,
  "Ġobject": 4127,
  "Ġpor": 4128,
  "vision": 4129,
  "Ġvaluable": 4130,
  "Ġshampoo": 4131,
  "Ġholes": 4132,
  "Ġoffered": 4133,
  "Ġboots": 4134,
  "Ġrhinoceros": 4135,
  "Ġnames": 4136,
  "Ġtoilet": 4137,
  "Ġclimbing": 4138,
  "Ġblin": 4139,
  "vice": 4140,
  "Ow": 4141,
  "Ġstretched": 4142,
  "iest": 4143,
  "Ġzipper": 4144,
  "Ġlistening": 4145,
  "Ġsym": 4146,
  "Ġbathrobe": 4147,
  "alend": 4148,
  "Ġjewelry": 4149,
  "ĠHere": 4150,
  "Ġjokes": 4151,
  "Ġtelevision": 4152,
  "Ġprov": 4153,
  "Ġcalend": 4154,
  "Ġstops": 4155,
  "Ġaxe": 4156,
  "Ġjumps": 4157,
  "Ġfuel": 4158,
  "cu": 4159,
  "Ġsparkly": 4160,
  "Ġperfume": 4161,
  "ĠSusie": 4162,
  "Ġbury": 4163,
  "bol": 4164,
  "Mummy": 4165,
  "lu": 4166,
  "Ġpressed": 4167,
  "ĠKim": 4168,
  "reek": 4169,
  "Ġrece": 4170,
  "fa": 4171,
  "ĠToby": 4172,
  "Ġneat": 4173,
  "Ġcreek": 4174,
  "Ġpopped": 4175,
  "Ġopera": 4176,
  "Ġcalendar": 4177,
  "Ġsnap": 4178,
  "Ġgasped": 4179,
  "Ġattach": 4180,
  "Ġsymbol": 4181,
  "Ġtuna": 4182,
  "ĠMar": 4183,
  "Ġpapers": 4184,
  "Mr": 4185,
  "Ġunpack": 4186,
  "Ġresist": 4187,
  "Ġdictionary": 4188,
  "Ġsubway": 4189,
  "Ġletters": 4190,
  "Ġfreezer": 4191,
  "Ġchose": 4192,
  "Ġpinch": 4193,
  "zag": 4194,
  "Ġspoke": 4195,
  "Ġanyway": 4196,
  "Ġsuper": 4197,
  "Ġporch": 4198,
  "Ġhelper": 4199,
  "affe": 4200,
  "Ġbikes": 4201,
  "Ġlie": 4202,
  "arry": 4203,
  "iches": 4204,
  "Ġtightly": 4205,
  "Ġcomfort": 4206,
  "Ġshaking": 4207,
  "Ġbookcase": 4208,
  "Ġson": 4209,
  "Ġrazor": 4210,
  "aurant": 4211,
  "Ġsandwiches": 4212,
  "ĠAre": 4213,
  "igzag": 4214,
  "Ġweigh": 4215,
  "Ġagainst": 4216,
  "Ġstickers": 4217,
  "Ġrestaurant": 4218,
  "Ġnewspaper": 4219,
  "Ġblouse": 4220,
  "Ġvehicle": 4221,
  "Ġswinging": 4222,
  "Ġped": 4223,
  "Ġdisag": 4224,
  "Ġnature": 4225,
  "Ġsquirrels": 4226,
  "ival": 4227,
  "Ġbelongs": 4228,
  "Ġswamp": 4229,
  "Ġbutterflies": 4230,
  "Ġgym": 4231,
  "del": 4232,
  "Ġinclu": 4233,
  "Ġgrowing": 4234,
  "Ġbuckle": 4235,
  "omed": 4236,
  "Ġstirred": 4237,
  "Ġmustache": 4238,
  "Ġbillboard": 4239,
  "xy": 4240,
  "Ġbeep": 4241,
  "te": 4242,
  "Ġalarm": 4243,
  "Ġlightning": 4244,
  "Ġlip": 4245,
  "Ġfest": 4246,
  "Ġhung": 4247,
  "utor": 4248,
  "Ġdistance": 4249,
  "ogn": 4250,
  "Ġcards": 4251,
  "Ġobser": 4252,
  "Ġagree": 4253,
  "Little": 4254,
  "Ġext": 4255,
  "Ġtease": 4256,
  "Ġrecogn": 4257,
  "Ġrubber": 4258,
  "ik": 4259,
  "Ġhate": 4260,
  "fast": 4261,
  "ef": 4262,
  "Ouch": 4263,
  "Ġdoesn": 4264,
  "Ġmusician": 4265,
  "Ġadvice": 4266,
  "Ġbeef": 4267,
  "Ġserve": 4268,
  "aspoon": 4269,
  "Ġsweetie": 4270,
  "Ġmodel": 4271,
  "lter": 4272,
  "Ġcrib": 4273,
  "Ġblueberries": 4274,
  "Ġsofa": 4275,
  "Ġcircles": 4276,
  "Ġbreakfast": 4277,
  "Ġtutor": 4278,
  "asis": 4279,
  "Ġbookshe": 4280,
  "Ġgiraffe": 4281,
  "stri": 4282,
  "Ġfestival": 4283,
  "Ġseparate": 4284,
  "Ġshelter": 4285,
  "Ġgas": 4286,
  "Ġairport": 4287,
  "Ġolive": 4288,
  "Ġrail": 4289,
  "Ġbookshelf": 4290,
  "Ġfrogs": 4291,
  "Ġteaspoon": 4292,
  "Ġreverse": 4293,
  "Ġjunk": 4294,
  "Ġriding": 4295,
  "Ġpleased": 4296,
  "Ġdrain": 4297,
  "ĠMrs": 4298,
  "Ġwipe": 4299,
  "Ġoasis": 4300,
  "Ġsoil": 4301,
  "Ġahead": 4302,
  "Ġrescue": 4303,
  "Ġleaving": 4304,
  "ummer": 4305,
  "Ġpainter": 4306,
  "Ġsqueeze": 4307,
  "Ġchance": 4308,
  "Ġpoked": 4309,
  "Ġknob": 4310,
  "ĠTeddy": 4311,
  "Ġpeeked": 4312,
  "Ġlumber": 4313,
  "Ġtrains": 4314,
  "Ġextra": 4315,
  "Ġslipp": 4316,
  "Ġquiz": 4317,
  "Ġrefused": 4318,
  "res": 4319,
  "rmomet": 4320,
  "Ġpage": 4321,
  "Ġrules": 4322,
  "Ġhappens": 4323,
  "Ġsounded": 4324,
  "Ġins": 4325,
  "Ġpoint": 4326,
  "Ġwinter": 4327,
  "Ġdancer": 4328,
  "ĠGrandpa": 4329,
  "Ġbirdc": 4330,
  "Ġdisappear": 4331,
  "rmometer": 4332,
  "ĠDolly": 4333,
  "Ġweather": 4334,
  "Ġwaste": 4335,
  "Ġlic": 4336,
  "Ġbirdcage": 4337,
  "Ġtheater": 4338,
  "Ġreef": 4339,
  "Ġcarrying": 4340,
  "Daisy": 4341,
  "Ġinvite": 4342,
  "iform": 4343,
  "Ġgoal": 4344,
  "Ġostri": 4345,
  "Ġuniform": 4346,
  "Ġswung": 4347,
  "Ġtrade": 4348,
  "Ġcliff": 4349,
  "ience": 4350,
  "Ġlawn": 4351,
  "ola": 4352,
  "Ġleaned": 4353,
  "ĠPandy": 4354,
  "angu": 4355,
  "Ġaccept": 4356,
  "Ġadmire": 4357,
  "Ġfort": 4358,
  "Ġaccidentally": 4359,
  "Ġpastel": 4360,
  "bbles": 4361,
  "Ġstom": 4362,
  "Ġlangu": 4363,
  "Ġtwir": 4364,
  "Ġsuff": 4365,
  "Ġpanda": 4366,
  "riger": 4367,
  "Ġbet": 4368,
  "rigerator": 4369,
  "Ġpeek": 4370,
  "render": 4371,
  "Ġblinked": 4372,
  "Ġstarts": 4373,
  "na": 4374,
  "Ġrefrigerator": 4375,
  "Ġanywhere": 4376,
  "!\".": 4377,
  "Ġimagined": 4378,
  "Ġdreaming": 4379,
  "Ġremove": 4380,
  "night": 4381,
  "Ġshower": 4382,
  "ĠLee": 4383,
  "ĠCo": 4384,
  "Ġclassroom": 4385,
  "Ġceiling": 4386,
  "Ġcaring": 4387,
  "ium": 4388,
  "Ġgrand": 4389,
  "Ġmissing": 4390,
  "aked": 4391,
  "Ġlicense": 4392,
  "Ġstable": 4393,
  "Ġthermometer": 4394,
  "Ġmonkeys": 4395,
  "astic": 4396,
  "Ġwarned": 4397,
  "Ġsummer": 4398,
  "ĠWhere": 4399,
  "Ġabove": 4400,
  "Ġbrick": 4401,
  "ected": 4402,
  "Ġcudd": 4403,
  "Ġproblems": 4404,
  "amber": 4405,
  "Ġchasing": 4406,
  "Ġlabel": 4407,
  "Ġapron": 4408,
  "Ġsent": 4409,
  "urnit": 4410,
  "urniture": 4411,
  "Ġlawy": 4412,
  "Ġlid": 4413,
  "uggage": 4414,
  "med": 4415,
  "Ġrespectful": 4416,
  "Ġfurniture": 4417,
  "Ġfrowned": 4418,
  "Ġzoomed": 4419,
  "Ġpages": 4420,
  "Ġprevent": 4421,
  "Ġbent": 4422,
  "Ġluggage": 4423,
  "Ġmistakes": 4424,
  "Ġsunset": 4425,
  "Ġostrich": 4426,
  "ison": 4427,
  "Ġsuggested": 4428,
  "Ġwindows": 4429,
  "ations": 4430,
  "Ġjail": 4431,
  "low": 4432,
  "Ġwine": 4433,
  "Ġribbon": 4434,
  "Ġolder": 4435,
  "Ġshouts": 4436,
  "Ġgrape": 4437,
  "ĠCl": 4438,
  "Ġwigg": 4439,
  "ucture": 4440,
  "Ġstructure": 4441,
  "Ġspoil": 4442,
  "eor": 4443,
  "Ġfixing": 4444,
  "Ġchamber": 4445,
  "Ġlions": 4446,
  "Ġdelay": 4447,
  "Ġfinds": 4448,
  "Ġhanded": 4449,
  "Ġsearching": 4450,
  "Ġunite": 4451,
  "Did": 4452,
  "Ġfought": 4453,
  "Ġlawyer": 4454,
  "Ġbrightly": 4455,
  "Ġpair": 4456,
  "Ġmeeting": 4457,
  "Ġchoice": 4458,
  "Ġsurprises": 4459,
  "ĠEllie": 4460,
  "Ġart": 4461,
  "ĠUn": 4462,
  "Ch": 4463,
  "Ġfavour": 4464,
  "eterin": 4465,
  "eterinarian": 4466,
  "adium": 4467,
  "Ġstadium": 4468,
  "Ġproudly": 4469,
  "iki": 4470,
  "Ġveterinarian": 4471,
  "vet": 4472,
  "rod": 4473,
  "Ġchairs": 4474,
  "Ġslip": 4475,
  "ĠSpe": 4476,
  "Ġsadly": 4477,
  "ĠBow": 4478,
  "Ġincre": 4479,
  "ĠCarl": 4480,
  "Ġpuddles": 4481,
  "Ġberry": 4482,
  "Ġintrod": 4483,
  "Ġranch": 4484,
  "veal": 4485,
  "ĠBoun": 4486,
  "Ġargue": 4487,
  "ĠV": 4488,
  "Ġadmired": 4489,
  "Ġcur": 4490,
  "Ġfavourite": 4491,
  "Your": 4492,
  "Ġinf": 4493,
  "Ġexcitedly": 4494,
  "Ġrac": 4495,
  "Ġgrabs": 4496,
  "mend": 4497,
  "Ġsteam": 4498,
  "thank": 4499,
  "Ġhuman": 4500,
  "eorge": 4501,
  "sity": 4502,
  "ĠHel": 4503,
  "Ġpushing": 4504,
  "Ġsaving": 4505,
  "ĠRed": 4506,
  "Ġreveal": 4507,
  "ommend": 4508,
  "alley": 4509,
  "Ġyield": 4510,
  "olog": 4511,
  "Ġmall": 4512,
  "Ġreminded": 4513,
  "Ġrecommend": 4514,
  "Ġleak": 4515,
  "Ġsurrender": 4516,
  "Ġharb": 4517,
  "Ġappl": 4518,
  "cuss": 4519,
  "aul": 4520,
  "Ġweap": 4521,
  "Ġregret": 4522,
  "Ġputting": 4523,
  "Ġvalley": 4524,
  "Ġmineral": 4525,
  "Ġevening": 4526,
  "elcome": 4527,
  "Ġmatches": 4528,
  "Ġforgave": 4529,
  "Ġsneezed": 4530,
  "Ġpup": 4531,
  "Ġaw": 4532,
  "Ġrushed": 4533,
  "ecause": 4534,
  "Ġspade": 4535,
  "Ġapolog": 4536,
  "Ġplates": 4537,
  "Ġdiscuss": 4538,
  "Ġprepare": 4539,
  "Ġharbor": 4540,
  "Ġignore": 4541,
  "ĠBig": 4542,
  "Ġcountry": 4543,
  "Ġlanguage": 4544,
  "ĠBuzzy": 4545,
  "Ġpulls": 4546,
  "Ġplastic": 4547,
  "Ġsupply": 4548,
  "Ġfloat": 4549,
  "Ġsniffed": 4550,
  "ĠJazz": 4551,
  "Ġreplace": 4552,
  "Ġmeas": 4553,
  "Ġshovel": 4554,
  "ĠBill": 4555,
  "Ġraise": 4556,
  "ĠNext": 4557,
  "Ġfre": 4558,
  "Ġcared": 4559,
  "Ġsocks": 4560,
  "Ġstrip": 4561,
  "Ġdoors": 4562,
  "Ġmystery": 4563,
  "Ġlives": 4564,
  "Ġrestore": 4565,
  "Ġsticker": 4566,
  "Ġsudden": 4567,
  "ari": 4568,
  "Ġkinds": 4569,
  "Ġslippery": 4570,
  "ero": 4571,
  "ĠOw": 4572,
  "Ġplayer": 4573,
  "Ġpanic": 4574,
  "ricane": 4575,
  "Ġhoping": 4576,
  "iday": 4577,
  "Ġshone": 4578,
  "lex": 4579,
  "hero": 4580,
  "Ġbeg": 4581,
  "ĠMike": 4582,
  "ĠBinky": 4583,
  "Ġsuperhero": 4584,
  "Ġdelighted": 4585,
  "Ġgro": 4586,
  "Yay": 4587,
  "aud": 4588,
  "chan": 4589,
  "Ġchickens": 4590,
  "Ġshoulder": 4591,
  "Ġrained": 4592,
  "Ġcolourful": 4593,
  "Ġbreat": 4594,
  "ĠAlice": 4595,
  "Ġclaw": 4596,
  "ĠBubbles": 4597,
  "Yuck": 4598,
  "Ġsoftly": 4599,
  "rise": 4600,
  "Ġport": 4601,
  "Grandma": 4602,
  "Ġhol": 4603,
  "icer": 4604,
  "Ġholiday": 4605,
  "ĠâĢ": 4606,
  "Ġbarks": 4607,
  "ason": 4608,
  "Ġthrowing": 4609,
  "Ġplanes": 4610,
  "Mary": 4611,
  "Ġbend": 4612,
  "ĠFreddy": 4613,
  "Ġshakes": 4614,
  "Ġinfant": 4615,
  "Ġended": 4616,
  "Ġshivering": 4617,
  "Ġkneel": 4618,
  "Ġsunrise": 4619,
  "Ġpushes": 4620,
  "ĠOlive": 4621,
  "Ġthanks": 4622,
  "Ġfresh": 4623,
  "Ġsuffer": 4624,
  "Ġpoints": 4625,
  "imed": 4626,
  "wards": 4627,
  "ĠPat": 4628,
  "Ġtip": 4629,
  "ĠSpeedy": 4630,
  "Ġfreeze": 4631,
  "Ġkeeping": 4632,
  "ĠWould": 4633,
  "Ġgiggle": 4634,
  "Ġcopper": 4635,
  "Ġsmells": 4636,
  "Ġdear": 4637,
  "Ġenter": 4638,
  "Ġprovide": 4639,
  "cast": 4640,
  "chanic": 4641,
  "Ġdishes": 4642,
  "ĠEnd": 4643,
  "cond": 4644,
  "Ġunh": 4645,
  "Next": 4646,
  "Ġapplaud": 4647,
  "Ġheads": 4648,
  "Ġhurricane": 4649,
  "Ġcherry": 4650,
  "Ġthumb": 4651,
  "Ġmenu": 4652,
  "Ġmeowed": 4653,
  "Ġmass": 4654,
  "Ġsecond": 4655,
  "Ġbrighter": 4656,
  "ince": 4657,
  "Ġsandcast": 4658,
  "Ġmechanic": 4659,
  "Ġwre": 4660,
  "Ġsprayed": 4661,
  "Ġletting": 4662,
  "Ġevent": 4663,
  "Ġweapon": 4664,
  "Ġlaught": 4665,
  "Ġx": 4666,
  "Ġlaughter": 4667,
  "Ġclapping": 4668,
  "Ġfeelings": 4669,
  "Will": 4670,
  "icky": 4671,
  "Ġsplashing": 4672,
  "ement": 4673,
  "ĠOr": 4674,
  "acked": 4675,
  "Ġcastles": 4676,
  "ĠFl": 4677,
  "cer": 4678,
  "Ġscore": 4679,
  "apping": 4680,
  "Ġuniverse": 4681,
  "Ġnavy": 4682,
  "Ġdem": 4683,
  "Ġsticky": 4684,
  "ophie": 4685,
  "Ġrooms": 4686,
  "Ġrow": 4687,
  "Ġflies": 4688,
  "igi": 4689,
  "ĠDave": 4690,
  "Ġunhappy": 4691,
  "Ġgreedy": 4692,
  "Ġdare": 4693,
  "Ġalive": 4694,
  "Ġbreaks": 4695,
  "Ġener": 4696,
  "Ġcourage": 4697,
  "Ġinvit": 4698,
  "Ready": 4699,
  "Ġrepeat": 4700,
  "Ġdemand": 4701,
  "Ġtrusted": 4702,
  "Lisa": 4703,
  "Ġsomewhere": 4704,
  "arlie": 4705,
  "Ġprune": 4706,
  "bles": 4707,
  "Ġwreck": 4708,
  "ĠY": 4709,
  "Ġskill": 4710,
  "Ġexamine": 4711,
  "Ġparts": 4712,
  "year": 4713,
  "Ġeaten": 4714,
  "oe": 4715,
  "All": 4716,
  "erc": 4717,
  "enry": 4718,
  "Ġmention": 4719,
  "Ġraining": 4720,
  "ĠHelp": 4721,
  "Buddy": 4722,
  "Ġthrows": 4723,
  "Ġjogged": 4724,
  "quest": 4725,
  "Ġstarting": 4726,
  "Ġrush": 4727,
  "Ġpoison": 4728,
  "Ġpirates": 4729,
  "heart": 4730,
  "Ġvac": 4731,
  "Ġcontent": 4732,
  "Emma": 4733,
  "ĠKiki": 4734,
  "Ġsigh": 4735,
  "Ġflapped": 4736,
  "Ġdrops": 4737,
  "Ġchirp": 4738,
  "Ġsport": 4739,
  "Qu": 4740,
  "Ġsparkled": 4741,
  "ĠZoomy": 4742,
  "Ġgiven": 4743,
  "Ġstreng": 4744,
  "Ġsteel": 4745,
  "Ann": 4746,
  "Ġbumped": 4747,
  "Ġyawned": 4748,
  "Ġstud": 4749,
  "Ġrequest": 4750,
  "Ġscold": 4751,
  "Ġmyself": 4752,
  "Ġstrength": 4753,
  "Ġshrugged": 4754,
  "Mark": 4755,
  "Ġcoats": 4756,
  "Ġpunish": 4757,
  "Ġequ": 4758,
  "Ġsnugg": 4759,
  "Ġuniversity": 4760,
  "Ġpaid": 4761,
  "ĠJohnny": 4762,
  "Ġpigs": 4763,
  "Ġscratch": 4764,
  "Ġtoe": 4765,
  "Ġexerc": 4766,
  "Ġtracks": 4767,
  "Ġupstairs": 4768,
  "Ġprayed": 4769,
  "Ġcrossed": 4770,
  "Ġsqueezed": 4771,
  "Ġimpressed": 4772,
  "Ġflood": 4773,
  "Ġbouncing": 4774,
  "ĠRu": 4775,
  "Alice": 4776,
  "Ġrabbits": 4777,
  "ges": 4778,
  "Ġbadly": 4779,
  "..": 4780,
  "Ġwarn": 4781,
  "Ġleather": 4782,
  "Ġexpect": 4783,
  "Ġnews": 4784,
  "Ġtide": 4785,
  "ĠTed": 4786,
  "Ġminute": 4787,
  "Ġbears": 4788,
  "Ġclaws": 4789,
  "Ġbuzz": 4790,
  "Ġsweetheart": 4791,
  "ĠSm": 4792,
  "yth": 4793,
  "Ġnation": 4794,
  "Sh": 4795,
  "ythm": 4796,
  "Ġvacation": 4797,
  "Ġhist": 4798,
  "Ġheat": 4799,
  "Ġstrawberries": 4800,
  "Ġobserve": 4801,
  "Ġexplored": 4802,
  "Ġsettle": 4803,
  "Ġsandcastle": 4804,
  "Ġyawn": 4805,
  "Ġhistory": 4806,
  "ĠLilly": 4807,
  "ĠLola": 4808,
  "mare": 4809,
  "ĠMummy": 4810,
  "ĠSque": 4811,
  "ially": 4812,
  "inking": 4813,
  "Ġbelieved": 4814,
  "Ġhorses": 4815,
  "Daddy": 4816,
  "ĠHoppy": 4817,
  "Ġchecked": 4818,
  "ĠMandy": 4819,
  "Ġtour": 4820,
  "Ġnetwork": 4821,
  "Ġcheek": 4822,
  "ĠUnder": 4823,
  "Ġoffer": 4824,
  "Ġeasily": 4825,
  "Ġplaced": 4826,
  "spec": 4827,
  "Ġspots": 4828,
  "Ġsnowball": 4829,
  "ween": 4830,
  "men": 4831,
  "Ġenergy": 4832,
  "ĠBee": 4833,
  "Ġimagination": 4834,
  "Ġblueberry": 4835,
  "otten": 4836,
  "Ġbetween": 4837,
  "specially": 4838,
  "ĠGigi": 4839,
  "izes": 4840,
  "Ġdaisy": 4841,
  "Ġwaving": 4842,
  "reeze": 4843,
  "reat": 4844,
  "Ġvroom": 4845,
  "Ġsoak": 4846,
  "Ġsafari": 4847,
  "Ġrhythm": 4848,
  "Ġmassage": 4849,
  "Ġstomach": 4850,
  "Ġbaking": 4851,
  "quake": 4852,
  "Ġnightmare": 4853,
  "Ġinsisted": 4854,
  "Ġblowing": 4855,
  "Ġentered": 4856,
  "Before": 4857,
  "Ġstair": 4858,
  "Ġpalm": 4859,
  "Ġbeauty": 4860,
  "Ġtwisted": 4861,
  "Ġbother": 4862,
  "Ġwriting": 4863,
  "Ġscoop": 4864,
  "Ġprunes": 4865,
  "Ġbrain": 4866,
  "Ġing": 4867,
  "ipment": 4868,
  "Ġpoppy": 4869,
  "Ġhills": 4870,
  "noon": 4871,
  "Ġafternoon": 4872,
  "Ġequipment": 4873,
  "Ġespecially": 4874,
  "hest": 4875,
  "Ġsir": 4876,
  "Ġpad": 4877,
  "ĠSee": 4878,
  "Ġingred": 4879,
  "Ġcalls": 4880,
  "Ġingredient": 4881,
  "ĠFox": 4882,
  "Ġearthquake": 4883,
  "Ġignored": 4884,
  "ĠSnowy": 4885,
  "Ġburned": 4886,
  "Ġnobody": 4887,
  "mble": 4888,
  "Ġsty": 4889,
  "apa": 4890,
  "Ġsew": 4891,
  "Ġtug": 4892,
  "isty": 4893,
  "xygen": 4894,
  "Ġhearts": 4895,
  "Ġlear": 4896,
  "Ġlearnt": 4897,
  "Ġlemonade": 4898,
  "Ġincrease": 4899,
  "illie": 4900,
  "Jenny": 4901,
  "Ġgaz": 4902,
  "Ġbackpack": 4903,
  "Ġmailman": 4904,
  "Ġwhistled": 4905,
  "Ġpedal": 4906,
  "ĠSk": 4907,
  "Fred": 4908,
  "Ġshopkeeper": 4909,
  "ffic": 4910,
  "Ġpermit": 4911,
  "Ġtremble": 4912,
  "Ġyucky": 4913,
  "anges": 4914,
  "Ġmoves": 4915,
  "Ġintroduce": 4916,
  "Ġlemons": 4917,
  "Ġcrash": 4918,
  "Ġbeans": 4919,
  "Ġfloated": 4920,
  "edn": 4921,
  "ednesday": 4922,
  "ittens": 4923,
  "Welcome": 4924,
  "Ġplanned": 4925,
  "Ġstrike": 4926,
  "Ġtraffic": 4927,
  "Ġinclude": 4928,
  "Ġslap": 4929,
  "Ġracing": 4930,
  "ĠLucky": 4931,
  "resses": 4932,
  "Ġwisdom": 4933,
  "Ġpur": 4934,
  "Ġwags": 4935,
  "ĠFinny": 4936,
  "laimed": 4937,
  "ĠGeorge": 4938,
  "Ġluck": 4939,
  "Ġfollowing": 4940,
  "ĠĊ": 4941,
  "Ġprice": 4942,
  "ecting": 4943,
  "Ġmama": 4944,
  "Ġpitch": 4945,
  "Ġbelow": 4946,
  "ĠElly": 4947,
  "ĠHave": 4948,
  "Le": 4949,
  "Ġweight": 4950,
  "Ġexclaimed": 4951,
  "house": 4952,
  "Ġburied": 4953,
  "Ġfollows": 4954,
  "Ġcomf": 4955,
  "Ġrecognize": 4956,
  "Ġingredients": 4957,
  "Ġfurt": 4958,
  "tain": 4959,
  "Ġcandles": 4960,
  "Mimi": 4961,
  "Ġmarbles": 4962,
  "riage": 4963,
  "unday": 4964,
  "emember": 4965,
  "eration": 4966,
  "ĠAlex": 4967,
  "Ġapart": 4968,
  "ĠWednesday": 4969,
  "Ġgrowled": 4970,
  "uct": 4971,
  "ĠSu": 4972,
  "ores": 4973,
  "Ġconf": 4974,
  "Ġteaching": 4975,
  "Ġhopes": 4976,
  "Ġfolded": 4977,
  "Ġclosely": 4978,
  "ĠFinn": 4979,
  "ĠWho": 4980,
  "Ġheel": 4981,
  "ĠSunday": 4982,
  "Ġencourage": 4983,
  "ĠPaul": 4984,
  "ĠOwl": 4985,
  "Ġzigzag": 4986,
  "Ġpulling": 4987,
  "Ġdigg": 4988,
  "Ġbouncy": 4989,
  "Ġfurther": 4990,
  "Ġchewed": 4991,
  "Ġdigging": 4992,
  "Ġwinning": 4993,
  "Woof": 4994,
  "With": 4995,
  "Ġdresses": 4996,
  "Ġimage": 4997,
  "rec": 4998,
  "cery": 4999,
  "Ġshouting": 5000,
  "Ġgrocery": 5001,
  "Ġtwisty": 5002,
  "Ġpeanuts": 5003,
  "Ġpuzzles": 5004,
  "bbing": 5005,
  "ĠDog": 5006,
  "look": 5007,
  "Ġscrat": 5008,
  "Ġchores": 5009,
  "Ġwhisper": 5010,
  "ĠIs": 5011,
  "Ġspike": 5012,
  "ĠFroggy": 5013,
  "Ġcape": 5014,
  "Ġsnail": 5015,
  "Ġacorns": 5016,
  "Ġworms": 5017,
  "hood": 5018,
  "Ġdeeper": 5019,
  "Ġurge": 5020,
  "ifi": 5021,
  "Ġexper": 5022,
  "ĠWhenever": 5023,
  "ĠTilly": 5024,
  "ĠSqueaky": 5025,
  "ĠGrace": 5026,
  "Ġplanted": 5027,
  "Ġattention": 5028,
  "ecture": 5029,
  "Ġexercise": 5030,
  "ĠDanny": 5031,
  "Ġcub": 5032,
  "Ġoperation": 5033,
  "Ġunderground": 5034,
  "Ġhon": 5035,
  "Ġagre": 5036,
  "Ġquite": 5037,
  "Ġcreatures": 5038,
  "Ġsimp": 5039,
  "Everyone": 5040,
  "Ġstruggle": 5041,
  "oral": 5042,
  "ĠMittens": 5043,
  "ddy": 5044,
  "Ġblood": 5045,
  "Ġlecture": 5046,
  "Ġwashing": 5047,
  "Ġhurting": 5048,
  "Ġvanished": 5049,
  "Ġgifts": 5050,
  "Ġdressed": 5051,
  "Ġinvitation": 5052,
  "Ġsolved": 5053,
  "Ġlicks": 5054,
  "Ġsnuggled": 5055,
  "ĠSharing": 5056,
  "ippy": 5057,
  "Ġble": 5058,
  "Ġmarriage": 5059,
  "Ġquietly": 5060,
  "gie": 5061,
  "Ġwarning": 5062,
  "Ġjazz": 5063,
  "Ġbreathe": 5064,
  "reci": 5065,
  "Ġelephants": 5066,
  "Ġsizes": 5067,
  "Ġdried": 5068,
  "Ġfallen": 5069,
  "Ġlandscape": 5070,
  "ories": 5071,
  "Ġsprink": 5072,
  "Ġneighbour": 5073,
  "Ġmice": 5074,
  "uesday": 5075,
  "Ġappreci": 5076,
  "ĠSophie": 5077,
  "ĠJoey": 5078,
  "ĠâĢĵ": 5079,
  "Ġeagerly": 5080,
  "Ġsailing": 5081,
  "ĠCoco": 5082,
  "Ġpaused": 5083,
  "ips": 5084,
  "Ġcounter": 5085,
  "ĠGood": 5086,
  "ĠBounce": 5087,
  "ĠPenny": 5088,
  "Ġworth": 5089,
  "looking": 5090,
  "ĠRock": 5091,
  "Ġoxygen": 5092,
  "Because": 5093,
  "Ġrelease": 5094,
  "Ġshined": 5095,
  "Not": 5096,
  "pted": 5097,
  "Ġreaches": 5098,
  "Ġbalan": 5099,
  "ĠZara": 5100,
  "isses": 5101,
  "Ġoh": 5102,
  "Ġkisses": 5103,
  "Ġstyle": 5104,
  "Ġbricks": 5105,
  "Ġplays": 5106,
  "Ġglo": 5107,
  "ĠTuesday": 5108,
  "Ġideas": 5109,
  "sed": 5110,
  "Ġinst": 5111,
  "Ġwob": 5112,
  "Ġfireworks": 5113,
  "Bella": 5114,
  "iggly": 5115,
  "ucked": 5116,
  "Ġseeing": 5117,
  "Ġflap": 5118,
  "ops": 5119,
  "Ġaccepted": 5120,
  "right": 5121,
  "ĠPip": 5122,
  "Today": 5123,
  "Ġblink": 5124,
  "mm": 5125,
  "ĠRos": 5126,
  "Ġtremb": 5127,
  "These": 5128,
  "Ġmuddy": 5129,
  "Ġmemory": 5130,
  "Ġmarried": 5131,
  "Ġtomatoes": 5132,
  "Ġexit": 5133,
  "ĠAnnie": 5134,
  "Ġwagging": 5135,
  "Ġfash": 5136,
  "Remy": 5137,
  "ĠCharlie": 5138,
  "Ġwandered": 5139,
  "unately": 5140,
  "ipping": 5141,
  "Ġgloves": 5142,
  "Ġcaptain": 5143,
  "Ġpillows": 5144,
  "Ġreceive": 5145,
  "Ġresp": 5146,
  "ĠPinky": 5147,
  "raged": 5148,
  "Ġduring": 5149,
  "ĠEverything": 5150,
  "etch": 5151,
  "Ġweb": 5152,
  "Ġpetals": 5153,
  "Ġwatered": 5154,
  "ĠEventually": 5155,
  "Ġsi": 5156,
  "ived": 5157,
  "Ġmanage": 5158,
  "Ġpinched": 5159,
  "Ġbrings": 5160,
  "Ġvanish": 5161,
  "Ġcakes": 5162,
  "Ġfashion": 5163,
  "ĠBluey": 5164,
  "Ġprinter": 5165,
  "Ġdestroyed": 5166,
  "Ġtreasures": 5167,
  "nce": 5168,
  "Ġallow": 5169,
  "ups": 5170,
  "Ġhadn": 5171,
  "Ġworse": 5172,
  "ĠFifi": 5173,
  "Surpr": 5174,
  "Ġvel": 5175,
  "Ġhits": 5176,
  "Ġbur": 5177,
  "xu": 5178,
  "Ġvelvet": 5179,
  "Ġappear": 5180,
  "Ġdisagree": 5181,
  "do": 5182,
  "Ġcatching": 5183,
  "Ġscattered": 5184,
  "ĠRo": 5185,
  "Ġmemories": 5186,
  "Ġsorts": 5187,
  "ĠPapa": 5188,
  "Ġhers": 5189,
  "Ġscolded": 5190,
  "Ġsigns": 5191,
  "Ġpears": 5192,
  "Ġoranges": 5193,
  "Ġbones": 5194,
  "Ġrang": 5195,
  "Ġsnapped": 5196,
  "Ġsits": 5197,
  "Ġseats": 5198,
  "uxu": 5199,
  "Ġgazed": 5200,
  "Ġraised": 5201,
  "Bl": 5202,
  "ĠMaria": 5203,
  "Ġzipped": 5204,
  "Ġpies": 5205,
  "Ġprints": 5206,
  "Ġshot": 5207,
  "Ġsliding": 5208,
  "ĠGod": 5209,
  "Ġfro": 5210,
  "Ġeasier": 5211,
  "ssible": 5212,
  "Ġskills": 5213,
  "Ġclimbs": 5214,
  "Ġtwirled": 5215,
  "ccer": 5216,
  "Ġblankets": 5217,
  "Ġforgotten": 5218,
  "Ġbaked": 5219,
  "ester": 5220,
  "Yum": 5221,
  "esterday": 5222,
  "Ġdifference": 5223,
  "orted": 5224,
  "Ġluxu": 5225,
  "Ġgolden": 5226,
  "ising": 5227,
  "Ġkitty": 5228,
  "ĠTw": 5229,
  "Ġcutting": 5230,
  "Ġseason": 5231,
  "aggie": 5232,
  "Ġnowhere": 5233,
  "Ġcrow": 5234,
  "ah": 5235,
  "Ġsoccer": 5236,
  "Ġdared": 5237,
  "Ġbites": 5238,
  "ĠHenry": 5239,
  "ĠHarry": 5240,
  "anny": 5241,
  "Ġlung": 5242,
  "Ġcelebrated": 5243,
  "choo": 5244,
  "chie": 5245,
  "Ġstraight": 5246,
  "Ġunlocked": 5247,
  "sters": 5248,
  "Ġsorting": 5249,
  "Ġcollected": 5250,
  "Ġbleed": 5251,
  "aped": 5252,
  "ding": 5253,
  "Ġwelcomed": 5254,
  "Ġvisited": 5255,
  "Ġspoons": 5256,
  "Ġours": 5257,
  "Ġstitch": 5258,
  "Ġjogging": 5259,
  "Surprise": 5260,
  "medi": 5261,
  "Ġemer": 5262,
  "ĠSpark": 5263,
  "mediately": 5264,
  "Ġisn": 5265,
  "Ġtong": 5266,
  "Ġtrave": 5267,
  "Ġwinner": 5268,
  "umble": 5269,
  "Ġsince": 5270,
  "Ġruin": 5271,
  "Ġprett": 5272,
  "Ok": 5273,
  "Moral": 5274,
  "ĠTony": 5275,
  "Ġattached": 5276,
  "Ġweeping": 5277,
  "Ġmarching": 5278,
  "Ġluxury": 5279,
  "Ġsimple": 5280,
  "ĠEach": 5281,
  "Ġshouldn": 5282,
  "Ġguessed": 5283,
  "Ġzero": 5284,
  "Ġcreated": 5285,
  "Ġstuffed": 5286,
  "Ġpets": 5287,
  "ction": 5288,
  "Ġwaist": 5289,
  "Ġfamil": 5290,
  "Ġurged": 5291,
  "Ġbowed": 5292,
  "Ġselling": 5293,
  "Ġfloating": 5294,
  "rr": 5295,
  "ĠSmith": 5296,
  "Ġbye": 5297,
  "ĠKing": 5298,
  "Ġvict": 5299,
  "Ġkingdom": 5300,
  "Ġolives": 5301,
  "Ġkicking": 5302,
  "ĠWiggly": 5303,
  "Ġpunished": 5304,
  "ĠLiz": 5305,
  "ĠBaby": 5306,
  "sit": 5307,
  "Ġtoes": 5308,
  "Ġgrant": 5309,
  "Ġmuscles": 5310,
  "Ġjewels": 5311,
  "ĠRosie": 5312,
  "Ġbeds": 5313,
  "Ġmelted": 5314,
  "Goodbye": 5315,
  "Ġslice": 5316,
  "Ġgrin": 5317,
  "Ġunderstanding": 5318,
  "Ġcollection": 5319,
  "Ġtore": 5320,
  "Ġmeasured": 5321,
  "aker": 5322,
  "Ġcras": 5323,
  "omeday": 5324,
  "iers": 5325,
  "Ġtrapped": 5326,
  "Ġlined": 5327,
  "'ve": 5328,
  "Ġacted": 5329,
  "fortunately": 5330,
  "Ġencouraged": 5331,
  "va": 5332,
  "ĠSandy": 5333,
  "Ġreceived": 5334,
  "Ġwaffles": 5335,
  "ĠBefore": 5336,
  "ĠWally": 5337,
  "Ġwest": 5338,
  "Ġmeow": 5339,
  "ents": 5340,
  "Ġpatterns": 5341,
  "rin": 5342,
  "ino": 5343,
  "Ġbrus": 5344,
  "eath": 5345,
  "Ġmouths": 5346,
  "kins": 5347,
  "Ġbang": 5348,
  "ring": 5349,
  "ĠKate": 5350,
  "Meow": 5351,
  "Ġpeaches": 5352,
  "Ġbreeze": 5353,
  "aded": 5354,
  "une": 5355,
  "Ġprinted": 5356,
  "Ġsoldiers": 5357,
  "Ġsomeday": 5358,
  "Ġpotatoes": 5359,
  "Ġpupil": 5360,
  "umes": 5361,
  "ĠMillie": 5362,
  "Ġdrinks": 5363,
  "Ġshed": 5364,
  "Ġexperience": 5365,
  "ĠTuna": 5366,
  "Ġpresents": 5367,
  "Ġfiref": 5368,
  "ĠRuby": 5369,
  "Ġsurround": 5370,
  "Ġnone": 5371,
  "osed": 5372,
  "Ġvoices": 5373,
  "eep": 5374,
  "Ġdrinking": 5375,
  "ĠUncle": 5376,
  "ishing": 5377,
  "Ġrelaxed": 5378,
  "Ġvictory": 5379,
  "cus": 5380,
  "Ġpaints": 5381,
  "Ġbreaking": 5382,
  "eve": 5383,
  "Ġhurried": 5384,
  "ission": 5385,
  "Ġtwink": 5386,
  "Ġtongue": 5387,
  "Ġcostumes": 5388,
  "Ġflat": 5389,
  "Ġmentioned": 5390,
  "Ġbegged": 5391,
  "Ġteasing": 5392,
  "Ġwhistling": 5393,
  "Ġfetch": 5394,
  "Ġpermission": 5395,
  "Ġsip": 5396,
  "Ġdisagreed": 5397,
  "Ġpearl": 5398,
  "akes": 5399,
  "Ġstro": 5400,
  "vest": 5401,
  "ĠThese": 5402,
  "Ġesc": 5403,
  "Ġappro": 5404,
  "Ġskipping": 5405,
  "Ġfishing": 5406,
  "ĠMay": 5407,
  "Leo": 5408,
  "Ġhighest": 5409,
  "Ġpra": 5410,
  "Ġwatches": 5411,
  "Ġsorted": 5412,
  "Ġringing": 5413,
  "ship": 5414,
  "Ġtonight": 5415,
  "ĠBo": 5416,
  "Ġopin": 5417,
  "Ġlets": 5418,
  "icing": 5419,
  "ĠQu": 5420,
  "Ġperfectly": 5421,
  "Ġshadows": 5422,
  "Ġimmediately": 5423,
  "Ġherbs": 5424,
  "Ġwarmth": 5425,
  "Ġspit": 5426,
  "Ġremained": 5427,
  "ther": 5428,
  "ĠIts": 5429,
  "walk": 5430,
  "Bobby": 5431,
  "irring": 5432,
  "Jen": 5433,
  "Ġsneak": 5434,
  "Ġsix": 5435,
  "Ġlips": 5436,
  "Ġkneeled": 5437,
  "Blue": 5438,
  "Ġcontest": 5439,
  "ĠChe": 5440,
  "utter": 5441,
  "Ġcartoons": 5442,
  "Ġsidewalk": 5443,
  "Ġcolours": 5444,
  "Ġstamps": 5445,
  "Ġago": 5446,
  "Ha": 5447,
  "ĠToto": 5448,
  "ĠBoo": 5449,
  "ĠFollow": 5450,
  "Ġeast": 5451,
  "Ġheaded": 5452,
  "oved": 5453,
  "\",": 5454,
  "Ġstrang": 5455,
  "Ġladyb": 5456,
  "Ġfed": 5457,
  "Ġsupposed": 5458,
  "Ġroots": 5459,
  "Ġlick": 5460,
  "Ġcrunch": 5461,
  "Ġmixing": 5462,
  "Ġworks": 5463,
  "Ġdecorations": 5464,
  "Ġmelting": 5465,
  "Ġknown": 5466,
  "Ġemergen": 5467,
  "Mandy": 5468,
  "Ġrested": 5469,
  "ĠAb": 5470,
  "Ġlines": 5471,
  "ĠSuzy": 5472,
  "Ġlily": 5473,
  "ĠJul": 5474,
  "Ġinstr": 5475,
  "Ġlaid": 5476,
  "ĠGr": 5477,
  "Ġsucceeded": 5478,
  "Ġcones": 5479,
  "Ġwiggle": 5480,
  "ety": 5481,
  "sing": 5482,
  "Ġshock": 5483,
  "Ġsetting": 5484,
  "ĠSlow": 5485,
  "Ġstudied": 5486,
  "Ġstrangers": 5487,
  "ĠRocky": 5488,
  "Really": 5489,
  "Ġtwigs": 5490,
  "Ġbrid": 5491,
  "Ġtheirs": 5492,
  "ĠDr": 5493,
  "Ġgirls": 5494,
  "boo": 5495,
  "!\",": 5496,
  "Ġscreams": 5497,
  "Ġlands": 5498,
  "Ġordered": 5499,
  "Ġstirring": 5500,
  "Ġmoments": 5501,
  "Ġfields": 5502,
  "Ġalright": 5503,
  "Ġstealing": 5504,
  "ded": 5505,
  "Andy": 5506,
  "Ġrul": 5507,
  "Ġbravely": 5508,
  "avid": 5509,
  "ĠBoth": 5510,
  "Ġmister": 5511,
  "!'": 5512,
  "Ġinvest": 5513,
  "Ġscratched": 5514,
  "Ġplaytime": 5515,
  "Ġripped": 5516,
  "Ġinvestig": 5517,
  "Ġtucked": 5518,
  "Ġresting": 5519,
  "Ġburning": 5520,
  "ishes": 5521,
  "ĠClara": 5522,
  "ĠChicky": 5523,
  "Ġbridges": 5524,
  "Ġofficer": 5525,
  "please": 5526,
  "Sammy": 5527,
  "Bird": 5528,
  "abies": 5529,
  "Ġsettled": 5530,
  "Ġmatched": 5531,
  "Ġachie": 5532,
  "Ġtex": 5533,
  "Ġtexture": 5534,
  "Happy": 5535,
  "Ġwaits": 5536,
  "Ġturning": 5537,
  "ĠSky": 5538,
  "Peter": 5539,
  "ored": 5540,
  "Ġtrembling": 5541,
  "isten": 5542,
  "Ġnails": 5543,
  "atie": 5544,
  "Ġmuffins": 5545,
  "ĠSomeone": 5546,
  "ids": 5547,
  "Ġescaped": 5548,
  "ĠJames": 5549,
  "Ġpiles": 5550,
  "Ġinvestigate": 5551,
  "osity": 5552,
  "Ġbroom": 5553,
  "Ġladybug": 5554,
  "Ġsore": 5555,
  "ĠPepper": 5556,
  "Ġappreciate": 5557,
  "Ġadmir": 5558,
  "Ġthreat": 5559,
  "Ġbabies": 5560,
  "Ġsilence": 5561,
  "Ġsisters": 5562,
  "Ġemergency": 5563,
  "Ġarea": 5564,
  "ides": 5565,
  "Ġdads": 5566,
  "Ġanswers": 5567,
  "Ġpupp": 5568,
  "Ġkeys": 5569,
  "Ġchewing": 5570,
  "Ġslapped": 5571,
  "Ġwiz": 5572,
  "Ġimportance": 5573,
  "Boo": 5574,
  "Ġserved": 5575,
  "ĠHop": 5576,
  "Ġsafety": 5577,
  "izing": 5578,
  "Bu": 5579,
  "Would": 5580,
  "Ġsparkle": 5581,
  "Ġtouching": 5582,
  "ĠLater": 5583,
  "Ġsoared": 5584,
  "igail": 5585,
  "Ġsings": 5586,
  "Ġhen": 5587,
  "allen": 5588,
  "Ella": 5589,
  "bers": 5590,
  "antly": 5591,
  "Momo": 5592,
  "ĠDino": 5593,
  "Ġkeeps": 5594,
  "Ġamazement": 5595,
  "Ġchallen": 5596,
  "Ġtwin": 5597,
  "Ġhesit": 5598,
  "Ġrevealed": 5599,
  "anna": 5600,
  "achel": 5601,
  "Ġitem": 5602,
  "Ġdire": 5603,
  "Ġsoaked": 5604,
  "zing": 5605,
  "Ġwrit": 5606,
  "Ġfoods": 5607,
  "Ġrides": 5608,
  "Ġdinosaurs": 5609,
  "Ġrecorded": 5610,
  "Ġtickle": 5611,
  "Ġinch": 5612,
  "ĠZigzag": 5613,
  "ĠMe": 5614,
  "Ġwizard": 5615,
  "Ġvet": 5616,
  "Ġtrips": 5617,
  "Ġglowed": 5618,
  "ĠAn": 5619,
  "ĠFrog": 5620,
  "Mmm": 5621,
  "Ġhi": 5622,
  "Ġbeamed": 5623,
  "Ġquack": 5624,
  "Ġcurled": 5625,
  "Ġhated": 5626,
  "Ġwink": 5627,
  "Ġshopping": 5628,
  "Ġeats": 5629,
  "Eventually": 5630,
  "ĠBug": 5631,
  "Ġpraised": 5632,
  "Ġwooden": 5633,
  "Ġbringing": 5634,
  "Ġmittens": 5635,
  "Ġstudying": 5636,
  "Ġguy": 5637,
  "Ġbrushes": 5638,
  "Ġspaceship": 5639,
  "Ġgust": 5640,
  "Ġcrawling": 5641,
  "ĠSomething": 5642,
  "Cat": 5643,
  "Ġruler": 5644,
  "Ġflav": 5645,
  "Ġdownstairs": 5646,
  "Ġshooting": 5647,
  "Ġtastes": 5648,
  "Ġnapping": 5649,
  "Ġsprinkles": 5650,
  "Ġmarks": 5651,
  "Ġcuddled": 5652,
  "Ġdot": 5653,
  "hello": 5654,
  "plash": 5655,
  "Ġfut": 5656,
  "ales": 5657,
  "aved": 5658,
  "Ġfuture": 5659,
  "Ġmonsters": 5660,
  "Ġcollecting": 5661,
  "Ġmeasuring": 5662,
  "ĠHappy": 5663,
  "'.": 5664,
  "Ġfamilies": 5665,
  "ĠOut": 5666,
  "ĠFirst": 5667,
  "ĠMo": 5668,
  "Ġthrill": 5669,
  "Ġoat": 5670,
  "irts": 5671,
  "Ġresult": 5672,
  "Jake": 5673,
  "Ġapproached": 5674,
  "ĠRabbit": 5675,
  "Ġcrunchy": 5676,
  "act": 5677,
  "Un": 5678,
  "Ġremem": 5679,
  "Ġbleeding": 5680,
  "Ġremembers": 5681,
  "Ġnicer": 5682,
  "Ġbeat": 5683,
  "Ġsneaky": 5684,
  "Ġdisturbed": 5685,
  "Ġleader": 5686,
  "Ġscaring": 5687,
  "Or": 5688,
  "hind": 5689,
  "Ġpeel": 5690,
  "ĠHope": 5691,
  "Ġfiremen": 5692,
  "Ġneighborhood": 5693,
  "ĠStar": 5694,
  "Ġgrey": 5695,
  "ĠNot": 5696,
  "Ġmotion": 5697,
  "Ġnoon": 5698,
  "Ġpossible": 5699,
  "Emily": 5700,
  "Somet": 5701,
  "Ġapologized": 5702,
  "Ġweighed": 5703,
  "ues": 5704,
  "ĠDid": 5705,
  "Ġtickets": 5706,
  "Cl": 5707,
  "Ġnaps": 5708,
  "Ġloose": 5709,
  "Ġpride": 5710,
  "Ġyouth": 5711,
  "Ġswims": 5712,
  "ped": 5713,
  "Ġstrings": 5714,
  "Ġrecognized": 5715,
  "Ġsiren": 5716,
  "Ġpoking": 5717,
  "fied": 5718,
  "ĠHo": 5719,
  "cious": 5720,
  "ha": 5721,
  "elvet": 5722,
  "Ġtricked": 5723,
  "Ġwonders": 5724,
  "Ġgained": 5725,
  "Ġwanting": 5726,
  "Ġcrashed": 5727,
  "Ġobe": 5728,
  "Ġseesaw": 5729,
  "Ġworker": 5730,
  "unnies": 5731,
  "ls": 5732,
  "oming": 5733,
  "Ġdraws": 5734,
  "Ġscooped": 5735,
  ".'": 5736,
  "Ġzooming": 5737,
  "Ġopinion": 5738,
  "Ġyelling": 5739,
  "Ġprepared": 5740,
  "Ġgrinned": 5741,
  "ĠSlowly": 5742,
  "Ġawe": 5743,
  "Ġpoems": 5744,
  "Ġdoggy": 5745,
  "Ġacting": 5746,
  "ĠBeep": 5747,
  "Ġhappiest": 5748,
  "Ġchef": 5749,
  "Ġsneaked": 5750,
  "Ġrespons": 5751,
  "Ġeff": 5752,
  "ĠAlways": 5753,
  "ĠLizzy": 5754,
  "Ġowned": 5755,
  "Ġbunnies": 5756,
  "Ġanytime": 5757,
  "Ġstruck": 5758,
  "Ġpedals": 5759,
  "oys": 5760,
  "Ġknelt": 5761,
  "ena": 5762,
  "Ollie": 5763,
  "Ġsecrets": 5764,
  "Ġpause": 5765,
  "Ġdecorated": 5766,
  "Ġhorns": 5767,
  "Ġagreement": 5768,
  "ĠSqu": 5769,
  "ided": 5770,
  "Ġfrost": 5771,
  "Ġtallest": 5772,
  "Ġobey": 5773,
  "Remember": 5774,
  "riends": 5775,
  "ogo": 5776,
  "ĠStop": 5777,
  "Have": 5778,
  "Ġdecides": 5779,
  "ĠOnce": 5780,
  "Ġbehaved": 5781,
  "Ġtugged": 5782,
  "Ġsides": 5783,
  "Ġwoof": 5784,
  "Ġslim": 5785,
  "zen": 5786,
  "Ġgoodnight": 5787,
  "Ġkeeper": 5788,
  "Ġsparkling": 5789,
  "Ġchirped": 5790,
  "Ġprecious": 5791,
  "mother": 5792,
  "lier": 5793,
  "ien": 5794,
  "Tr": 5795,
  "Ġrepeated": 5796,
  "Ġclaps": 5797,
  "indy": 5798,
  "affes": 5799,
  "Ġsnowballs": 5800,
  "Ġcontain": 5801,
  "ud": 5802,
  "rs": 5803,
  "ĠRay": 5804,
  "Ġourselves": 5805,
  "allow": 5806,
  "Ġgiraffes": 5807,
  "Ġbalancing": 5808,
  "Ġkindly": 5809,
  "Ġspending": 5810,
  "Ġwrites": 5811,
  "ays": 5812,
  "ppers": 5813,
  "ĠLike": 5814,
  "omas": 5815,
  "Ġprop": 5816,
  "Ġhissed": 5817,
  "First": 5818,
  "Ġfrozen": 5819,
  "Ġfrosting": 5820,
  "Ġeffort": 5821,
  "Ġbuzzing": 5822,
  "Ġstruggled": 5823,
  "oh": 5824,
  "ĠSteve": 5825,
  "Ġadmiring": 5826,
  "Ġrele": 5827,
  "iggy": 5828,
  "Ġsweeties": 5829,
  "ĠVelvet": 5830,
  "Ġslimy": 5831,
  "Ġbrushed": 5832,
  "Ġbloomed": 5833,
  "Susie": 5834,
  "ĠAm": 5835,
  "Ġpolished": 5836,
  "ĠZoe": 5837,
  "arth": 5838,
  "anted": 5839,
  "Ġcomfy": 5840,
  "Ġboo": 5841,
  "Ġstaying": 5842,
  "Ġrubbing": 5843,
  "Ducky": 5844,
  "Ġrocking": 5845,
  "Ġpockets": 5846,
  "Ġthrilled": 5847,
  "Ġbeside": 5848,
  "Ġcomple": 5849,
  "ĠAunt": 5850,
  "ĠMaggie": 5851,
  "Ah": 5852,
  "Ġeight": 5853,
  "urry": 5854,
  "isdom": 5855,
  "Ġmachines": 5856,
  "Ġearlier": 5857,
  "Ġyesterday": 5858,
  "Ġseems": 5859,
  "Ġrust": 5860,
  "ĠKeep": 5861,
  "Sp": 5862,
  "Ġtraveled": 5863,
  "Ġfolding": 5864,
  "Ġboom": 5865,
  "Ġcracked": 5866,
  "ities": 5867,
  "Ġhugging": 5868,
  "Ġradishes": 5869,
  "ĠStitch": 5870,
  "Ġopening": 5871,
  "Ġloving": 5872,
  "Ġcircus": 5873,
  "Ġsurrounded": 5874,
  "Ġcuriosity": 5875,
  "ĠRachel": 5876,
  "Ġspraying": 5877,
  "Ġdemanded": 5878,
  "Ġpaintings": 5879,
  "amie": 5880,
  "ĠGreen": 5881,
  "Ġremoved": 5882,
  "Ġgaze": 5883,
  "Ġhonk": 5884,
  "Ġpebbles": 5885,
  "Ġzookeeper": 5886,
  "Ġhardly": 5887,
  "Ġcatches": 5888,
  "edding": 5889,
  "Ġsting": 5890,
  "Ġstripes": 5891,
  "Ġpowers": 5892,
  "Ġloaded": 5893,
  "ĠPippa": 5894,
  "Sometimes": 5895,
  "Ġsplashes": 5896,
  "Ġpots": 5897,
  "Ġpetted": 5898,
  "Ġmatching": 5899,
  "ĠDavid": 5900,
  "Thanks": 5901,
  "Ġtoss": 5902,
  "Ġstare": 5903,
  "Ġbelly": 5904,
  "Yummy": 5905,
  "ibb": 5906,
  "Ġwhatever": 5907,
  "Ġapologize": 5908,
  "Ġrocked": 5909,
  "Ġcomforted": 5910,
  "ĠBree": 5911,
  "Ġdecision": 5912,
  "Ġribbons": 5913,
  "ĠJoy": 5914,
  "ĠBirdie": 5915,
  "ern": 5916,
  "Ġstruggling": 5917,
  "Ġexpected": 5918,
  "Ġdeser": 5919,
  "Ġsteep": 5920,
  "wh": 5921,
  "Ġprotected": 5922,
  "Ġneighbors": 5923,
  "Ġsmiley": 5924,
  "Ġchases": 5925,
  "During": 5926,
  "Ġgranted": 5927,
  "Ġcrumb": 5928,
  "ĠMat": 5929,
  "Ġpurred": 5930,
  "Ġdiving": 5931,
  "Ġsadness": 5932,
  "Whiskers": 5933,
  "Ġorganizing": 5934,
  "lowers": 5935,
  "Ġeagle": 5936,
  "Ġheroes": 5937,
  "Ġdipped": 5938,
  "Ġsunlight": 5939,
  "Ġlied": 5940,
  "Ġpastels": 5941,
  "ĠFrank": 5942,
  "Ex": 5943,
  "Ġsafer": 5944,
  "Ġroads": 5945,
  "Ġscru": 5946,
  "Ġargued": 5947,
  "ĠMilly": 5948,
  "Ġgoals": 5949,
  "ĠWater": 5950,
  "Ġdiscovery": 5951,
  "ĠAbigail": 5952,
  "Ġvillag": 5953,
  "Ġpeered": 5954,
  "Ro": 5955,
  "ĠBouncy": 5956,
  "use": 5957,
  "ana": 5958,
  "loe": 5959,
  "Ġtim": 5960,
  "Ġdragons": 5961,
  "Ġbuildings": 5962,
  "Ġbuckets": 5963,
  "Ġparties": 5964,
  "Ġbeard": 5965,
  "Ġwedding": 5966,
  "Rex": 5967,
  "Ġflutter": 5968,
  "Ġplanets": 5969,
  "Ġann": 5970,
  "ĠRobby": 5971,
  "Ġpolishing": 5972,
  "Ġfasc": 5973,
  "ira": 5974,
  "Ġreleased": 5975,
  "ĠChr": 5976,
  "Ġcrabs": 5977,
  "ĠGogo": 5978,
  "Ġtails": 5979,
  "ĠWatch": 5980,
  "Ġsausages": 5981,
  "ĠJu": 5982,
  "Ġargu": 5983,
  "Ġcontro": 5984,
  "Ġbottles": 5985,
  "Ġwiggled": 5986,
  "Ġteased": 5987,
  "uke": 5988,
  "Ġarguing": 5989,
  "Ġsled": 5990,
  "Ġdragged": 5991,
  "Ġpadd": 5992,
  "ĠCar": 5993,
  "Ġroaring": 5994,
  "Ġclearing": 5995,
  "Ġshirts": 5996,
  "Ġmovies": 5997,
  "Ġgathering": 5998,
  "Ġairpl": 5999,
  "Ġwid": 6000,
  "joyed": 6001,
  "Ġteaches": 6002,
  "Ġspiders": 6003,
  "Ġlimes": 6004,
  "ĠRemember": 6005,
  "ĠDare": 6006,
  "Ġoverjoyed": 6007,
  "Ġactually": 6008,
  "Ġsighs": 6009,
  "Ġcontinue": 6010,
  "Ġcuddle": 6011,
  "Ġsoaring": 6012,
  "Ġsmallest": 6013,
  "ĠJess": 6014,
  "Ġdrives": 6015,
  "Ġsparkles": 6016,
  "Ġrip": 6017,
  "Ġsitu": 6018,
  "Ġcubes": 6019,
  "Ġrefres": 6020,
  "Ġtalent": 6021,
  "Ġchallenge": 6022,
  "ĠOlly": 6023,
  "Ġgrandmother": 6024,
  "ĠSplash": 6025,
  "Ġpouring": 6026,
  "umm": 6027,
  "Ġpretends": 6028,
  "Ġfascin": 6029,
  "Ġcuts": 6030,
  "Ġquarreling": 6031,
  "Ġpeppers": 6032,
  "Ġbank": 6033,
  "Ġshivered": 6034,
  "Ġmane": 6035,
  "Ġdusty": 6036,
  "ley": 6037,
  "Ġwondering": 6038,
  "Ġvillagers": 6039,
  "Ġstretching": 6040,
  "njoy": 6041,
  "ib": 6042,
  "Ġweeks": 6043,
  "Ġwherever": 6044,
  "Ġdarker": 6045,
  "jam": 6046,
  "Tiny": 6047,
  "sses": 6048,
  "ĠX": 6049,
  "Ġrings": 6050,
  "Ġonwards": 6051,
  "ĠKatie": 6052,
  "Ġunited": 6053,
  "Achoo": 6054,
  "Ġbead": 6055,
  "ĠEveryday": 6056,
  "ĠBeing": 6057,
  "Ġprettiest": 6058,
  "Johnny": 6059,
  "Ġcaut": 6060,
  "Ġrealize": 6061,
  "Ġcompany": 6062,
  "Ġpenguins": 6063,
  "annah": 6064,
  "Luna": 6065,
  "Fr": 6066,
  "ĠSpring": 6067,
  "Ġbedtime": 6068,
  "Ġcompleted": 6069,
  "ĠWisdom": 6070,
  "ĠLeave": 6071,
  "âĢĿ.": 6072,
  "Ġknights": 6073,
  "Ġflags": 6074,
  "ĠJe": 6075,
  "ĠBecause": 6076,
  "Ġplayroom": 6077,
  "ĠPrin": 6078,
  "Ġactions": 6079,
  "ĠZero": 6080,
  "Ġlearns": 6081,
  "Ġgotten": 6082,
  "Ġpatience": 6083,
  "inda": 6084,
  "dam": 6085,
  "Ġshrug": 6086,
  "Ġkites": 6087,
  "Ġresponsible": 6088,
  "Ġfears": 6089,
  "Ġdestination": 6090,
  "Ġwires": 6091,
  "Ġreply": 6092,
  "Ġwrist": 6093,
  "Ġdam": 6094,
  "aws": 6095,
  "Ġpacking": 6096,
  "Ġmountains": 6097,
  "Ġfault": 6098,
  "Ġapplauded": 6099,
  "Ġscrubbed": 6100,
  "Ġma": 6101,
  "Ġcrept": 6102,
  "ĠAva": 6103,
  "Uh": 6104,
  "ĠEarth": 6105,
  "Ġsatis": 6106,
  "Ġthird": 6107,
  "Ġphot": 6108,
  "Ġpencils": 6109,
  "Ġwins": 6110,
  "Ġsticking": 6111,
  "Ġbaker": 6112,
  "Ġvisiting": 6113,
  "Ġwound": 6114,
  "Ġuses": 6115,
  "Ġpeas": 6116,
  "Ġreminder": 6117,
  "Ġcontrol": 6118,
  "ashed": 6119,
  "Grandpa": 6120,
  "Ġjoking": 6121,
  "Ġawake": 6122,
  "Ġinstruct": 6123,
  "Ġstaring": 6124,
  "Ġhealed": 6125,
  "ĠPut": 6126,
  "Ġhitting": 6127,
  "ĠFish": 6128,
  "Ġscreaming": 6129,
  "Ġbegin": 6130,
  "Rob": 6131,
  "uckily": 6132,
  "ĠFriends": 6133,
  "ĠMoo": 6134,
  "icorn": 6135,
  "Ġhelmets": 6136,
  "enty": 6137,
  "Ġunicorn": 6138,
  "ler": 6139,
  "seek": 6140,
  "Ġtowels": 6141,
  "Silly": 6142,
  "ĠLou": 6143,
  "Ġchips": 6144,
  "ica": 6145,
  "Ġcreation": 6146,
  "Ġwasted": 6147,
  "bie": 6148,
  "Mar": 6149,
  "ĠBehind": 6150,
  "laire": 6151,
  "Ġmasks": 6152,
  "Ġitems": 6153,
  "Ġforgi": 6154,
  "Ġfirefight": 6155,
  "Ġoutdo": 6156,
  "Ġlollipops": 6157,
  "Watch": 6158,
  "Ġheav": 6159,
  "Ġguns": 6160,
  "Ġdied": 6161,
  "ĠHippy": 6162,
  "Ġseas": 6163,
  "Ġglitter": 6164,
  "uddles": 6165,
  "Ġarrive": 6166,
  "Ġweren": 6167,
  "Ġstole": 6168,
  "Ġscales": 6169,
  "Ġperched": 6170,
  "Ġaccom": 6171,
  "Ġlogs": 6172,
  "Ġachieve": 6173,
  "die": 6174,
  "Ġpracticing": 6175,
  "ining": 6176,
  "Ġwhose": 6177,
  "Stay": 6178,
  "Ġpumpkins": 6179,
  "Ġinstructions": 6180,
  "Ġswoop": 6181,
  "Ġbatteries": 6182,
  "Ġcandies": 6183,
  "Ġagrees": 6184,
  "Ġproject": 6185,
  "Ġsnakes": 6186,
  "Ġchirping": 6187,
  "Benny": 6188,
  "Ġshelves": 6189,
  "Ġprotecting": 6190,
  "Ġparked": 6191,
  "Ġexact": 6192,
  "ĠCra": 6193,
  "Ġpatiently": 6194,
  "Ġactiv": 6195,
  "Ġvideos": 6196,
  "Ġshoulders": 6197,
  "Ġblows": 6198,
  "hee": 6199,
  "Fo": 6200,
  "Ġpromises": 6201,
  "go": 6202,
  "Ġdent": 6203,
  "usan": 6204,
  "uest": 6205,
  "ners": 6206,
  "jamas": 6207,
  "Ġexamined": 6208,
  "Ġairplane": 6209,
  "Doggy": 6210,
  "Ġroses": 6211,
  "Ġaccompl": 6212,
  "Ġtasks": 6213,
  "Dave": 6214,
  "ĠHoot": 6215,
  "Poppy": 6216,
  "ĠBop": 6217,
  "Bunny": 6218,
  "Ġbeads": 6219,
  "Ġbowls": 6220,
  "Ġcrumbs": 6221,
  "zes": 6222,
  "Ġlistens": 6223,
  "ĠLove": 6224,
  "ĠCatty": 6225,
  "ĠBrownie": 6226,
  "Pete": 6227,
  "ĠOl": 6228,
  "Ġdolphins": 6229,
  "Ġcough": 6230,
  "Ġbunch": 6231,
  "Ġguest": 6232,
  "cakes": 6233,
  "Ġrequested": 6234,
  "Ġremote": 6235,
  "Ġimproved": 6236,
  "anta": 6237,
  "Ġreaching": 6238,
  "Ġbrand": 6239,
  "ĠJan": 6240,
  "ayla": 6241,
  "Ġalien": 6242,
  "ĠBye": 6243,
  "irm": 6244,
  "Ġcopy": 6245,
  "ĠSun": 6246,
  "Ġcheering": 6247,
  "Ġphotos": 6248,
  "ĠJulie": 6249,
  "ĠChew": 6250,
  "Bad": 6251,
  "ĠBlink": 6252,
  "Time": 6253,
  "Ġcans": 6254,
  "ĠCuddles": 6255,
  "Ġtimer": 6256,
  "ĠBy": 6257,
  "Ġreplaced": 6258,
  "athy": 6259,
  "Ġworkers": 6260,
  "Ġstern": 6261,
  "ĠEnjoy": 6262,
  "aster": 6263,
  "Ġneither": 6264,
  "Mike": 6265,
  "Ġpassing": 6266,
  "Ġmisses": 6267,
  "Ġcurtains": 6268,
  "Ġconfl": 6269,
  "Chirpy": 6270,
  "Ġrainbows": 6271,
  "Ġrubs": 6272,
  "George": 6273,
  "uctantly": 6274,
  "Ġrolls": 6275,
  "Ġpatted": 6276,
  "ilo": 6277,
  "Ġpajamas": 6278,
  "Ġoutdoors": 6279,
  "esome": 6280,
  "dies": 6281,
  "Ġcomplaining": 6282,
  "ĠSquirrel": 6283,
  "Lola": 6284,
  "Run": 6285,
  "Ġpuppet": 6286,
  "ĠPrincess": 6287,
  "Ġcloses": 6288,
  "Ġbeneath": 6289,
  "Ġlap": 6290,
  "Ġdrums": 6291,
  "Ġtune": 6292,
  "ĠBeth": 6293,
  "ĠMouse": 6294,
  "Ġfilling": 6295,
  "Miss": 6296,
  "angled": 6297,
  "Ġrefuse": 6298,
  "ĠSorry": 6299,
  "Ġsweat": 6300,
  "Ġfaced": 6301,
  "...": 6302,
  "Ġseven": 6303,
  "Ġbalanced": 6304,
  "Ġrescued": 6305,
  "neath": 6306,
  "bl": 6307,
  "Ġquacked": 6308,
  "ĠAbby": 6309,
  "Paul": 6310,
  "istle": 6311,
  "Ġawesome": 6312,
  "Ġ1": 6313,
  "Ġmission": 6314,
  "ĠHowever": 6315,
  "Ġguys": 6316,
  "Ġconflict": 6317,
  "Ġcautious": 6318,
  "Ġvent": 6319,
  "Ġobserved": 6320,
  "Ġcause": 6321,
  "Ġintroduc": 6322,
  "ĠThomas": 6323,
  "Ġpastries": 6324,
  "nie": 6325,
  "ĠĠ": 6326,
  "ĠOur": 6327,
  "Ġexactly": 6328,
  "Ġdoctors": 6329,
  "Ġrule": 6330,
  "Ġbecoming": 6331,
  "Ġpoliceman": 6332,
  "Ġmes": 6333,
  "uly": 6334,
  "Ġrockets": 6335,
  "you": 6336,
  "ĠYes": 6337,
  "ĠDot": 6338,
  "Ġfairies": 6339,
  "lay": 6340,
  "Ġpout": 6341,
  "An": 6342,
  "Ġinsist": 6343,
  "Ġblooming": 6344,
  "Ġtractor": 6345,
  "Ġfarther": 6346,
  "ĠSad": 6347,
  "avi": 6348,
  "Oops": 6349,
  "Great": 6350,
  "Ġremembering": 6351,
  "Ġincluded": 6352,
  "Ġcurly": 6353,
  "Zoom": 6354,
  "Fine": 6355,
  "Ġteamwork": 6356,
  "zie": 6357,
  "Ġfascinated": 6358,
  "Ġwobbled": 6359,
  "Ġslam": 6360,
  "Ġtruly": 6361,
  "Ġhelpers": 6362,
  "Ġsights": 6363,
  "Ġpaddle": 6364,
  "Ġstumble": 6365,
  "Ġfirm": 6366,
  "Henry": 6367,
  "ĠJilly": 6368,
  "acob": 6369,
  "Ġcaused": 6370,
  "Ġprayer": 6371,
  "Ġspong": 6372,
  "Ġrecording": 6373,
  "kelly": 6374,
  "ais": 6375,
  "Ġtraded": 6376,
  "Ġstarfish": 6377,
  "Ġsupplies": 6378,
  "Ġthro": 6379,
  "Ġpointy": 6380,
  "Ġsituation": 6381,
  "Ġinviting": 6382,
  "eah": 6383,
  "gers": 6384,
  "Ġneighbourhood": 6385,
  "Ġeveryday": 6386,
  "Ġornaments": 6387,
  "ĠAlly": 6388,
  "inkle": 6389,
  "Ġvalued": 6390,
  "Ġadding": 6391,
  "Some": 6392,
  "Ġreluctantly": 6393,
  "Ġdots": 6394,
  "Ġstays": 6395,
  "Ġtables": 6396,
  "Ġprettier": 6397,
  "Ġbare": 6398,
  "Ġdesert": 6399,
  "Ġsnowmen": 6400,
  "Ġsteady": 6401,
  "Ġminerals": 6402,
  "araway": 6403,
  "Ġthorn": 6404,
  "ody": 6405,
  "Ġast": 6406,
  "Ġglasses": 6407,
  "Ġfaraway": 6408,
  "ĠGet": 6409,
  "ĠFoxy": 6410,
  "Ġswooped": 6411,
  "ĠWelcome": 6412,
  "ĠTwo": 6413,
  "ĠSure": 6414,
  "Ġunf": 6415,
  "Ġforks": 6416,
  "Ġusually": 6417,
  "Ġusual": 6418,
  "Polly": 6419,
  "Ġdar": 6420,
  "ĠJamie": 6421,
  "Ġwinked": 6422,
  "Ġsneezing": 6423,
  "Ġsolut": 6424,
  "Ġloading": 6425,
  "Ġsponge": 6426,
  "ĠQuick": 6427,
  "Ġinsects": 6428,
  "Ġpans": 6429,
  "Dog": 6430,
  "Ġsobbed": 6431,
  "ĠSanta": 6432,
  "James": 6433,
  "Ġgrowling": 6434,
  "sm": 6435,
  "arter": 6436,
  "Ġthroat": 6437,
  "ĠChloe": 6438,
  "Ġnoses": 6439,
  "ĠJosh": 6440,
  "ĠDizzy": 6441,
  "Ġscarves": 6442,
  "Ġconfident": 6443,
  "Ġyourselves": 6444,
  "ĠWant": 6445,
  "agull": 6446,
  "Ġhomework": 6447,
  "Ġsuperheroes": 6448,
  "ĠStay": 6449,
  "Joey": 6450,
  "Ġsmarter": 6451,
  "Ġwindy": 6452,
  "Ġlibrarian": 6453,
  "Tina": 6454,
  "ĠKids": 6455,
  "Ġgems": 6456,
  "Days": 6457,
  "ora": 6458,
  "Ġunderneath": 6459,
  "Ġkicks": 6460,
  "Ġknowled": 6461,
  "Ġitchy": 6462,
  "Ġknowledge": 6463,
  "Ġjackets": 6464,
  "ĠSkelly": 6465,
  "ĠFor": 6466,
  "Ġsurface": 6467,
  "Ġuntie": 6468,
  "Ġcomm": 6469,
  "ĠDuck": 6470,
  "Ġprincesses": 6471,
  "...\"": 6472,
  "Those": 6473,
  "ido": 6474,
  "eed": 6475,
  "Hold": 6476,
  "Yeah": 6477,
  "coon": 6478,
  "Ġsquares": 6479,
  "ĠHenny": 6480,
  "Ġwarnings": 6481,
  "Ġgiggling": 6482,
  "iar": 6483,
  "Ġreads": 6484,
  "vin": 6485,
  "Our": 6486,
  "Ġchoo": 6487,
  "son": 6488,
  "Ġyounger": 6489,
  "Ġclowns": 6490,
  "ĠMix": 6491,
  "Toby": 6492,
  "Ġropes": 6493,
  "Ġbiting": 6494,
  "Ġcrowd": 6495,
  "ĠUnfortunately": 6496,
  "pite": 6497,
  "Danny": 6498,
  "True": 6499,
  "Ġseagull": 6500,
  "Ġpaddled": 6501,
  "Ġwears": 6502,
  "Ġdelivered": 6503,
  "ĠMon": 6504,
  "Ġtwirl": 6505,
  "Ġonions": 6506,
  "Ġbuzzed": 6507,
  "Ġcomplained": 6508,
  "Ġbumpy": 6509,
  "Ġstem": 6510,
  "Ew": 6511,
  "Ġpiggy": 6512,
  "Mrs": 6513,
  "ĠAnne": 6514,
  "Ġdirection": 6515,
  "ouch": 6516,
  "Ġdived": 6517,
  "Roar": 6518,
  "Ġtangled": 6519,
  "Ġstartled": 6520,
  "ults": 6521,
  "Ġleaning": 6522,
  "bbie": 6523,
  "ĠAnt": 6524,
  "ĠJones": 6525,
  "Ġbadge": 6526,
  "ĠPo": 6527,
  "Grace": 6528,
  "Ġunp": 6529,
  "Ġdeal": 6530,
  "though": 6531,
  "Annie": 6532,
  "Ġvowed": 6533,
  "Ġnapkins": 6534,
  "anes": 6535,
  "Ġtickled": 6536,
  "Ġrisk": 6537,
  "Ġcovers": 6538,
  "Ġpec": 6539,
  "Shh": 6540,
  "Ġyells": 6541,
  "Ġsatisfied": 6542,
  "int": 6543,
  "Ġknocks": 6544,
  "Ġrefreshed": 6545,
  "tuce": 6546,
  "ĠSc": 6547,
  "cuse": 6548,
  "Ġcous": 6549,
  "Ġarrows": 6550,
  "Maggie": 6551,
  "ĠWhistle": 6552,
  "Pe": 6553,
  "Ġwipes": 6554,
  "Ġspeaking": 6555,
  "Ġlettuce": 6556,
  "Ġguessing": 6557,
  "Unfortunately": 6558,
  "ĠQuack": 6559,
  "Ġripe": 6560,
  "ĠSusan": 6561,
  "Ġhides": 6562,
  "Ġchoices": 6563,
  "ĠDodo": 6564,
  "ĠRover": 6565,
  "Buzz": 6566,
  "Ġsigned": 6567,
  "Ġslower": 6568,
  "Ġseeker": 6569,
  "Ġintroduced": 6570,
  "Ġsinger": 6571,
  "Ġcreating": 6572,
  "ĠMatt": 6573,
  "Ġfroze": 6574,
  "Ġcent": 6575,
  "uggles": 6576,
  "Ġjoked": 6577,
  "Ġsqueal": 6578,
  "Ġtoaster": 6579,
  "Ġexplorers": 6580,
  "fit": 6581,
  "Ġavo": 6582,
  "anging": 6583,
  "Sophie": 6584,
  "Ġpraying": 6585,
  "Ġwritten": 6586,
  "Ġdiscovering": 6587,
  "Ġprovided": 6588,
  "ĠDara": 6589,
  "Ġrefle": 6590,
  "ĠLion": 6591,
  "Excuse": 6592,
  "Ġmushrooms": 6593,
  "ĠJeff": 6594,
  "ĠPaws": 6595,
  "Ġpaying": 6596,
  "Ġknees": 6597,
  "ences": 6598,
  "Ġhider": 6599,
  "Ġwandering": 6600,
  "ĠAsh": 6601,
  "Ġimages": 6602,
  "Charlie": 6603,
  "Ġstung": 6604,
  "ĠWink": 6605,
  "Ġmagnets": 6606,
  "Ġbarely": 6607,
  "Ġbehaving": 6608,
  "Ġtipto": 6609,
  "?\",": 6610,
  "Ġmarked": 6611,
  "brush": 6612,
  "rrr": 6613,
  "Ġrestored": 6614,
  "ĠDee": 6615,
  "Ġleading": 6616,
  "lled": 6617,
  "Ġchuck": 6618,
  "ados": 6619,
  "Ġnine": 6620,
  "Ġgreet": 6621,
  "Teddy": 6622,
  "Ġgears": 6623,
  "Ġbravery": 6624,
  "ĠSnuggles": 6625,
  "ky": 6626,
  "Ġcompetition": 6627,
  "eal": 6628,
  "Ġoutfit": 6629,
  "oline": 6630,
  "Ġwishing": 6631,
  "Ġproperly": 6632,
  "Ġventured": 6633,
  "tle": 6634,
  "aa": 6635,
  "Ġmuscle": 6636,
  "Ġdances": 6637,
  "Ġchat": 6638,
  "Ġsalty": 6639,
  "Ġpens": 6640,
  "amb": 6641,
  "ĠBetsy": 6642,
  "Ġranger": 6643,
  "ĠZiggy": 6644,
  "Ġdeserve": 6645,
  "Ġhowever": 6646,
  "sequ": 6647,
  "Ġmatters": 6648,
  "Ġdarkness": 6649,
  "Ġburst": 6650,
  "ĠFu": 6651,
  "Ġrainy": 6652,
  "Ġcobwebs": 6653,
  "Ġruining": 6654,
  "Ġchefs": 6655,
  "Ġconsequ": 6656,
  "Ġblocking": 6657,
  "Ġbak": 6658,
  "usted": 6659,
  "itely": 6660,
  "sty": 6661,
  "Ġscur": 6662,
  "Ġvines": 6663,
  "Ġfab": 6664,
  "abel": 6665,
  "Ġfabric": 6666,
  "Ġentire": 6667,
  "Ġbasement": 6668,
  "Ġperformed": 6669,
  "Ġleast": 6670,
  "ĠBuggy": 6671,
  "Sn": 6672,
  "Ġscratches": 6673,
  "Ġheavier": 6674,
  "ĠClaire": 6675,
  "Ġmints": 6676,
  "Ġtwirling": 6677,
  "Ġavocados": 6678,
  "However": 6679,
  "ĠLinda": 6680,
  "rink": 6681,
  "fl": 6682,
  "Ġscurried": 6683,
  "Ġlosing": 6684,
  "Ġsunflowers": 6685,
  "ĠJenna": 6686,
  "Ġrainco": 6687,
  "Ġswords": 6688,
  "Tweet": 6689,
  "Ġclick": 6690,
  "agic": 6691,
  "ĠLaser": 6692,
  "Ġsilent": 6693,
  "Ġjobs": 6694,
  "Ġnecklaces": 6695,
  "Ġflames": 6696,
  "ĠLuke": 6697,
  "Ġrelief": 6698,
  "ĠGrumpy": 6699,
  "Ġsnat": 6700,
  "Ġsewed": 6701,
  "Ġrotting": 6702,
  "len": 6703,
  "Listen": 6704,
  "Follow": 6705,
  "Ġtricky": 6706,
  "Jerry": 6707,
  "Ġlighter": 6708,
  "ophia": 6709,
  "Ġbows": 6710,
  "ĠSkip": 6711,
  "Ġexha": 6712,
  "Ġsolution": 6713,
  "Ġconsequences": 6714,
  "Alex": 6715,
  "ĠLena": 6716,
  "Ġtires": 6717,
  "Ġstain": 6718,
  "Beep": 6719,
  "Ġunpacked": 6720,
  "Ab": 6721,
  "Ġpartic": 6722,
  "rance": 6723,
  "Ġraces": 6724,
  "Ġpins": 6725,
  "Ġbumps": 6726,
  "Ġwraps": 6727,
  "aisies": 6728,
  "Ġwow": 6729,
  "Ġdecorating": 6730,
  "Ġbacked": 6731,
  "cher": 6732,
  "Ġdentist": 6733,
  "Ġpurr": 6734,
  "Ġneedles": 6735,
  "Ġcautiously": 6736,
  "Ġlifting": 6737,
  "izzie": 6738,
  "ĠPr": 6739,
  "Ġaccomplish": 6740,
  "Ġtriangles": 6741,
  "Ġdaisies": 6742,
  "ept": 6743,
  "Ġhesitated": 6744,
  "Ġannoy": 6745,
  "ĠThose": 6746,
  "Ġgrowls": 6747,
  "Ġcrackers": 6748,
  "oke": 6749,
  "Ġstomped": 6750,
  "Ġgrabbing": 6751,
  "Ġcott": 6752,
  "Ġfigured": 6753,
  "Ġbodies": 6754,
  "Ġmater": 6755,
  "Ġbuying": 6756,
  "ĠTree": 6757,
  "Ġmaterial": 6758,
  "ĠRolly": 6759,
  "ĠFido": 6760,
  "ĠAdam": 6761,
  "Ġswans": 6762,
  "Ġties": 6763,
  "Ġgri": 6764,
  "vers": 6765,
  "Ġgrows": 6766,
  "ĠĊĠ": 6767,
  "Ġsweets": 6768,
  "ĠGoodbye": 6769,
  "Ġowners": 6770,
  "Ġflavor": 6771,
  "Ġcheeks": 6772,
  "ĠCathy": 6773,
  "Big": 6774,
  "Ġsuffering": 6775,
  "ĠJessie": 6776,
  "ĠEl": 6777,
  "vroom": 6778,
  "Ġfact": 6779,
  "Ġgroups": 6780,
  "bly": 6781,
  "Ġforehead": 6782,
  "Ġlungs": 6783,
  "Harry": 6784,
  "Ġrepa": 6785,
  "Ġinterested": 6786,
  "Ġbakery": 6787,
  "ĠMilo": 6788,
  "Ġfreed": 6789,
  "Lilly": 6790,
  "itches": 6791,
  "ĠNothing": 6792,
  "Ġchuckled": 6793,
  "For": 6794,
  "Ġswept": 6795,
  "Ġconn": 6796,
  "?'": 6797,
  "Ġthud": 6798,
  "Ġexhausted": 6799,
  "Tw": 6800,
  "Ġtwinkling": 6801,
  "Ġtapped": 6802,
  "Ru": 6803,
  "Ġnect": 6804,
  "rosty": 6805,
  "Ġnectar": 6806,
  "elle": 6807,
  "Ġfeast": 6808,
  "Ġdarling": 6809,
  "indr": 6810,
  "ĠMad": 6811,
  "Ġworries": 6812,
  "Ġuns": 6813,
  "Ġtunnels": 6814,
  "Ġfuzzy": 6815,
  "Ġrepaired": 6816,
  "Ġreason": 6817,
  "ĠTrust": 6818,
  "ĠCopper": 6819,
  "ĠBall": 6820,
  "Ġactivities": 6821,
  "lets": 6822,
  "Ġpecked": 6823,
  "ĠHannah": 6824,
  "Ġentrance": 6825,
  "ĠTry": 6826,
  "Ġraindr": 6827,
  "Ġmeals": 6828,
  "ĠListen": 6829,
  "Ġparticular": 6830,
  "Ġcompletely": 6831,
  "Ġmailed": 6832,
  "ctions": 6833,
  "Ġnests": 6834,
  "Ġwaiter": 6835,
  "Ġcuddly": 6836,
  "Ġsense": 6837,
  "ĠNana": 6838,
  "Ġcolored": 6839,
  "arky": 6840,
  "Ġleap": 6841,
  "step": 6842,
  "band": 6843,
  "Ġplenty": 6844,
  "Ġpeeking": 6845,
  "Ġslammed": 6846,
  "ĠCara": 6847,
  "no": 6848,
  "Ġplayers": 6849,
  "Ġmonth": 6850,
  "Ġbudge": 6851,
  "ĠBirthday": 6852,
  "ĠQ": 6853,
  "Ġscra": 6854,
  "Ġforgets": 6855,
  "Ġden": 6856,
  "Ġhandful": 6857,
  "ĠOliver": 6858,
  "Ġmer": 6859,
  "ossible": 6860,
  "Ġgenie": 6861,
  "ĠChrist": 6862,
  "Ġstool": 6863,
  "iggie": 6864,
  "Ġtalks": 6865,
  "ĠPup": 6866,
  "ĠSuzie": 6867,
  "Ġpassports": 6868,
  "Ġfeeding": 6869,
  "Ġfilms": 6870,
  "Ġbaths": 6871,
  "Ġimpossible": 6872,
  "Ġdetermination": 6873,
  "May": 6874,
  "Ġprinting": 6875,
  "boat": 6876,
  "Ġdesigned": 6877,
  "Ġbuses": 6878,
  "Ġopp": 6879,
  "ueen": 6880,
  "lephant": 6881,
  "Ġsuitcase": 6882,
  "Ġbars": 6883,
  "Ġcounts": 6884,
  "Ġstolen": 6885,
  "Ġspreading": 6886,
  "Ġspikes": 6887,
  "ĠSnap": 6888,
  "Ġwiping": 6889,
  "Ġsteer": 6890,
  "Ġlamb": 6891,
  "ĠRain": 6892,
  "Ġhonked": 6893,
  "etty": 6894,
  "nies": 6895,
  "Whee": 6896,
  "Ġcowb": 6897,
  "Ġseparated": 6898,
  "blings": 6899,
  "Ġsiblings": 6900,
  "Ġhops": 6901,
  "Ġchop": 6902,
  "Ġsewing": 6903,
  "Ġfires": 6904,
  "ĠTwinkle": 6905,
  "Ġfever": 6906,
  "Ġtwinkle": 6907,
  "Ġty": 6908,
  "Ġcamping": 6909,
  "ĠMira": 6910,
  "Ġlower": 6911,
  "Ġchanging": 6912,
  "yes": 6913,
  "retch": 6914,
  "Ġbehavi": 6915,
  "ĠBloom": 6916,
  "mas": 6917,
  "Ġliqu": 6918,
  "Ġcelebration": 6919,
  "but": 6920,
  "Ġsquealed": 6921,
  "Ġdollhouse": 6922,
  "Sunny": 6923,
  "Ġbackward": 6924,
  "Ġage": 6925,
  "Ġsnatched": 6926,
  "Ġcash": 6927,
  "ho": 6928,
  "Ġtwice": 6929,
  "lee": 6930,
  "Ġsway": 6931,
  "itched": 6932,
  "Ġcelebrating": 6933,
  "ĠPeanut": 6934,
  "Ġshrinking": 6935,
  "Ġache": 6936,
  "weed": 6937,
  "Ġkings": 6938,
  "rious": 6939,
  "Ġshops": 6940,
  "Ġkittens": 6941,
  "cope": 6942,
  "Rose": 6943,
  "ĠJessica": 6944,
  "ĠJacob": 6945,
  "ĠGina": 6946,
  "aura": 6947,
  "Ġhus": 6948,
  "Ġtouches": 6949,
  "airy": 6950,
  "Ġpancakes": 6951,
  "Ġavoid": 6952,
  "Ġspat": 6953,
  "ĠFrosty": 6954,
  "rig": 6955,
  "hog": 6956,
  "ĠNina": 6957,
  "Ġpaths": 6958,
  "ives": 6959,
  "cky": 6960,
  "ĠHold": 6961,
  "Ġrotten": 6962,
  "Ġcalmed": 6963,
  "Sandy": 6964,
  "Ġseaweed": 6965,
  "Ġdropping": 6966,
  "ĠJon": 6967,
  "ĠMel": 6968,
  "iles": 6969,
  "Pipp": 6970,
  "Ġtwisting": 6971,
  "Ġstroked": 6972,
  "Ġuntied": 6973,
  "llen": 6974,
  "Ġplayhouse": 6975,
  "ne": 6976,
  "Millie": 6977,
  "Ġstudents": 6978,
  "Ġpuppies": 6979,
  "cl": 6980,
  "ĠSof": 6981,
  "hi": 6982,
  "Ġscrews": 6983,
  "Ġastron": 6984,
  "ĠRe": 6985,
  "Ġsomebody": 6986,
  "igning": 6987,
  "Ġliquid": 6988,
  "ammy": 6989,
  "Ġwakes": 6990,
  "Ġsquish": 6991,
  "ĠWoof": 6992,
  "Ġbracelets": 6993,
  "Ġastronaut": 6994,
  "immer": 6995,
  "aren": 6996,
  "Ġthrown": 6997,
  "Ġloops": 6998,
  "ĠOther": 6999,
  "Luckily": 7000,
  "Ġwrapping": 7001,
  "Ġplain": 7002,
  "Ġtramp": 7003,
  "Ġplanning": 7004,
  "Ġskunk": 7005,
  "Ġaimed": 7006,
  "Ġpennies": 7007,
  "Ġshoo": 7008,
  "Ġlifts": 7009,
  "Ġdancers": 7010,
  "Ġsparks": 7011,
  "Ġfirefly": 7012,
  "pen": 7013,
  "Dan": 7014,
  "Ġposter": 7015,
  "yan": 7016,
  "endy": 7017,
  "Ġcust": 7018,
  "ĠChristmas": 7019,
  "Ġrewarded": 7020,
  "Ġobjects": 7021,
  "Ġdirections": 7022,
  "using": 7023,
  "ingo": 7024,
  "Ġreflection": 7025,
  "Ġhusband": 7026,
  "âĢĶ": 7027,
  "Take": 7028,
  "river": 7029,
  "Ġclues": 7030,
  "uppy": 7031,
  "Ġleads": 7032,
  "Ġincreased": 7033,
  "Ġblocked": 7034,
  "Ġrising": 7035,
  "Ġdod": 7036,
  "Ġcousin": 7037,
  "ĠYesterday": 7038,
  "ĠWithout": 7039,
  "Ġforgetting": 7040,
  "rigued": 7041,
  "Ġcustom": 7042,
  "Kate": 7043,
  "ude": 7044,
  "Ġtrampoline": 7045,
  "Ġbeginning": 7046,
  "Ġstorekeeper": 7047,
  "Ġpouted": 7048,
  "Ġzebras": 7049,
  "Ġhedgehog": 7050,
  "Ġaff": 7051,
  "ĠâĢĺ": 7052,
  "Ġborrowed": 7053,
  "ĠRollie": 7054,
  "Ġsnowfl": 7055,
  "Ġcountryside": 7056,
  "Jump": 7057,
  "Ġmesmer": 7058,
  "ĠJay": 7059,
  "Ġvehicles": 7060,
  "Ġinstrum": 7061,
  "ĠMic": 7062,
  "ĠKayla": 7063,
  "ĠUp": 7064,
  "Ġfrowning": 7065,
  "ivity": 7066,
  "Pat": 7067,
  "Under": 7068,
  "Ġmarker": 7069,
  "yond": 7070,
  "Ġpresses": 7071,
  "Ġbeyond": 7072,
  "ĠQueen": 7073,
  "Ġdamage": 7074,
  "ĠOnly": 7075,
  "iece": 7076,
  "ivery": 7077,
  "Ġfart": 7078,
  "ĠTara": 7079,
  "ĠBiggie": 7080,
  "jo": 7081,
  "Ġhealth": 7082,
  "Ġwhispers": 7083,
  "Ġswimsuit": 7084,
  "Ġslips": 7085,
  "Ġnibb": 7086,
  "ĠJulia": 7087,
  "armer": 7088,
  "Ġwarmer": 7089,
  "Ġflapping": 7090,
  "Ġtiptoed": 7091,
  "Ġregretted": 7092,
  "itted": 7093,
  "Zip": 7094,
  "Ġlaying": 7095,
  "ĠRobo": 7096,
  "ades": 7097,
  "Ġyelp": 7098,
  "ĠFire": 7099,
  "Ġrains": 7100,
  "Ġglued": 7101,
  "Ġeverybody": 7102,
  "Ġcreations": 7103,
  "Ġhearing": 7104,
  "Ġswir": 7105,
  "Ġcolder": 7106,
  "iversity": 7107,
  "ael": 7108,
  "Ġshaped": 7109,
  "ĠElephant": 7110,
  "Ġstreets": 7111,
  "Ġfins": 7112,
  "Ġrusty": 7113,
  "Ġcushions": 7114,
  "Out": 7115,
  "Ġsan": 7116,
  "Ġfarthest": 7117,
  "Ġcreativity": 7118,
  "ĠMikey": 7119,
  "ans": 7120,
  "Ġsale": 7121,
  "Always": 7122,
  "Co": 7123,
  "Ġstrongest": 7124,
  "ibbit": 7125,
  "Ġfits": 7126,
  "ĠSparky": 7127,
  "Ġbells": 7128,
  "Ġdollars": 7129,
  "ĠLarry": 7130,
  "Ġearn": 7131,
  "iam": 7132,
  "angle": 7133,
  "Ġlending": 7134,
  "ĠMoon": 7135,
  "ĠChirp": 7136,
  "eese": 7137,
  "Ġcashier": 7138,
  "Milly": 7139,
  "Ġincluding": 7140,
  "Ġsniffs": 7141,
  "Ġsank": 7142,
  "Ġraincoat": 7143,
  "ĠRich": 7144,
  "Ġtrembled": 7145,
  "Ġstopping": 7146,
  "Ġsource": 7147,
  "iti": 7148,
  "imon": 7149,
  "ĠMissy": 7150,
  "Ġwobbly": 7151,
  "Ġindeed": 7152,
  "ters": 7153,
  "Ġguests": 7154,
  "Ġsingle": 7155,
  "Ġrecommended": 7156,
  "Ġwee": 7157,
  "Ġspells": 7158,
  "Ġaccomplishment": 7159,
  "Ġbelts": 7160,
  "Ġsurprising": 7161,
  "Ġends": 7162,
  "Ġhopeful": 7163,
  "Ġseasons": 7164,
  "ĠTake": 7165,
  "ĠSnowman": 7166,
  "ĠEls": 7167,
  "Bear": 7168,
  "Ġplans": 7169,
  "ichael": 7170,
  "Ġencourag": 7171,
  "Ġsupported": 7172,
  "stick": 7173,
  "illed": 7174,
  "Ġsuffered": 7175,
  "Ġartist": 7176,
  "Ġperformance": 7177,
  "eet": 7178,
  "Nina": 7179,
  "Ġslowed": 7180,
  "Ġgross": 7181,
  "Ġflavors": 7182,
  "iding": 7183,
  "ertain": 7184,
  "Ġspins": 7185,
  "cho": 7186,
  "Quack": 7187,
  "Ġlabels": 7188,
  "Ġraindrops": 7189,
  "Ġdelivery": 7190,
  "uing": 7191,
  "arac": 7192,
  "Ġraccoon": 7193,
  "Ġforgiving": 7194,
  "obody": 7195,
  "ĠWoo": 7196,
  "Ġpours": 7197,
  "the": 7198,
  "ility": 7199,
  "Ġvanilla": 7200,
  "Ġturtles": 7201,
  "Ġstands": 7202,
  "Bill": 7203,
  "uess": 7204,
  "Ġrecipe": 7205,
  "Ġbeam": 7206,
  "Ġtying": 7207,
  "ĠSw": 7208,
  "Ġgeese": 7209,
  "Ġwilling": 7210,
  "Ġrobber": 7211,
  "Ġdrawn": 7212,
  "Vroom": 7213,
  "Ġwept": 7214,
  "ĠBones": 7215,
  "Ġcharac": 7216,
  "Ġpops": 7217,
  "Ġcorners": 7218,
  "ĠSophia": 7219,
  "elia": 7220,
  "Ġqueens": 7221,
  "Ġsailboat": 7222,
  "Ġgrip": 7223,
  "Ġdie": 7224,
  "Ġdrivers": 7225,
  "itude": 7226,
  "Ġmoo": 7227,
  "Ġhallway": 7228,
  "Ġimagining": 7229,
  "Ġseconds": 7230,
  "ĠFuzzy": 7231,
  "Mine": 7232,
  "Ġpreparing": 7233,
  "Ġwidened": 7234,
  "Ġadult": 7235,
  "ĠSpirit": 7236,
  "Ġgrocer": 7237,
  "Ġcoop": 7238,
  "Ġtalented": 7239,
  "ĠPam": 7240,
  "ĠBeaky": 7241,
  "ĠIzzy": 7242,
  "ummies": 7243,
  "Ġsailors": 7244,
  "lling": 7245,
  "Ġsofter": 7246,
  "Ġaside": 7247,
  "Ġwatering": 7248,
  "Ġsending": 7249,
  "Ġknots": 7250,
  "Ġunsure": 7251,
  "Ġtipped": 7252,
  "Lulu": 7253,
  "Ġtreehouse": 7254,
  "Ġhoriz": 7255,
  "ĠLizzie": 7256,
  "Ġnotes": 7257,
  "Ġecho": 7258,
  "igers": 7259,
  "Ġachieved": 7260,
  "Ġhorizon": 7261,
  "Ġsqueak": 7262,
  "Ġdelivering": 7263,
  "Ġpleasure": 7264,
  "Ġhotter": 7265,
  "ĠStella": 7266,
  "Clara": 7267,
  "Ġpupils": 7268,
  "Ġburrow": 7269,
  "Ġangels": 7270,
  "Ġcuriously": 7271,
  "Ellie": 7272,
  "Ġyum": 7273,
  "Ġblinking": 7274,
  "ĠJune": 7275,
  "Ġtweet": 7276,
  "Ġsymbols": 7277,
  "Ġdet": 7278,
  "ĠStretch": 7279,
  "wk": 7280,
  "Ġpassen": 7281,
  "ĠRudy": 7282,
  "ĠCindy": 7283,
  "Ġtummies": 7284,
  "Ġtiss": 7285,
  "Ġpigeons": 7286,
  "Ġfigures": 7287,
  "umbling": 7288,
  "oey": 7289,
  "Ġbandages": 7290,
  "ĠRobert": 7291,
  "Ġcoup": 7292,
  "ĠDoctor": 7293,
  "Ġrobots": 7294,
  "alph": 7295,
  "Ġtossed": 7296,
  "Ġhour": 7297,
  "Ġbackwards": 7298,
  "Ġroars": 7299,
  "Baby": 7300,
  "Ġmerma": 7301,
  "uzz": 7302,
  "Ġrather": 7303,
  "atur": 7304,
  "Maria": 7305,
  "cited": 7306,
  "ĠPlay": 7307,
  "ĠCrab": 7308,
  "Moo": 7309,
  "ighting": 7310,
  "Dolly": 7311,
  "Ġgroceries": 7312,
  "Ġzipping": 7313,
  "Put": 7314,
  "Very": 7315,
  "Ġunw": 7316,
  "prin": 7317,
  "Ġamong": 7318,
  "Ġblown": 7319,
  "Ġicing": 7320,
  "!âĢĿ.": 7321,
  "Ġrumble": 7322,
  "Ġafterwards": 7323,
  "ipper": 7324,
  "Ġscrewd": 7325,
  "ushing": 7326,
  "Ġsped": 7327,
  "Ġprove": 7328,
  "Ġglee": 7329,
  "ĠTiti": 7330,
  "ĠTia": 7331,
  "Ġdip": 7332,
  "Ġovercome": 7333,
  "Ruby": 7334,
  "Quick": 7335,
  "Ġsurfboard": 7336,
  "Ġshovels": 7337,
  "Ġslices": 7338,
  "ĠToot": 7339,
  "Ġmerry": 7340,
  "Ġwobble": 7341,
  "Ġmate": 7342,
  "ĠTurt": 7343,
  "ĠAbbie": 7344,
  "Ġheading": 7345,
  "Ġdisturbing": 7346,
  "Ġswall": 7347,
  "Ġreversed": 7348,
  "Ġfirefighters": 7349,
  "Jul": 7350,
  "Ġswallowed": 7351,
  "Ġchip": 7352,
  "eds": 7353,
  "Ġscored": 7354,
  "Ġflipped": 7355,
  "ĠJump": 7356,
  "Ġsqueezing": 7357,
  "usty": 7358,
  "Frank": 7359,
  "aty": 7360,
  "Su": 7361,
  "Ġwaking": 7362,
  "Ġintrigued": 7363,
  "Sad": 7364,
  "Like": 7365,
  "Ġmaker": 7366,
  "ĠBarky": 7367,
  "awn": 7368,
  "Betty": 7369,
  "Ġpuff": 7370,
  "Ġhawk": 7371,
  "Ġencouraging": 7372,
  "Ġaud": 7373,
  "ĠEx": 7374,
  "osen": 7375,
  "onies": 7376,
  "Ġchosen": 7377,
  "ĠRon": 7378,
  "hew": 7379,
  "ĠFarmer": 7380,
  "ĠAng": 7381,
  "Ġcouple": 7382,
  "Ġdesigns": 7383,
  "Ġslipping": 7384,
  "Ġscrewdriver": 7385,
  "Ġsquishy": 7386,
  "ĠEmmy": 7387,
  "Ġgardener": 7388,
  "Ġcenter": 7389,
  "Ġrivers": 7390,
  "Ġrespond": 7391,
  "Ġmarkers": 7392,
  "iley": 7393,
  "Ġtigers": 7394,
  "Ġjars": 7395,
  "pecting": 7396,
  "Ġfrowns": 7397,
  "bird": 7398,
  "Ġfluttered": 7399,
  "ĠSadly": 7400,
  "ĠKit": 7401,
  "Ribbit": 7402,
  "Ġfirefighter": 7403,
  "ĠSl": 7404,
  "ĠRyan": 7405,
  "Ġsuits": 7406,
  "Ġsecure": 7407,
  "Ġsprinkled": 7408,
  "Ġcreamy": 7409,
  "ashes": 7410,
  "Ġsharks": 7411,
  "Ġignoring": 7412,
  "Ġbru": 7413,
  "Ġgiggles": 7414,
  "Ġtissue": 7415,
  "Ġtighter": 7416,
  "Ġfirmly": 7417,
  "ounce": 7418,
  "ĠLaura": 7419,
  "fly": 7420,
  "Ġshown": 7421,
  "Ġfamiliar": 7422,
  "Ġthorns": 7423,
  "Spike": 7424,
  "ĠWo": 7425,
  "Ġdrawers": 7426,
  "child": 7427,
  "ĠZee": 7428,
  "Ġexpress": 7429,
  "Car": 7430,
  "ments": 7431,
  "Ġdef": 7432,
  "Ġdaring": 7433,
  "Ġcrossing": 7434,
  "Ġaudience": 7435,
  "Ġperforming": 7436,
  "Ġcoloured": 7437,
  "Ġcloudy": 7438,
  "Ġcor": 7439,
  "Ġais": 7440,
  "ĠNick": 7441,
  "ae": 7442,
  "rat": 7443,
  "Ġpedaled": 7444,
  "Get": 7445,
  "Ġmixture": 7446,
  "Ġtil": 7447,
  "Ġgracefully": 7448,
  "ggy": 7449,
  "Ġhaircuts": 7450,
  "Ġyielded": 7451,
  "Ġponies": 7452,
  "Ġdisob": 7453,
  "Ġcrowns": 7454,
  "Ġbits": 7455,
  "Ġtodd": 7456,
  "ĠSleep": 7457,
  "Ġnervously": 7458,
  "Ġhangers": 7459,
  "bbled": 7460,
  "ĠPatch": 7461,
  "Zoomy": 7462,
  "Ġpays": 7463,
  "Ġ2": 7464,
  "Ġpeck": 7465,
  "Ġstroke": 7466,
  "Ġev": 7467,
  "fall": 7468,
  "Bang": 7469,
  "een": 7470,
  "Ġrespected": 7471,
  "Ġnapped": 7472,
  "aven": 7473,
  "Ġminded": 7474,
  "ddie": 7475,
  "Bessie": 7476,
  "ably": 7477,
  "Boys": 7478,
  "Ġtested": 7479,
  "ading": 7480,
  "parent": 7481,
  "ĠChris": 7482,
  "Kim": 7483,
  "ĠUniversity": 7484,
  "ĠNear": 7485,
  "Ġbeeh": 7486,
  "ĠTurtle": 7487,
  "Ġsurfing": 7488,
  "Ġneighbours": 7489,
  "arrow": 7490,
  "vered": 7491,
  "Ġshady": 7492,
  "iona": 7493,
  "arlings": 7494,
  "Ġmagician": 7495,
  "Ġenthusiasm": 7496,
  "Ġdarlings": 7497,
  "Ġwisely": 7498,
  "Ġstitches": 7499,
  "Ġsails": 7500,
  "kend": 7501,
  "Dear": 7502,
  "Ġweekend": 7503,
  "Ġthoughts": 7504,
  "Freddy": 7505,
  "ĠTweetie": 7506,
  "Ġreminds": 7507,
  "Ġtemper": 7508,
  "oring": 7509,
  "tha": 7510,
  "antha": 7511,
  "Ġsurroundings": 7512,
  "Ġspits": 7513,
  "Ġfleas": 7514,
  "Ġteams": 7515,
  "Ġlessons": 7516,
  "Ġfills": 7517,
  "Ġflip": 7518,
  "ĠAlong": 7519,
  "Ġpaintbrush": 7520,
  "Ġmelons": 7521,
  "Ġmermaid": 7522,
  "oni": 7523,
  "Katie": 7524,
  "Ġgrandchild": 7525,
  "Ġhoops": 7526,
  "Ġexplo": 7527,
  "Ġelbow": 7528,
  "Ġsports": 7529,
  "Guess": 7530,
  "Ġlies": 7531,
  "ĠFighting": 7532,
  "rac": 7533,
  "Ġpanicked": 7534,
  "Ġcleaner": 7535,
  "Ġamount": 7536,
  "cused": 7537,
  "Ġlongest": 7538,
  "Ġscooters": 7539,
  "Ġlent": 7540,
  "ita": 7541,
  "immering": 7542,
  "Ġsill": 7543,
  "Ġbeloved": 7544,
  "Pippin": 7545,
  "Ġbeehive": 7546,
  "Alright": 7547,
  "ongrat": 7548,
  "oga": 7549,
  "lle": 7550,
  "ongratul": 7551,
  "Ġoysters": 7552,
  "Ġgrandparent": 7553,
  "Ġforgiven": 7554,
  "Ġmagazines": 7555,
  "Ġarr": 7556,
  "ĠWise": 7557,
  "Ġelf": 7558,
  "Ġrepeating": 7559,
  "Ġdiscussed": 7560,
  "Ġsweetest": 7561,
  "ĠThanks": 7562,
  "Keep": 7563,
  "Ġwadd": 7564,
  "ĠMaya": 7565,
  "Ġreass": 7566,
  "Ġlace": 7567,
  "ĠGranny": 7568,
  "Ġnightmares": 7569,
  "Ġtubes": 7570,
  "ĠWilly": 7571,
  "Ġunderstands": 7572,
  "Ġspoonful": 7573,
  "Ġnood": 7574,
  "Ġbathing": 7575,
  "ĠZoey": 7576,
  "asty": 7577,
  "Am": 7578,
  "Ġsweep": 7579,
  "Ġmanners": 7580,
  "crow": 7581,
  "Uncle": 7582,
  "Ġwrink": 7583,
  "Ġsprang": 7584,
  "Ġnur": 7585,
  "Ġbully": 7586,
  "ĠHolly": 7587,
  "Ġguide": 7588,
  "ĠYet": 7589,
  "onna": 7590,
  "ancy": 7591,
  "Ġcrew": 7592,
  "romise": 7593,
  "Jazz": 7594,
  "Ġbreathed": 7595,
  "while": 7596,
  "steps": 7597,
  "ilda": 7598,
  "ently": 7599,
  "ĠBally": 7600,
  "Ġbulbs": 7601,
  "Ġneare": 7602,
  "Ġgrassy": 7603,
  "Ġwiggly": 7604,
  "Ġtesting": 7605,
  "Ġspies": 7606,
  "Ġcoug": 7607,
  "Ġsolving": 7608,
  "Ġsheets": 7609,
  "ĠRoo": 7610,
  "Ġfootsteps": 7611,
  "ntil": 7612,
  "Afterwards": 7613,
  "Ġspeeding": 7614,
  "Ġfocused": 7615,
  "ounced": 7616,
  "cept": 7617,
  "?!\"": 7618,
  "Ġmesmerized": 7619,
  "Ġcamel": 7620,
  "Ġbraver": 7621,
  "Ġhesitant": 7622,
  "ĠSparkle": 7623,
  "Ġlicking": 7624,
  "Ġrushing": 7625,
  "ĠWell": 7626,
  "Ġjoining": 7627,
  "ĠPuppy": 7628,
  "Ġpolar": 7629,
  "Ġgreeted": 7630,
  "ĠMartha": 7631,
  "espite": 7632,
  "--": 7633,
  "ĠBubb": 7634,
  "Which": 7635,
  "Kiki": 7636,
  "Ġworn": 7637,
  "Ġmaterials": 7638,
  "Ġchanges": 7639,
  "ĠNobody": 7640,
  "undred": 7641,
  "Ġstored": 7642,
  "Ġbicycles": 7643,
  "Ġmast": 7644,
  "Ġanger": 7645,
  "Leave": 7646,
  "Ġpeacefully": 7647,
  "Ġships": 7648,
  "Ġspice": 7649,
  "Ġterrified": 7650,
  "Ġnuzz": 7651,
  "Ġgonna": 7652,
  "ĠShow": 7653,
  "Ġpolitely": 7654,
  "Snow": 7655,
  "Ġspills": 7656,
  "Ġscarecrow": 7657,
  "Ġknives": 7658,
  "Ġevil": 7659,
  "ĠMixy": 7660,
  "ppies": 7661,
  "Ġburying": 7662,
  "ca": 7663,
  "Ġhealing": 7664,
  "Ġaren": 7665,
  "Ġdonkey": 7666,
  "Ġaeroplanes": 7667,
  "freeze": 7668,
  "Even": 7669,
  "Ġseals": 7670,
  "Ġscattering": 7671,
  "Ġmiles": 7672,
  "ĠChewy": 7673,
  "amboo": 7674,
  "Ġdump": 7675,
  "Ġworrying": 7676,
  "Bee": 7677,
  "zoom": 7678,
  "beep": 7679,
  "David": 7680,
  "ĠLenny": 7681,
  "Ġpuzzled": 7682,
  "Ġstacked": 7683,
  "ĠKip": 7684,
  "Penny": 7685,
  "ĠNice": 7686,
  "Ġloses": 7687,
  "dding": 7688,
  "Ġtravelled": 7689,
  "Ġbaskets": 7690,
  "ĠWin": 7691,
  "ĠOkay": 7692,
  "Ġgazing": 7693,
  "Ġblast": 7694,
  "ipes": 7695,
  "ĠTess": 7696,
  "Hurry": 7697,
  "Ġtemperature": 7698,
  "Ġund": 7699,
  "Ġtasting": 7700,
  "Ġdripping": 7701,
  "Ġclue": 7702,
  "Ġbelieving": 7703,
  "Ġpinching": 7704,
  "erm": 7705,
  "Ġsoaking": 7706,
  "Ġrats": 7707,
  "Ġ10": 7708,
  "isc": 7709,
  "Ġsandy": 7710,
  "rect": 7711,
  "ĠIsn": 7712,
  "ĠSimon": 7713,
  "rey": 7714,
  "anwhile": 7715,
  "ĠAbi": 7716,
  "Binky": 7717,
  "Ġpunishment": 7718,
  "Ġbanged": 7719,
  "Ġhumans": 7720,
  "Ġcrashing": 7721,
  "Ġforce": 7722,
  "ĠAna": 7723,
  "Ġhundred": 7724,
  "Ġgest": 7725,
  "ĠLia": 7726,
  "Ġswimmer": 7727,
  "ĠChess": 7728,
  "Ġsnowflakes": 7729,
  "Ġrelaxing": 7730,
  "Ġresisted": 7731,
  "Ġbeeped": 7732,
  "ĠFairy": 7733,
  "Ġquarreled": 7734,
  "form": 7735,
  "elie": 7736,
  "Ġramp": 7737,
  "ĠWendy": 7738,
  "Ġjoins": 7739,
  "abby": 7740,
  "Ġbackpacks": 7741,
  "ĠPh": 7742,
  "years": 7743,
  "Ġdressing": 7744,
  "Ġdelayed": 7745,
  "Ġtoddler": 7746,
  "ĠLuckily": 7747,
  "Ġflight": 7748,
  "Ġcovering": 7749,
  "ĠTe": 7750,
  "orter": 7751,
  "Two": 7752,
  "Open": 7753,
  "By": 7754,
  "Ġencouragement": 7755,
  "Ġbenches": 7756,
  "Ġtoward": 7757,
  "Ġscraped": 7758,
  "Ġpurpose": 7759,
  "Ġfocus": 7760,
  "ĠJudy": 7761,
  "Bow": 7762,
  "Ġcorrect": 7763,
  "'.\"": 7764,
  "Ġlipstick": 7765,
  "Ġbamboo": 7766,
  "Spe": 7767,
  "Ġtwinkled": 7768,
  "Ġpotion": 7769,
  "Ġpermitted": 7770,
  "Ġmonths": 7771,
  "ĠCow": 7772,
  "Ġlanguages": 7773,
  "Ġorders": 7774,
  "Ġfreedom": 7775,
  "Tony": 7776,
  "Ġrisks": 7777,
  "Ġpoppies": 7778,
  "Ġmaster": 7779,
  "shm": 7780,
  "Ġnoodles": 7781,
  "Ġfaded": 7782,
  "Ġwounds": 7783,
  "shmallow": 7784,
  "rier": 7785,
  "Kids": 7786,
  "isions": 7787,
  "ĠJojo": 7788,
  "Ġcreams": 7789,
  "Ġbirdhouse": 7790,
  "Ġcells": 7791,
  "Ġannoyed": 7792,
  "ĠHerb": 7793,
  "opes": 7794,
  "Ġsniffing": 7795,
  "Ġcheers": 7796,
  "Ġadults": 7797,
  "Birdy": 7798,
  "Ġunwra": 7799,
  "ecca": 7800,
  "Buzzy": 7801,
  "Ġpuck": 7802,
  "Ġopinions": 7803,
  "Ġfloats": 7804,
  "andas": 7805,
  "Instead": 7806,
  "Ġflown": 7807,
  "Ġsneezes": 7808,
  "Ġscen": 7809,
  "Ġhandsome": 7810,
  "Ġnodding": 7811,
  "ĠMint": 7812,
  "Ġsmelling": 7813,
  "Ġburnt": 7814,
  "Ġ5": 7815,
  "Ġdrifted": 7816,
  "ider": 7817,
  "bage": 7818,
  "Ġwithin": 7819,
  "Ġscient": 7820,
  "Ġheight": 7821,
  "Ġdamaged": 7822,
  "Ġbothering": 7823,
  "Ġtearing": 7824,
  "Ġslither": 7825,
  "Ġpleaded": 7826,
  "Ġinstruments": 7827,
  "Ġease": 7828,
  "ĠAli": 7829,
  "da": 7830,
  "Back": 7831,
  "Ġscientist": 7832,
  "ĠMarie": 7833,
  "Mira": 7834,
  "Goodnight": 7835,
  "Ġpound": 7836,
  "Ġseller": 7837,
  "Ġhanding": 7838,
  "Ġgerm": 7839,
  "ĠSay": 7840,
  "Ġwasting": 7841,
  "Ġfiles": 7842,
  "Ġresults": 7843,
  "Ġdreamt": 7844,
  "ĠMabel": 7845,
  "bell": 7846,
  "Ġexplains": 7847,
  "Ġdestroying": 7848,
  "Ġbrushing": 7849,
  "ousy": 7850,
  "Ġhiss": 7851,
  "Ġcharacters": 7852,
  "ĠRazor": 7853,
  "ĠCr": 7854,
  "Carl": 7855,
  "Ġcertain": 7856,
  "ĠSte": 7857,
  "Pandy": 7858,
  "Behind": 7859,
  "Ġsweaty": 7860,
  "ĠHug": 7861,
  "unched": 7862,
  "Ġbusiness": 7863,
  "ĠRobbie": 7864,
  "Ġtalents": 7865,
  "Ġonward": 7866,
  "Try": 7867,
  "Ġengines": 7868,
  "Ġbravest": 7869,
  "ition": 7870,
  "Ġsternly": 7871,
  "ĠPen": 7872,
  "ĠJanie": 7873,
  "prints": 7874,
  "Ġpostman": 7875,
  "Ġmosquitoes": 7876,
  "Ġminds": 7877,
  "under": 7878,
  "cake": 7879,
  "Ġtuck": 7880,
  "Ġscares": 7881,
  "urious": 7882,
  "Ġstomp": 7883,
  "Ġapologised": 7884,
  "uel": 7885,
  "Ġmanag": 7886,
  "Ġsnuck": 7887,
  "Ġbitten": 7888,
  "attered": 7889,
  "Ġtilted": 7890,
  "Ġswitched": 7891,
  "Ġreminding": 7892,
  "Ġdecisions": 7893,
  "Ġsingers": 7894,
  "Ġdesper": 7895,
  "Ġbehavior": 7896,
  "ĠPoor": 7897,
  "ashing": 7898,
  "ĠJudge": 7899,
  "bbers": 7900,
  "inny": 7901,
  "Ġsqueaked": 7902,
  "Ġpeeled": 7903,
  "ĠEverybody": 7904,
  "Ġyumm": 7905,
  "Ġpurrs": 7906,
  "ĠBra": 7907,
  "Ġtreated": 7908,
  "Ġsmashed": 7909,
  "Ġrustling": 7910,
  "Ġdisplayed": 7911,
  "ĠUntil": 7912,
  "Ġneatly": 7913,
  "Ġmatey": 7914,
  "Ġplanting": 7915,
  "ĠBess": 7916,
  "Ġmarshmallow": 7917,
  "Ġinsp": 7918,
  "Ġyelped": 7919,
  "Ġsy": 7920,
  "Ġgrandparents": 7921,
  "Ġcracks": 7922,
  "Ġbellies": 7923,
  "aver": 7924,
  "Ġshines": 7925,
  "Ġscamp": 7926,
  "ĠNavy": 7927,
  "Ġhoo": 7928,
  "Ġfailed": 7929,
  "Ġcoloring": 7930,
  "ĠYoga": 7931,
  "line": 7932,
  "Ġzooms": 7933,
  "ĠMake": 7934,
  "rup": 7935,
  "Ġnasty": 7936,
  "Ġbreathing": 7937,
  "Ġcombed": 7938,
  "Ġpandas": 7939,
  "Ġdespite": 7940,
  "Ġaddress": 7941,
  "ighing": 7942,
  "Ġwaterfall": 7943,
  "uffin": 7944,
  "omp": 7945,
  "cc": 7946,
  "ĠLoop": 7947,
  "ĠAngel": 7948,
  "Tilly": 7949,
  "Ġwider": 7950,
  "Ġrobbers": 7951,
  "Ġantic": 7952,
  "Play": 7953,
  "Abigail": 7954,
  "Ġsweaters": 7955,
  "Ġechoed": 7956,
  "Ġdoorway": 7957,
  "ĠTodd": 7958,
  "evin": 7959,
  "Ġedges": 7960,
  "Ġinj": 7961,
  "ĠShadow": 7962,
  "Aunt": 7963,
  "Ġgap": 7964,
  "Ġdisobey": 7965,
  "ĠBlinky": 7966,
  "wise": 7967,
  "Liz": 7968,
  "ĠMichael": 7969,
  "Ġtar": 7970,
  "ĠFlick": 7971,
  "oscope": 7972,
  "orking": 7973,
  "Wake": 7974,
  "Ġtaped": 7975,
  "Ġmagnif": 7976,
  "ulp": 7977,
  "father": 7978,
  "Ġscolds": 7979,
  "Ġflaps": 7980,
  "Ġaction": 7981,
  "Ġcrawls": 7982,
  "ĠMindy": 7983,
  "Ros": 7984,
  "Ġswap": 7985,
  "Ġgobbled": 7986,
  "Ġbacks": 7987,
  "ĠGary": 7988,
  "Ġwarri": 7989,
  "ĠFishy": 7990,
  "ĠEddie": 7991,
  "Slow": 7992,
  "Ġsteth": 7993,
  "Ġsever": 7994,
  "Ġshinier": 7995,
  "Ġprobably": 7996,
  "Ġnewspapers": 7997,
  "Ġseveral": 7998,
  "Ġocc": 7999,
  "Rock": 8000,
  "Lena": 8001,
  "Ġencount": 8002,
  "ĠMeg": 8003,
  "Ġserving": 8004,
  "Ġquieter": 8005,
  "Ġplucked": 8006,
  "Ġconnected": 8007,
  "tock": 8008,
  "ĠShare": 8009,
  "Ġouch": 8010,
  "igger": 8011,
  "Ted": 8012,
  "Adam": 8013,
  "Ġgesture": 8014,
  "Too": 8015,
  "Fl": 8016,
  "Ġstudent": 8017,
  "Ġplot": 8018,
  "Ġdoorbell": 8019,
  "Ġsquaw": 8020,
  "Ġcares": 8021,
  "fire": 8022,
  "Ġrescuing": 8023,
  "Ġgrandson": 8024,
  "ĠSe": 8025,
  "Ġspy": 8026,
  "Ġsimply": 8027,
  "Ġrows": 8028,
  "Ġgoo": 8029,
  "iel": 8030,
  "Ġwhistles": 8031,
  "mies": 8032,
  "vant": 8033,
  "Shrink": 8034,
  "Magic": 8035,
  "Ġsnaps": 8036,
  "Ġshorter": 8037,
  "Ġastronauts": 8038,
  "ssss": 8039,
  "Ġunpacking": 8040,
  "Ġcottage": 8041,
  "ĠTime": 8042,
  "Ġswo": 8043,
  "Ġaccidents": 8044,
  "ibi": 8045,
  "Ġswollen": 8046,
  "Ġmood": 8047,
  "ĠNut": 8048,
  "Steve": 8049,
  "abelle": 8050,
  "ĠZippy": 8051,
  "ĠMousy": 8052,
  "anie": 8053,
  "Zara": 8054,
  "Ġbothered": 8055,
  "Hannah": 8056,
  "Ġstethoscope": 8057,
  "found": 8058,
  "Ġtrusting": 8059,
  "Ġcausing": 8060,
  "Mat": 8061,
  "Mad": 8062,
  "Ġleapt": 8063,
  "Ġdresser": 8064,
  "aint": 8065,
  "Ġsou": 8066,
  "Ġproper": 8067,
  "Ġpills": 8068,
  "retty": 8069,
  "Ġthroughout": 8070,
  "Olive": 8071,
  "Ġrunner": 8072,
  "Ġprayers": 8073,
  "ĠDina": 8074,
  "Ġjoyful": 8075,
  "Thomas": 8076,
  "mates": 8077,
  "Ġlocks": 8078,
  "ĠPrince": 8079,
  "Jamie": 8080,
  "Ġgoats": 8081,
  "what": 8082,
  "Ġtarget": 8083,
  "rest": 8084,
  "ĠWait": 8085,
  "ĠKaren": 8086,
  "Ġdears": 8087,
  "ĠBang": 8088,
  "artled": 8089,
  "Red": 8090,
  "Ġwaddled": 8091,
  "Ġmunch": 8092,
  "Ġflips": 8093,
  "ĠCro": 8094,
  "Ġlowered": 8095,
  "Ġstepping": 8096,
  "Ġcons": 8097,
  "ĠJackie": 8098,
  "Ġteachers": 8099,
  "Ġcowboy": 8100,
  "ĠToys": 8101,
  "Ġinches": 8102,
  "Ġenvelopes": 8103,
  "ears": 8104,
  "Ġchar": 8105,
  "ĠVroom": 8106,
  "Ġexplorer": 8107,
  "Ġanticip": 8108,
  "Ġplayd": 8109,
  "ĠReady": 8110,
  "ĠRuff": 8111,
  "ĠRalph": 8112,
  "unity": 8113,
  "Nice": 8114,
  "Finn": 8115,
  "ĠBad": 8116,
  "ening": 8117,
  "Ġknocking": 8118,
  "Ġfloors": 8119,
  "Ġefforts": 8120,
  "ĠPl": 8121,
  "Ġuniforms": 8122,
  "lied": 8123,
  "ĠTri": 8124,
  "Ġaware": 8125,
  "Ġfootprints": 8126,
  "Someone": 8127,
  "Ġnearly": 8128,
  "ĠFiona": 8129,
  "llas": 8130,
  "Ġdisc": 8131,
  "ĠRia": 8132,
  "ivi": 8133,
  "Ġwhimp": 8134,
  "Ġtrot": 8135,
  "Ġsens": 8136,
  "Ġglitt": 8137,
  "Ġappreciation": 8138,
  "oosh": 8139,
  "Ġnecks": 8140,
  "Ġcollap": 8141,
  "Ġchecks": 8142,
  "Ġlapt": 8143,
  "Ġexcept": 8144,
  "Ġplug": 8145,
  "Ġcharge": 8146,
  "ĠJacky": 8147,
  "Ġfluttering": 8148,
  "Ġumbrellas": 8149,
  "Ġstamped": 8150,
  "acy": 8151,
  "Ġsandcastles": 8152,
  "ĠDavey": 8153,
  "Ġstatues": 8154,
  "ĠHoney": 8155,
  "omb": 8156,
  "iscuit": 8157,
  "ails": 8158,
  "Hoppy": 8159,
  "Ġshrank": 8160,
  "ĠAmelia": 8161,
  "rily": 8162,
  "Ġprick": 8163,
  "Ġfinishing": 8164,
  "Ġadds": 8165,
  "rons": 8166,
  "Ġstroll": 8167,
  "Ġhunters": 8168,
  "Ġdodged": 8169,
  "Ġchocolates": 8170,
  "Ġpassengers": 8171,
  "Ġgerms": 8172,
  "oger": 8173,
  "Ġwrigg": 8174,
  "Ġaprons": 8175,
  "Ġaisle": 8176,
  "Ġsets": 8177,
  ".'\"": 8178,
  "ĠGerry": 8179,
  "Ġweeds": 8180,
  "Ġnovels": 8181,
  "order": 8182,
  "Ġdemanding": 8183,
  "ĠTaking": 8184,
  "Ġscratching": 8185,
  "Ġmeows": 8186,
  "issa": 8187,
  "Dr": 8188,
  "Ġnurses": 8189,
  "Lucky": 8190,
  "Ġminding": 8191,
  "Ġdiscussing": 8192,
  "urrender": 8193,
  "Ġkilled": 8194,
  "Ġdriveway": 8195,
  "ĠCari": 8196,
  "Ġbecomes": 8197,
  "Ġtoolbox": 8198,
  "Ġlaptop": 8199,
  "Ġhaird": 8200,
  "ĠEliz": 8201,
  "Ġposit": 8202,
  "Ġattack": 8203,
  "ĠSadie": 8204,
  "ĠDespite": 8205,
  "Speedy": 8206,
  "ĠGl": 8207,
  "sol": 8208,
  "Ġscampered": 8209,
  "Ġbounces": 8210,
  "Ġsupplied": 8211,
  "Ġsprays": 8212,
  "Ġdeed": 8213,
  "Ġtempt": 8214,
  "Ġsuggestion": 8215,
  "Ġfriendships": 8216,
  "Ġburns": 8217,
  "Coco": 8218,
  "Ġslapping": 8219,
  "Ġclosing": 8220,
  "Arrr": 8221,
  "Ġinvites": 8222,
  "Ġbelongings": 8223,
  "Ġanticipation": 8224,
  "Ġspringing": 8225,
  "Ġform": 8226,
  "Ġerase": 8227,
  "Ġcotton": 8228,
  "ĠStan": 8229,
  "Ġtwists": 8230,
  "Ġrays": 8231,
  "Ġsnuggle": 8232,
  "Ġforgives": 8233,
  "Ġmodels": 8234,
  "Ġshall": 8235,
  "Ġmassages": 8236,
  "Ġhumming": 8237,
  "onnie": 8238,
  "Ġresponded": 8239,
  "Ġnewfound": 8240,
  "Ġghosts": 8241,
  "Ġexpecting": 8242,
  "ĠShelly": 8243,
  "Ġcheated": 8244,
  "Does": 8245,
  "ĠWooly": 8246,
  "Gigi": 8247,
  "otte": 8248,
  "Ġtraveling": 8249,
  "ĠNe": 8250,
  "Ġcond": 8251,
  "Ġbattle": 8252,
  "Ġalthough": 8253,
  "alloween": 8254,
  "Ġmommies": 8255,
  "Ġinvitations": 8256,
  "Ġcarries": 8257,
  "Ġaim": 8258,
  "Ġrefreshing": 8259,
  "Ġpresented": 8260,
  "Ġconc": 8261,
  "hel": 8262,
  "Ġtwenty": 8263,
  "Ġrowed": 8264,
  "ĠBumpy": 8265,
  "ots": 8266,
  "Ġsquir": 8267,
  "rie": 8268,
  "arlotte": 8269,
  "Ġfoxes": 8270,
  "Ġcooper": 8271,
  "Ġfinal": 8272,
  "Ġduckling": 8273,
  "Ġcafe": 8274,
  "ĠBibi": 8275,
  "Pip": 8276,
  "Ġmarshmallows": 8277,
  "Ġclicked": 8278,
  "ĠZipper": 8279,
  "oor": 8280,
  "Ġjets": 8281,
  "Ġdesigning": 8282,
  "Ġbeaver": 8283,
  "five": 8284,
  "ĠMuffin": 8285,
  "ĠHalloween": 8286,
  "Ġmugs": 8287,
  "ĠWhoever": 8288,
  "Ġdrown": 8289,
  "ĠAlthough": 8290,
  "Ġtricycle": 8291,
  "Ġpicnics": 8292,
  "Ġoppos": 8293,
  "Ġconvin": 8294,
  "ĠRuth": 8295,
  "ĠExcited": 8296,
  "iens": 8297,
  "ĠCle": 8298,
  "po": 8299,
  "Ġscoops": 8300,
  "Ġcongratul": 8301,
  "ĠPop": 8302,
  "ĠMaddie": 8303,
  "Sadly": 8304,
  "ĠâĢĶ": 8305,
  "Ġtravels": 8306,
  "Ġaliens": 8307,
  "Ġtests": 8308,
  "Ġquestioned": 8309,
  "ĠSpeed": 8310,
  "inted": 8311,
  "Ġstrips": 8312,
  "Ġcraft": 8313,
  "Near": 8314,
  "atty": 8315,
  "Mouse": 8316,
  "covered": 8317,
  "Ġdefe": 8318,
  "ĠFlutter": 8319,
  "ĠBubba": 8320,
  "iri": 8321,
  "Br": 8322,
  "Ġfights": 8323,
  "roken": 8324,
  "Ball": 8325,
  "Ġopposite": 8326,
  "ĠBiggy": 8327,
  "Hmm": 8328,
  "Find": 8329,
  "Elly": 8330,
  "Chloe": 8331,
  "ĠIm": 8332,
  "Ġrout": 8333,
  "Ġgrandfather": 8334,
  "Ġencountered": 8335,
  "Ġafford": 8336,
  "ĠNever": 8337,
  "Ġdecl": 8338,
  "inch": 8339,
  "Ġraising": 8340,
  "iment": 8341,
  "Ġupside": 8342,
  "ĠVivi": 8343,
  "Meanwhile": 8344,
  "Jess": 8345,
  "Ġflashed": 8346,
  "Ġcalmly": 8347,
  "ĠRita": 8348,
  "Ġyawning": 8349,
  "Ġsincere": 8350,
  "Ġrealizes": 8351,
  "aturday": 8352,
  "Trust": 8353,
  "Choo": 8354,
  "Ġcrystals": 8355,
  "Ġbuddy": 8356,
  "ĠSamantha": 8357,
  "Ġcupcakes": 8358,
  "Ġbuckled": 8359,
  "byes": 8360,
  "Both": 8361,
  "Ġwinners": 8362,
  "Ġdefin": 8363,
  "verse": 8364,
  "ris": 8365,
  "',": 8366,
  "Ġweapons": 8367,
  "Ġcaw": 8368,
  "shadow": 8369,
  "Josh": 8370,
  "Ġpackages": 8371,
  "Ġcheat": 8372,
  "ĠSaturday": 8373,
  "Ġsacks": 8374,
  "Ġmesses": 8375,
  "Ġgoodbyes": 8376,
  "Ġcoach": 8377,
  "Ġattem": 8378,
  "quet": 8379,
  "Ġconvers": 8380,
  "ĠTruck": 8381,
  "ĠFlo": 8382,
  "val": 8383,
  "Ġdrift": 8384,
  "Ġcaps": 8385,
  "ĠMina": 8386,
  "ĠEva": 8387,
  "emies": 8388,
  "Ġenemies": 8389,
  "asha": 8390,
  "Ġyummiest": 8391,
  "Ġscrub": 8392,
  "Ġswallow": 8393,
  "Ġreturning": 8394,
  "rian": 8395,
  "Ġadmiration": 8396,
  "ĠSofty": 8397,
  "ĠMegan": 8398,
  "Since": 8399,
  "Ġsprout": 8400,
  "ĠLouise": 8401,
  "Ġunable": 8402,
  "ĠPlaying": 8403,
  "ĠAnother": 8404,
  "ugging": 8405,
  "ooks": 8406,
  "Ġsadder": 8407,
  "Ġfreezing": 8408,
  "Ġbrightest": 8409,
  "Ġbless": 8410,
  "ĠYawn": 8411,
  "Ġrespon": 8412,
  "ĠMan": 8413,
  "reverse": 8414,
  "Ġresponse": 8415,
  "Ġcosy": 8416,
  "ĠOh": 8417,
  "Ġdiamonds": 8418,
  "Ġbride": 8419,
  "stalk": 8420,
  "Ġreapp": 8421,
  "Ġopport": 8422,
  "Ġhonking": 8423,
  "Ġgarbage": 8424,
  "Ġwhispering": 8425,
  "Ġstretches": 8426,
  "Ġprevented": 8427,
  "erk": 8428,
  "antastic": 8429,
  "Ġwhoever": 8430,
  "Ġodd": 8431,
  "Ġawful": 8432,
  "ĠGray": 8433,
  "alth": 8434,
  "Ġweighs": 8435,
  "Ġjourneys": 8436,
  "Ġawoke": 8437,
  "Brrr": 8438,
  "Ġtraps": 8439,
  "Ġspices": 8440,
  "Ġdragonfly": 8441,
  "off": 8442,
  "Ġborn": 8443,
  "Ġreassured": 8444,
  "Ġclip": 8445,
  "ivia": 8446,
  "Ġstall": 8447,
  "Ġbeanstalk": 8448,
  "Ġargum": 8449,
  "Ġexamining": 8450,
  "Ġdefinitely": 8451,
  "Ġbeetles": 8452,
  "Ġautomobiles": 8453,
  "ĠMaisy": 8454,
  "mine": 8455,
  "ici": 8456,
  "Hop": 8457,
  "Ġvisitors": 8458,
  "Ġstuffing": 8459,
  "Ġplaydate": 8460,
  "Ġwashes": 8461,
  "cie": 8462,
  "broken": 8463,
  "Ġwiser": 8464,
  "Ġcustomer": 8465,
  "uper": 8466,
  "emma": 8467,
  "Rachel": 8468,
  "Ġtravelling": 8469,
  "ĠSofia": 8470,
  "ĠJolly": 8471,
  "ĠFlop": 8472,
  "ouquet": 8473,
  "Ġhairdress": 8474,
  "Ġbouquet": 8475,
  "ĠNurse": 8476,
  "orse": 8477,
  "bble": 8478,
  ",'": 8479,
  "Ġtumbled": 8480,
  "Ġdecoration": 8481,
  "Ġcampfire": 8482,
  "ĠElle": 8483,
  "Ġhonesty": 8484,
  "Ġbud": 8485,
  "vy": 8486,
  "ebecca": 8487,
  "Only": 8488,
  "Ġbomb": 8489,
  "Ġwelcoming": 8490,
  "Ġoffering": 8491,
  "Ġwealth": 8492,
  "Ġtroubles": 8493,
  "Ġoccas": 8494,
  "Ġincreasing": 8495,
  "ĠOt": 8496,
  "ĠJax": 8497,
  "ĠHello": 8498,
  "Ġloudest": 8499,
  "Ġinspired": 8500,
  "Ġtype": 8501,
  "Ġparted": 8502,
  "Ġgroan": 8503,
  "ĠChick": 8504,
  "ĠNutty": 8505,
  "irac": 8506,
  "Ġwhales": 8507,
  "ĠThunder": 8508,
  "ĠRicky": 8509,
  "yl": 8510,
  "Ġdeclared": 8511,
  "Ġcorrectly": 8512,
  "yler": 8513,
  "ooky": 8514,
  "fus": 8515,
  "Ġbeaks": 8516,
  "ĠQuacky": 8517,
  "athan": 8518,
  "Ġcleared": 8519,
  "Ġcowboys": 8520,
  "Ġnuzzled": 8521,
  "ĠDotty": 8522,
  "Ġprizes": 8523,
  "Ġexch": 8524,
  "Finny": 8525,
  "Ġwarmly": 8526,
  "ĠMissile": 8527,
  "Ġrewards": 8528,
  "Ġobeyed": 8529,
  "Ġcustomers": 8530,
  "Should": 8531,
  "Ġsirens": 8532,
  "Ġcomforting": 8533,
  "ĠFel": 8534,
  "shaped": 8535,
  "Ġconnect": 8536,
  "ĠFlappy": 8537,
  "match": 8538,
  "Ġtowns": 8539,
  "ĠMagic": 8540,
  "ĠBingo": 8541,
  "elieve": 8542,
  "Ġrely": 8543,
  "ĠVicky": 8544,
  "Honey": 8545,
  "Ġtrigger": 8546,
  "Ġowns": 8547,
  "Ġinsisting": 8548,
  "Ġfantastic": 8549,
  "Ġbends": 8550,
  "ĠFe": 8551,
  "Ġspoiling": 8552,
  "Ġhairdresser": 8553,
  "Ġsurrendered": 8554,
  "Ġsupporting": 8555,
  "Ġshares": 8556,
  "Ġposes": 8557,
  "Ġpipes": 8558,
  "Ġcleans": 8559,
  "rench": 8560,
  "Sun": 8561,
  "Outside": 8562,
  "Julie": 8563,
  "Ġwrinkled": 8564,
  "ĠCook": 8565,
  "Ġchopped": 8566,
  "Ġrecorder": 8567,
  "Ġmoons": 8568,
  "Ġbeaming": 8569,
  "unes": 8570,
  "ellow": 8571,
  "Beth": 8572,
  "Ġthanking": 8573,
  "Ġsnowy": 8574,
  "ĠWolf": 8575,
  "Ġscurry": 8576,
  "Ġexperien": 8577,
  "Ġenjoyable": 8578,
  "Ġactive": 8579,
  "Ġcoral": 8580,
  "ĠPiggy": 8581,
  "Ġenviron": 8582,
  "Ġdollar": 8583,
  "ĠKevin": 8584,
  "worm": 8585,
  "elope": 8586,
  "Ġloc": 8587,
  "Je": 8588,
  "Ġstreamers": 8589,
  "ĠBub": 8590,
  "udged": 8591,
  "ĠPatty": 8592,
  "ĠMother": 8593,
  "ĠZack": 8594,
  "inger": 8595,
  "Suzy": 8596,
  "Ġexamp": 8597,
  "Ġshorts": 8598,
  "Ġshooed": 8599,
  "Ġenvironment": 8600,
  "Tree": 8601,
  "Ġill": 8602,
  "Ġscent": 8603,
  "Ġbruises": 8604,
  "uster": 8605,
  "Ġgrat": 8606,
  "ĠLuc": 8607,
  "Bo": 8608,
  "Ġhisses": 8609,
  "Ġsteering": 8610,
  "Ġself": 8611,
  "Ġplugged": 8612,
  "ĠElsa": 8613,
  "Ġwarrior": 8614,
  "Ġvisits": 8615,
  "Ġexercises": 8616,
  "screen": 8617,
  "irl": 8618,
  "aptain": 8619,
  "Ġdangers": 8620,
  "Ġcuddles": 8621,
  "ĠRel": 8622,
  "ĠMin": 8623,
  "ĠAr": 8624,
  "Ġunfortunately": 8625,
  "Ġsquished": 8626,
  "Ġsigning": 8627,
  "ĠLight": 8628,
  "bee": 8629,
  "Ray": 8630,
  "Ġpilots": 8631,
  "Ġdisappoint": 8632,
  "munk": 8633,
  "Ġgratitude": 8634,
  "Ġapplauding": 8635,
  "Ġproviding": 8636,
  "ĠMoppy": 8637,
  "alf": 8638,
  "Ġtickles": 8639,
  "Ġting": 8640,
  "ĠRub": 8641,
  "Grow": 8642,
  "Ġstorms": 8643,
  "Ġnights": 8644,
  "Ġjud": 8645,
  "Ġconvinced": 8646,
  "Ġbadger": 8647,
  "ĠElsie": 8648,
  "Ġyoun": 8649,
  "Ġresponsib": 8650,
  "Ġchoosing": 8651,
  "ĠKelly": 8652,
  "Joy": 8653,
  "Ġyoungest": 8654,
  "Ġnearest": 8655,
  "Ġbrains": 8656,
  "Ġactivity": 8657,
  "Abby": 8658,
  "Ġexploded": 8659,
  "Ġcoughed": 8660,
  "Ġarranged": 8661,
  "Claire": 8662,
  "Ġrewarding": 8663,
  "ĠTre": 8664,
  "ĠFly": 8665,
  "pr": 8666,
  "good": 8667,
  "erpiece": 8668,
  "Ġsunscreen": 8669,
  "Ġpeep": 8670,
  "Ġbond": 8671,
  "ĠFloppy": 8672,
  "asers": 8673,
  "Mon": 8674,
  "ĠTweety": 8675,
  "ĠSweet": 8676,
  "ĠKaty": 8677,
  "ĠJoan": 8678,
  "ĠSal": 8679,
  "ilities": 8680,
  "Ġannoying": 8681,
  "sn": 8682,
  "Ġsoapy": 8683,
  "meow": 8684,
  "Splash": 8685,
  "Ġrails": 8686,
  "Ġlaces": 8687,
  "Ġthreads": 8688,
  "Ġtapping": 8689,
  "Ġoffic": 8690,
  "Ġappreciated": 8691,
  "ĠPine": 8692,
  "ĠPhil": 8693,
  "boards": 8694,
  "Ġweighing": 8695,
  "Ġheartbroken": 8696,
  "Ġemerged": 8697,
  "Ġcongratulated": 8698,
  "ĠPick": 8699,
  "Danger": 8700,
  "Ġtin": 8701,
  "ĠSil": 8702,
  "Ġcrocodiles": 8703,
  "Ġclerk": 8704,
  "Ġscram": 8705,
  "Ġattempt": 8706,
  "ĠNancy": 8707,
  "water": 8708,
  "Ahoy": 8709,
  "Ġsnug": 8710,
  "Ġmessed": 8711,
  "Ġexample": 8712,
  "Ġdial": 8713,
  "ĠKay": 8714,
  "ĠAny": 8715,
  "Momma": 8716,
  "Ġhooks": 8717,
  "ĠJonny": 8718,
  "Ġtops": 8719,
  "Ġchipmunk": 8720,
  "Ġsoot": 8721,
  "Ġguarding": 8722,
  "Ġbathed": 8723,
  "Ġmanager": 8724,
  "ĠTippy": 8725,
  "ortunately": 8726,
  "ĠMicroscope": 8727,
  "Friends": 8728,
  "ĠDe": 8729,
  "etah": 8730,
  "Snowy": 8731,
  "Ġmasterpiece": 8732,
  "ĠBaa": 8733,
  "Ġerasers": 8734,
  "Ġtips": 8735,
  "Ġfinishes": 8736,
  "Ġfet": 8737,
  "Ġcommon": 8738,
  "ĠTomorrow": 8739,
  "mbers": 8740,
  "Ġtrotted": 8741,
  "Ġnibbled": 8742,
  "Ġmembers": 8743,
  "Ġdigs": 8744,
  "People": 8745,
  "Ġkinder": 8746,
  "Ġcheetah": 8747,
  "Ġparticularly": 8748,
  "Ġchews": 8749,
  "Ġblond": 8750,
  "ircle": 8751,
  "Ġrips": 8752,
  "Ġbeast": 8753,
  "Lizzy": 8754,
  "Ġargument": 8755,
  "ative": 8756,
  "Ġfaith": 8757,
  "ĠHelping": 8758,
  "Ġearned": 8759,
  "Anne": 8760,
  "Ġobserving": 8761,
  "Ġforgiveness": 8762,
  "ĠJoke": 8763,
  "ĠCici": 8764,
  "chievous": 8765,
  "Ġinstantly": 8766,
  "Ġfishes": 8767,
  "Ġexperienced": 8768,
  "Ġcurl": 8769,
  "Ġcheaper": 8770,
  "ĠJumpy": 8771,
  "Rosie": 8772,
  "Ġmischievous": 8773,
  "Ġgenerosity": 8774,
  "Ġcages": 8775,
  "ĠTwist": 8776,
  "Gr": 8777,
  "Baa": 8778,
  "Ġmeowing": 8779,
  "Ġfoam": 8780,
  "mered": 8781,
  "Cindy": 8782,
  "Ġstores": 8783,
  "Ġgrandd": 8784,
  "ĠAg": 8785,
  "etchup": 8786,
  "Ġmattered": 8787,
  "Ġteles": 8788,
  "Ġpasses": 8789,
  "Ġlimp": 8790,
  "Sque": 8791,
  "Ġsleeps": 8792,
  "iolet": 8793,
  "Ġbreaths": 8794,
  "ordinary": 8795,
  "ettle": 8796,
  "ending": 8797,
  "Ġtrans": 8798,
  "Ġrin": 8799,
  "Ġgasps": 8800,
  "ĠFreddie": 8801,
  "Got": 8802,
  "Ġrumbling": 8803,
  "Ġhatch": 8804,
  "ĠMomma": 8805,
  "over": 8806,
  "abra": 8807,
  "Ġgrassho": 8808,
  "Ġaccomplished": 8809,
  "ĠHopper": 8810,
  "acing": 8811,
  "Ġthump": 8812,
  "Ġtelescope": 8813,
  "Ġstrum": 8814,
  "Ġsmartest": 8815,
  "Ġmats": 8816,
  "Ġwhined": 8817,
  "Ġmoat": 8818,
  "Gina": 8819,
  "Ġscrambled": 8820,
  "Ġjugg": 8821,
  "Ġfarmers": 8822,
  "ĠIce": 8823,
  "Ġdrip": 8824,
  "Robbie": 8825,
  "Ġsyrup": 8826,
  "Ġgardens": 8827,
  "Ġcollapsed": 8828,
  "Ġangrily": 8829,
  "ĠMore": 8830,
  "ouraged": 8831,
  "idey": 8832,
  "Ġvegg": 8833,
  "Ġstyles": 8834,
  "Ġforests": 8835,
  "Ġexperiences": 8836,
  "Ġdiscoveries": 8837,
  "hole": 8838,
  "Ġtor": 8839,
  "Ġmedals": 8840,
  "Ġtypes": 8841,
  "Ġotters": 8842,
  "Ġmeaning": 8843,
  "Ġfaint": 8844,
  "Ġconqu": 8845,
  "ĠDoes": 8846,
  "pit": 8847,
  "adabra": 8848,
  "acock": 8849,
  "Ġsnapping": 8850,
  "Ġhardest": 8851,
  "Ġfif": 8852,
  "ering": 8853,
  "Ġmovements": 8854,
  "Ġexpression": 8855,
  "Ġsurv": 8856,
  "Ġchilly": 8857,
  "Ġbubbly": 8858,
  "Ġaffect": 8859,
  "Pinky": 8860,
  "Ġvests": 8861,
  "Ġunfair": 8862,
  "Ġcourt": 8863,
  "Whenever": 8864,
  "Ġtoothbrush": 8865,
  "Ġscores": 8866,
  "Ġextraordinary": 8867,
  "Never": 8868,
  "Ġattitude": 8869,
  "Ġvibr": 8870,
  "Ġhorri": 8871,
  "Ġbluebird": 8872,
  "ĠMonkey": 8873,
  "mel": 8874,
  "lls": 8875,
  "Mo": 8876,
  "Ġspears": 8877,
  "Ġketchup": 8878,
  "ĠBerry": 8879,
  "Mother": 8880,
  "Ġsooner": 8881,
  "Ġgrasshopper": 8882,
  "Ġbehaviour": 8883,
  "Ġpatches": 8884,
  "Ġhabit": 8885,
  "yd": 8886,
  "erts": 8887,
  "Karen": 8888,
  "Ġpokes": 8889,
  "Ġmomma": 8890,
  "Ġafar": 8891,
  "ĠAshley": 8892,
  "lo": 8893,
  "ieves": 8894,
  "Jacob": 8895,
  "Ġthicker": 8896,
  "Ġscri": 8897,
  "ĠFriend": 8898,
  "Jon": 8899,
  "Ġsqueezes": 8900,
  "Ġslithered": 8901,
  "Ġshrunk": 8902,
  "Ġclassmates": 8903,
  "ĠTerry": 8904,
  "ĠFle": 8905,
  "Ġicky": 8906,
  "Ġprickly": 8907,
  "Ġglittering": 8908,
  "Ġexpert": 8909,
  "Ġtopp": 8910,
  "Ġkneeling": 8911,
  "Ġannounced": 8912,
  "ĠSuper": 8913,
  "ĠRiri": 8914,
  "elling": 8915,
  "Ġpeacock": 8916,
  "Ġmarking": 8917,
  "ctric": 8918,
  "Ġcosts": 8919,
  "ĠCally": 8920,
  "ĠAchoo": 8921,
  "Ġzigzags": 8922,
  "Ġwatermel": 8923,
  "Ġthieves": 8924,
  "Ġskirts": 8925,
  "Ġjumper": 8926,
  "Ġhood": 8927,
  "Ġacts": 8928,
  "ĠZog": 8929,
  "ĠApp": 8930,
  "Ġwolves": 8931,
  "ĠSwim": 8932,
  "ĠCloud": 8933,
  "Papa": 8934,
  "Ġthumbs": 8935,
  "Ġsqueaky": 8936,
  "Ġconcer": 8937,
  "Ġcocoon": 8938,
  "Ġwoodcut": 8939,
  "Ġboards": 8940,
  "ĠEliza": 8941,
  "ĠBecky": 8942,
  "Ġservant": 8943,
  "idence": 8944,
  "affle": 8945,
  "Ġcheating": 8946,
  "ĠJason": 8947,
  "bu": 8948,
  "Ġtrading": 8949,
  "Ġraking": 8950,
  "cat": 8951,
  "Jessie": 8952,
  "Ġexplaining": 8953,
  "ĠEric": 8954,
  "rick": 8955,
  "Ġtidied": 8956,
  "Ġbiscuit": 8957,
  "Ġlunchtime": 8958,
  "Ġluckily": 8959,
  "ĠAc": 8960,
  "anced": 8961,
  "Frog": 8962,
  "ĠPuffy": 8963,
  "Ġspilling": 8964,
  "ĠDay": 8965,
  "Fire": 8966,
  "Ġtransform": 8967,
  "Ġdesserts": 8968,
  "ĠUse": 8969,
  "ĠMaddy": 8970,
  "ĠDaniel": 8971,
  "ĠAnimal": 8972,
  "âĢ¦": 8973,
  "ror": 8974,
  "ĠPig": 8975,
  "ĠMine": 8976,
  "ĠStill": 8977,
  "ĠGill": 8978,
  "rough": 8979,
  "amma": 8980,
  "Ġmessages": 8981,
  "Ġmirac": 8982,
  "ĠCaptain": 8983,
  "idy": 8984,
  "Ġwindowsill": 8985,
  "Ġchill": 8986,
  "Ġbeating": 8987,
  "ĠTammy": 8988,
  "ĠLung": 8989,
  "ĠGilly": 8990,
  "oot": 8991,
  "Ġseeking": 8992,
  "Ġactor": 8993,
  "ĠRainbow": 8994,
  "ĠLina": 8995,
  "ĠWilliam": 8996,
  "sess": 8997,
  "its": 8998,
  "ĠMath": 8999,
  "pril": 9000,
  "Any": 9001,
  "Ġforeshadow": 9002,
  "war": 9003,
  "acles": 9004,
  "Bluey": 9005,
  "Ġleans": 9006,
  "ĠStep": 9007,
  "ĠPinch": 9008,
  "ĠHi": 9009,
  "racadabra": 9010,
  "Freeze": 9011,
  "Bounce": 9012,
  "Ġwatermelon": 9013,
  "Ġhissing": 9014,
  "Ġflashing": 9015,
  "Ġdev": 9016,
  "Ġcloths": 9017,
  "ĠTiger": 9018,
  "ĠMonster": 9019,
  "ĠFrankie": 9020,
  "Ġwinding": 9021,
  "Ġpositive": 9022,
  "Ġfunn": 9023,
  "Ġdiscouraged": 9024,
  "ĠWil": 9025,
  "pop": 9026,
  "Ġwoodcutter": 9027,
  "Ġforts": 9028,
  "Ġdripped": 9029,
  "Ġcompete": 9030,
  "Ġteapot": 9031,
  "Ġpressing": 9032,
  "Ġdisagreeing": 9033,
  "icking": 9034,
  "Ġglimmering": 9035,
  "Ġveggies": 9036,
  "Ġtrusts": 9037,
  "Ġtidying": 9038,
  "Ġkangaroos": 9039,
  "ĠPeep": 9040,
  "Ġtempted": 9041,
  "Ġlanding": 9042,
  "ĠFlora": 9043,
  "Ġdock": 9044,
  "Ġshallow": 9045,
  "Ġoverw": 9046,
  "Ġformed": 9047,
  "lers": 9048,
  "Ġrack": 9049,
  "Ġfade": 9050,
  "ĠTooth": 9051,
  "flowers": 9052,
  "Ġworst": 9053,
  "Ġelectric": 9054,
  "Ġcops": 9055,
  "eling": 9056,
  "Nothing": 9057,
  "Ġapology": 9058,
  "iving": 9059,
  "creams": 9060,
  "ai": 9061,
  "Ġsleds": 9062,
  "ĠSilver": 9063,
  "ĠLife": 9064,
  "upid": 9065,
  "Ġcomets": 9066,
  "Ġass": 9067,
  "Owl": 9068,
  "Ġsav": 9069,
  "ĠShark": 9070,
  "ĠMag": 9071,
  "ĠJelly": 9072,
  "Bug": 9073,
  "Ġsituations": 9074,
  "Ġpapa": 9075,
  "Ġofficers": 9076,
  "Ġconversation": 9077,
  "Ġ4": 9078,
  "Rain": 9079,
  "ĠRoger": 9080,
  "ĠCharlotte": 9081,
  "storm": 9082,
  "aye": 9083,
  "Ġsuns": 9084,
  "Ġding": 9085,
  "âĢĿ,": 9086,
  "Ġzips": 9087,
  "Ġstructures": 9088,
  "Ġscurrying": 9089,
  "Ġpizzas": 9090,
  "Ġoverwhel": 9091,
  "Ġmiller": 9092,
  "ĠButter": 9093,
  "Ġgranddaughter": 9094,
  "Ġfoggy": 9095,
  "ĠOlivia": 9096,
  "ĠHurry": 9097,
  "ĠAmber": 9098,
  "Zoe": 9099,
  "ĠJaney": 9100,
  "Ġwebs": 9101,
  "Ġdeserved": 9102,
  "Rabbit": 9103,
  "Ġopportunity": 9104,
  "Ġcubs": 9105,
  "ĠYummy": 9106,
  "ĠSpidey": 9107,
  "ĠSasha": 9108,
  "ĠMixie": 9109,
  "ĠBuster": 9110,
  "Ġsnorted": 9111,
  "Ġrhino": 9112,
  "Ġdifferences": 9113,
  "ĠGold": 9114,
  "Ġquacking": 9115,
  "ĠTell": 9116,
  "ifully": 9117,
  "ended": 9118,
  "Fifi": 9119,
  "Ġheaven": 9120,
  "ĠBirds": 9121,
  "Ġunlo": 9122,
  "Ġlevers": 9123,
  "Ġinchworm": 9124,
  "Ġinter": 9125,
  "Ġapproach": 9126,
  "ĠTyler": 9127,
  "ssess": 9128,
  "Ġseagulls": 9129,
  "Ġpossess": 9130,
  "Ġcooperate": 9131,
  "ĠRufus": 9132,
  "ĠFelix": 9133,
  "ĠBoom": 9134,
  "welcome": 9135,
  "sers": 9136,
  "ragon": 9137,
  "of": 9138,
  "?âĢĿ.": 9139,
  "andra": 9140,
  "Ġpose": 9141,
  "Ġdisappointment": 9142,
  "ĠSmoke": 9143,
  "ocular": 9144,
  "Ġspeaks": 9145,
  "Ġsneaks": 9146,
  "snap": 9147,
  "Ġbinocular": 9148,
  "Ġartwork": 9149,
  "Ġsurfed": 9150,
  "Ġscowl": 9151,
  "Ġanswering": 9152,
  "ĠSnake": 9153,
  "Ġshortcut": 9154,
  "ĠGrand": 9155,
  "Ġsipped": 9156,
  "Ġrobin": 9157,
  "Ġdep": 9158,
  "Climb": 9159,
  "Ġarrest": 9160,
  "ĠInky": 9161,
  "ssy": 9162,
  "Ġunwrapped": 9163,
  "Ġribbit": 9164,
  "Ġreun": 9165,
  "Ġamused": 9166,
  "ĠAmanda": 9167,
  "ugar": 9168,
  "Ġrepeats": 9169,
  "Ġpepperoni": 9170,
  "Ġapplause": 9171,
  "Ġkeyhole": 9172,
  "Ġcheckout": 9173,
  "ĠMae": 9174,
  "ĠCars": 9175,
  "Lia": 9176,
  "Deal": 9177,
  "Ġvisitor": 9178,
  "Ġstriking": 9179,
  "Ġpuppets": 9180,
  "Ġpaddling": 9181,
  "Eat": 9182,
  "Ġunz": 9183,
  "Ġcroaked": 9184,
  "Ġattacked": 9185,
  "ĠCircle": 9186,
  "ĠBrian": 9187,
  "orsie": 9188,
  "Ġspooky": 9189,
  "ĠOtto": 9190,
  "ĠGus": 9191,
  "Each": 9192,
  "Ġgroaned": 9193,
  "Ġbeautifully": 9194,
  "ĠJean": 9195,
  "gar": 9196,
  "cidents": 9197,
  "Ġswimsuits": 9198,
  "Ġconsider": 9199,
  "Ġchecking": 9200,
  "uses": 9201,
  "ĠYellow": 9202,
  "jest": 9203,
  "Ġwaters": 9204,
  "Ġgroom": 9205,
  "ĠSqueak": 9206,
  "ĠSlinky": 9207,
  "yle": 9208,
  "Ġinvent": 9209,
  "Luke": 9210,
  "Ġnets": 9211,
  "Ġexams": 9212,
  "otion": 9213,
  "ets": 9214,
  "Ġdrying": 9215,
  "ĠRebecca": 9216,
  "udy": 9217,
  "artin": 9218,
  "agine": 9219,
  "Ġshrugs": 9220,
  "Ġlump": 9221,
  "ĠAuntie": 9222,
  "sie": 9223,
  "lest": 9224,
  "Ġsobbing": 9225,
  "Ġshyly": 9226,
  "Ġshoots": 9227,
  "Ġhonks": 9228,
  "Ġheels": 9229,
  "Ġcheerfully": 9230,
  "ĠSince": 9231,
  "ili": 9232,
  "hny": 9233,
  "esses": 9234,
  "Ġshh": 9235,
  "Ġchin": 9236,
  "anish": 9237,
  "Ġwhimpered": 9238,
  "Ġhealthier": 9239,
  "Ġhangs": 9240,
  "icious": 9241,
  "Milo": 9242,
  "ĠMus": 9243,
  "Ġcaterpillars": 9244,
  "izzes": 9245,
  "Slowly": 9246,
  "Ġsquinted": 9247,
  "Ġmagnifying": 9248,
  "Ġfries": 9249,
  "ĠRatty": 9250,
  "Ġfascinating": 9251,
  "Ġblamed": 9252,
  "ĠFind": 9253,
  "ulpture": 9254,
  "ching": 9255,
  "Ġsculpture": 9256,
  "Ġfrustration": 9257,
  "ĠTip": 9258,
  "ouched": 9259,
  "Ġshimmering": 9260,
  "ĠPenelope": 9261,
  "Ġposs": 9262,
  "ĠPeace": 9263,
  "edic": 9264,
  "Sharing": 9265,
  "Ġsuck": 9266,
  "Ġpleas": 9267,
  "Ġnumbered": 9268,
  "Ġnibble": 9269,
  "ĠWaffle": 9270,
  "othy": 9271,
  "ibbles": 9272,
  "ellie": 9273,
  "amil": 9274,
  "Ġflowing": 9275,
  "Ġbaa": 9276,
  "hings": 9277,
  "Pepper": 9278,
  "Ġraked": 9279,
  "Ġgrumbled": 9280,
  "ĠOff": 9281,
  "that": 9282,
  "Bubbles": 9283,
  "Ġbuilder": 9284,
  "racted": 9285,
  "eat": 9286,
  "Ġswaying": 9287,
  "Ġpetting": 9288,
  "Ġguards": 9289,
  "Ġfacing": 9290,
  "ĠWoolly": 9291,
  "Ġsprinkle": 9292,
  "Ġmysteries": 9293,
  "Ġdetails": 9294,
  "ĠHar": 9295,
  "sey": 9296,
  "Ġsnort": 9297,
  "Ġflock": 9298,
  "Ġenemy": 9299,
  "ĠBoat": 9300,
  "Ġtextures": 9301,
  "Ġtablet": 9302,
  "Ġgoodies": 9303,
  "ĠCurious": 9304,
  "ĠBarry": 9305,
  "Yesterday": 9306,
  "Ġwig": 9307,
  "Ġpopping": 9308,
  "Ġwildflowers": 9309,
  "Ġstacks": 9310,
  "Ġmarve": 9311,
  "Ġfans": 9312,
  "Ġcrops": 9313,
  "Ġcountries": 9314,
  "ĠJenn": 9315,
  "ĠGracie": 9316,
  "how": 9317,
  "Ġknobs": 9318,
  "ĠTessa": 9319,
  "ĠSeeing": 9320,
  "Ġlocal": 9321,
  "Ġbushy": 9322,
  "Ġstew": 9323,
  "Ġpeeped": 9324,
  "Ġhunting": 9325,
  "Ġdrowned": 9326,
  "Ġbowing": 9327,
  "Ġbinoculars": 9328,
  "Ġangrier": 9329,
  "ĠBubu": 9330,
  "Ġmaps": 9331,
  "ĠMatch": 9332,
  "Ġquizzes": 9333,
  "Ġniece": 9334,
  "Ġmoonlight": 9335,
  "ĠGlow": 9336,
  "Ġoutfits": 9337,
  "ĠJohnson": 9338,
  "ĠDeal": 9339,
  "OO": 9340,
  "Ġwhoosh": 9341,
  "Ġweaker": 9342,
  "Ġwrench": 9343,
  "Ġmindful": 9344,
  "Ġcrowded": 9345,
  "cycles": 9346,
  "Squ": 9347,
  "Ġendings": 9348,
  "ĠBeef": 9349,
  "oll": 9350,
  "Im": 9351,
  "Ġproperty": 9352,
  "Ġhesitation": 9353,
  "Ġflashes": 9354,
  "amiliar": 9355,
  "Ġunless": 9356,
  "Ġimaginations": 9357,
  "Ġfond": 9358,
  "Ġcarts": 9359,
  "Ġboil": 9360,
  "Ġability": 9361,
  "ĠOxy": 9362,
  "ĠAndrew": 9363,
  "getic": 9364,
  "Ġglared": 9365,
  "ĠRight": 9366,
  "ĠAccidents": 9367,
  "stand": 9368,
  "Ġunfamiliar": 9369,
  "Ġspaces": 9370,
  "Ġmicrow": 9371,
  "Ġknit": 9372,
  "Ġhaven": 9373,
  "Ġfolds": 9374,
  "ths": 9375,
  "saw": 9376,
  "Tuna": 9377,
  "Ġresponsibility": 9378,
  "Ġdirtier": 9379,
  "ĠPet": 9380,
  "bank": 9381,
  "Ġpouch": 9382,
  "Ġmicrowave": 9383,
  "Ġdesks": 9384,
  "ibly": 9385,
  "Bless": 9386,
  "Ġcracker": 9387,
  "rnie": 9388,
  "Ġswapped": 9389,
  "Ġmember": 9390,
  "Ġdate": 9391,
  "Ġaston": 9392,
  "ĠOxygen": 9393,
  "ĠRing": 9394,
  "ĠRavi": 9395,
  "lt": 9396,
  "free": 9397,
  "Want": 9398,
  "Cra": 9399,
  "Ġwhine": 9400,
  "Ġsoftened": 9401,
  "Ġrebu": 9402,
  "Ġdoorstep": 9403,
  "Ġdisappearing": 9404,
  "ĠPeggy": 9405,
  "ĠHelen": 9406,
  "ĠBun": 9407,
  "Ġquacks": 9408,
  "Ġnatur": 9409,
  "ĠChip": 9410,
  "scar": 9411,
  "Ġwriter": 9412,
  "Ġlistener": 9413,
  "ĠToo": 9414,
  "ĠFix": 9415,
  "Ġpriv": 9416,
  "Ġblushed": 9417,
  "ĠSpicy": 9418,
  "venir": 9419,
  "Ġpalms": 9420,
  "Ġnoticing": 9421,
  "upt": 9422,
  "repe": 9423,
  "poison": 9424,
  "Ġsouvenir": 9425,
  "ĠPast": 9426,
  "repeat": 9427,
  "entr": 9428,
  "Ġlaws": 9429,
  "Ġdisaster": 9430,
  "ĠTra": 9431,
  "ĠRes": 9432,
  "ĠGabby": 9433,
  "str": 9434,
  "reg": 9435,
  "endant": 9436,
  "Robby": 9437,
  "Ġphones": 9438,
  "ala": 9439,
  "Ava": 9440,
  "Ġconfidence": 9441,
  "ĠLi": 9442,
  "ĠCoal": 9443,
  "ĠCut": 9444,
  "ĠBert": 9445,
  "Ġtimid": 9446,
  "Ġstirs": 9447,
  "Ġoverwhelmed": 9448,
  "ingly": 9449,
  "Being": 9450,
  "Ġmayor": 9451,
  "Ġflick": 9452,
  "guess": 9453,
  "asmine": 9454,
  "Che": 9455,
  "Ġtugging": 9456,
  "ĠPretty": 9457,
  "ĠMole": 9458,
  "lor": 9459,
  "Ġuntangle": 9460,
  "Ġsatisfa": 9461,
  "Ġowls": 9462,
  "Ġmailing": 9463,
  "Ġinjured": 9464,
  "Whose": 9465,
  "Ġsatisfaction": 9466,
  "Ġconcentr": 9467,
  "ĠWhite": 9468,
  "ĠImmediately": 9469,
  "ĠBooks": 9470,
  "Fly": 9471,
  "ĠMarch": 9472,
  "ĠAnimals": 9473,
  "mers": 9474,
  "Sc": 9475,
  "Mittens": 9476,
  "Ġlim": 9477,
  "ĠEat": 9478,
  "this": 9479,
  "Mabel": 9480,
  "Ġprank": 9481,
  "ĠWonder": 9482,
  "ĠNora": 9483,
  "ĠBonnie": 9484,
  "Wiggly": 9485,
  "Ġhooves": 9486,
  "ĠTriangle": 9487,
  "ĠRun": 9488,
  "ĠPot": 9489,
  "ĠMelissa": 9490,
  "ĠKn": 9491,
  "well": 9492,
  "Jeff": 9493,
  "Ġfixer": 9494,
  "ĠStartled": 9495,
  "ĠSir": 9496,
  "ĠClean": 9497,
  "ĠClose": 9498,
  "icate": 9499,
  "Ġsnar": 9500,
  "Ġclut": 9501,
  "lish": 9502,
  "bling": 9503,
  "Excited": 9504,
  "Ġskies": 9505,
  "Ġinstrument": 9506,
  "ĠTrucky": 9507,
  "Ġcapt": 9508,
  "ĠMatilda": 9509,
  "ĠHorsie": 9510,
  "ĠFaye": 9511,
  "adually": 9512,
  "Ġdisagre": 9513,
  "iky": 9514,
  "Ġwriggled": 9515,
  "Ġstains": 9516,
  "Ġrinse": 9517,
  "Ġpecks": 9518,
  "Ġcreak": 9519,
  "ĠSleepy": 9520,
  "Susan": 9521,
  "Ġshave": 9522,
  "Ġbumping": 9523,
  "ĠSing": 9524,
  "ĠIcy": 9525,
  "ĠHeli": 9526,
  "ĠCrabby": 9527,
  "ulf": 9528,
  "Ġswirl": 9529,
  "Ġruff": 9530,
  "Ġbending": 9531,
  "cessary": 9532,
  "Playing": 9533,
  "Close": 9534,
  "Ġsandpit": 9535,
  "Ġexploration": 9536,
  "Ġchatted": 9537,
  "ĠScissors": 9538,
  "Make": 9539,
  "Ġrods": 9540,
  "Ġlever": 9541,
  "Ġfacts": 9542,
  "Sm": 9543,
  "Ġattaching": 9544,
  "ĠCandy": 9545,
  "Ġfooled": 9546,
  "Ġburger": 9547,
  "ĠBro": 9548,
  "Ġglows": 9549,
  "Ġconcerned": 9550,
  "Ġclearly": 9551,
  "Maya": 9552,
  "Ġsalon": 9553,
  "Ġreversing": 9554,
  "Ġlava": 9555,
  "Ġcompan": 9556,
  "Ġcertainly": 9557,
  "els": 9558,
  "Wally": 9559,
  "Ġsmelt": 9560,
  "Ġmotorcycles": 9561,
  "Ġfetched": 9562,
  "Ġcirc": 9563,
  "Ġtroll": 9564,
  "Ġtunes": 9565,
  "Ġsometime": 9566,
  "Ġprod": 9567,
  "Ġoldest": 9568,
  "Ġfireflies": 9569,
  "Ring": 9570,
  "Ġkissing": 9571,
  "Ġchallenges": 9572,
  "Ġblonde": 9573,
  "Kayla": 9574,
  "Ġwarmed": 9575,
  "ĠBobbie": 9576,
  "Ġunlocking": 9577,
  "Ġnatural": 9578,
  "Ġdifferently": 9579,
  "Ġbound": 9580,
  "ĠLots": 9581,
  "urple": 9582,
  "sa": 9583,
  "erg": 9584,
  "Tara": 9585,
  "Dino": 9586,
  "Abracadabra": 9587,
  "Ġrubb": 9588,
  "Ġriverbank": 9589,
  "Ġdetect": 9590,
  "Ġcutter": 9591,
  "Ġcupcake": 9592,
  "Ġconquered": 9593,
  "Ġhates": 9594,
  "Ġalley": 9595,
  "ĠFlap": 9596,
  "sorry": 9597,
  "Ġswirls": 9598,
  "Ġsends": 9599,
  "Ġrealise": 9600,
  "ĠOpen": 9601,
  "ĠFlopsy": 9602,
  "Julia": 9603,
  "Isn": 9604,
  "Ġwiggling": 9605,
  "Ġsensation": 9606,
  "Ġmunched": 9607,
  "Ġbanging": 9608,
  "ĠCammy": 9609,
  "Ġtoppings": 9610,
  "Ġhippos": 9611,
  "Ġfist": 9612,
  "Ġclips": 9613,
  "ĠReliable": 9614,
  "Doctor": 9615,
  "Ġswayed": 9616,
  "Ġstings": 9617,
  "Ġrobe": 9618,
  "Ġmiracle": 9619,
  "Ġhalves": 9620,
  "Ġbrakes": 9621,
  "ĠGreeny": 9622,
  "Hope": 9623,
  "Fish": 9624,
  "Ġsurvive": 9625,
  "Ġostriches": 9626,
  "ĠPink": 9627,
  "ĠClimb": 9628,
  "ula": 9629,
  "keepers": 9630,
  "bert": 9631,
  "Michael": 9632,
  "Ġtorto": 9633,
  "Ġotherwise": 9634,
  "Ġembra": 9635,
  "Ġcrushed": 9636,
  "Ġbubbling": 9637,
  "Ġtents": 9638,
  "ĠLooking": 9639,
  "ani": 9640,
  "Ġrepairing": 9641,
  "ĠOf": 9642,
  "Ġvinegar": 9643,
  "Ġstretchy": 9644,
  "Ġrubbish": 9645,
  "Ġlizards": 9646,
  "ĠWorking": 9647,
  "ĠFlicker": 9648,
  "Ġpassenger": 9649,
  "ĠEd": 9650,
  "aste": 9651,
  "Many": 9652,
  "Ġvibrant": 9653,
  "Ġtortoise": 9654,
  "Ġpounced": 9655,
  "ĠWhich": 9656,
  "Suzie": 9657,
  "Ġscene": 9658,
  "ĠRh": 9659,
  "ĠGrump": 9660,
  "gr": 9661,
  "Ġmooed": 9662,
  "Ġglided": 9663,
  "Ġdesperately": 9664,
  "Ġbas": 9665,
  "Ġsnip": 9666,
  "Ġpoop": 9667,
  "Ġmajest": 9668,
  "Ġintently": 9669,
  "Ġcopied": 9670,
  "Ġcalmer": 9671,
  "ĠSundays": 9672,
  "ĠLightning": 9673,
  "rap": 9674,
  "net": 9675,
  "Ġwoken": 9676,
  "Ġtwel": 9677,
  "Ġrags": 9678,
  "Ġjudges": 9679,
  "Ġjoyfully": 9680,
  "Ġjing": 9681,
  "Ġcoolest": 9682,
  "ĠPer": 9683,
  "smelling": 9684,
  "Ġlectures": 9685,
  "Ġglob": 9686,
  "ĠJody": 9687,
  "lyn": 9688,
  "isible": 9689,
  "Ġhips": 9690,
  "Ġcousins": 9691,
  "Ġastonished": 9692,
  "Ġcapes": 9693,
  "ĠOutside": 9694,
  "ĠLu": 9695,
  "uno": 9696,
  "Eww": 9697,
  "Ġsuccessfully": 9698,
  "Ġspeaker": 9699,
  "Ġreunited": 9700,
  "Ġinvisible": 9701,
  "Ġguesses": 9702,
  "Ġgooey": 9703,
  "Ġarrives": 9704,
  "why": 9705,
  "Ġtwelve": 9706,
  "Ġbats": 9707,
  "urity": 9708,
  "Mikey": 9709,
  "Ġgoodness": 9710,
  "Ġcomputers": 9711,
  "Ġchatting": 9712,
  "ĠCarla": 9713,
  "nded": 9714,
  "mie": 9715,
  "Ġstacking": 9716,
  "Ġsnowflake": 9717,
  "istory": 9718,
  "Ġreappeared": 9719,
  "Ġracer": 9720,
  "Ġpounds": 9721,
  "Ġparks": 9722,
  "Ġdesperate": 9723,
  "Ġcompanion": 9724,
  "Ġcommun": 9725,
  "bed": 9726,
  "Zigzag": 9727,
  "Ol": 9728,
  "Ġluckiest": 9729,
  "Ġlevel": 9730,
  "Ġdou": 9731,
  "Ġank": 9732,
  "Ġtale": 9733,
  "Ġstomachs": 9734,
  "Ġsells": 9735,
  "Ġgall": 9736,
  "Ġdumb": 9737,
  "Ġcrickets": 9738,
  "ĠSugar": 9739,
  "iggles": 9740,
  "Nick": 9741,
  "Ġwinds": 9742,
  "Ġsus": 9743,
  "Ġgates": 9744,
  "Ġdisobeyed": 9745,
  "Ġdisagreement": 9746,
  "ĠSteven": 9747,
  "hile": 9748,
  "More": 9749,
  "Ġpearls": 9750,
  "Ġhoses": 9751,
  "Ġcrisp": 9752,
  "Ġawhile": 9753,
  "ĠWhee": 9754,
  "ites": 9755,
  "Lou": 9756,
  "Ġsoda": 9757,
  "Ġpopsic": 9758,
  "Ġloyalty": 9759,
  "ĠOrange": 9760,
  "Linda": 9761,
  "Ġtongues": 9762,
  "ĠRosa": 9763,
  "usion": 9764,
  "rent": 9765,
  "Ġrider": 9766,
  "ĠCD": 9767,
  "Ooh": 9768,
  "ĠBlack": 9769,
  "pan": 9770,
  "Ġsurely": 9771,
  "Ġabo": 9772,
  "ĠLaw": 9773,
  "ĠAnnabelle": 9774,
  "des": 9775,
  "colored": 9776,
  "Ġoccasion": 9777,
  "Ġbund": 9778,
  "rum": 9779,
  "izza": 9780,
  "dog": 9781,
  "!âĢĻ": 9782,
  "Ġstun": 9783,
  "Ġguitars": 9784,
  "Ġchicks": 9785,
  "chief": 9786,
  "Ġseparating": 9787,
  "Ġseashe": 9788,
  "Ġrebuild": 9789,
  "Ġintelligence": 9790,
  "Ġalligators": 9791,
  "Ġaboard": 9792,
  "ĠRaven": 9793,
  "ĠIron": 9794,
  "ĠApril": 9795,
  "Found": 9796,
  "Ġcroak": 9797,
  "Ġcreep": 9798,
  "ĠWinky": 9799,
  "ĠViolet": 9800,
  "aids": 9801,
  "Something": 9802,
  "Catch": 9803,
  "Ġlearner": 9804,
  "Ġcaution": 9805,
  "Ġcuc": 9806,
  "ĠOld": 9807,
  "ĠCare": 9808,
  "solut": 9809,
  "Ġwhines": 9810,
  "Ġspiky": 9811,
  "Ġrevealing": 9812,
  "Ġrins": 9813,
  "ĠUni": 9814,
  "working": 9815,
  "Ġtickling": 9816,
  "Ġescap": 9817,
  "ĠSettle": 9818,
  "Ġunderwater": 9819,
  "Ġglobe": 9820,
  "Ġcrouched": 9821,
  "ĠRoar": 9822,
  "ĠCoby": 9823,
  "ĠBa": 9824,
  "udge": 9825,
  "everse": 9826,
  "!'.": 9827,
  "Ġprog": 9828,
  "Ġblooms": 9829,
  "Ġappearance": 9830,
  "Ġ''": 9831,
  "urricane": 9832,
  "stop": 9833,
  "seph": 9834,
  "ifer": 9835,
  "fived": 9836,
  "Jan": 9837,
  "Ġstrokes": 9838,
  "Ġleaking": 9839,
  "Ġhatched": 9840,
  "Ġguardian": 9841,
  "ĠSocky": 9842,
  "ealing": 9843,
  "arning": 9844,
  "Ġzookeepers": 9845,
  "Ġtant": 9846,
  "Ġroutine": 9847,
  "Ġpersistence": 9848,
  "Ġdoves": 9849,
  "Snap": 9850,
  "Sleep": 9851,
  "Chicky": 9852,
  "Ġtaps": 9853,
  "Ġsquashes": 9854,
  "Ġquilt": 9855,
  "Ġpainful": 9856,
  "Ġlighting": 9857,
  "Ġblame": 9858,
  "Ġadmit": 9859,
  "Toys": 9860,
  "Ahh": 9861,
  "Ġtempting": 9862,
  "Ġshattered": 9863,
  "Ġripp": 9864,
  "Ġmold": 9865,
  "Ġdeeply": 9866,
  "ĠPuff": 9867,
  "ggles": 9868,
  "Three": 9869,
  "Ralph": 9870,
  "Matt": 9871,
  "Ġthrone": 9872,
  "Ġsquirted": 9873,
  "Ġsecurity": 9874,
  "Ġpeeks": 9875,
  "Ġelectricity": 9876,
  "Ġcentre": 9877,
  "Ġburgers": 9878,
  "ĠSpin": 9879,
  "emon": 9880,
  "con": 9881,
  "Ġrealizing": 9882,
  "Ġcooks": 9883,
  "Ġallowing": 9884,
  "ĠLiam": 9885,
  "ushes": 9886,
  "orth": 9887,
  "oss": 9888,
  "cker": 9889,
  "Jessica": 9890,
  "Ġlar": 9891,
  "Ġexchange": 9892,
  "Ġchopping": 9893,
  "Share": 9894,
  "Sophia": 9895,
  "Ġsweetly": 9896,
  "ĠRace": 9897,
  "ĠQuickly": 9898,
  "ĠAlf": 9899,
  "vering": 9900,
  "Ġsweeter": 9901,
  "Ġrinsed": 9902,
  "Ġglittered": 9903,
  "isapp": 9904,
  "Zero": 9905,
  "Sw": 9906,
  "Ġmelts": 9907,
  "Ġmelody": 9908,
  "Ġgoggles": 9909,
  "Ġfurious": 9910,
  "Ġenergetic": 9911,
  "Ġdefeated": 9912,
  "Ġbuilders": 9913,
  "ĠInch": 9914,
  "asy": 9915,
  "Ġwaded": 9916,
  "Ġtantrum": 9917,
  "Ġsniffled": 9918,
  "Ġchooses": 9919,
  "ĠOtherwise": 9920,
  "ĠCats": 9921,
  "ĠComet": 9922,
  "Ġcontainer": 9923,
  "Ġcompeting": 9924,
  "ĠGiant": 9925,
  "eremy": 9926,
  "bang": 9927,
  "ĠSharp": 9928,
  "ĠMila": 9929,
  "arted": 9930,
  "Ġundone": 9931,
  "Ġseriously": 9932,
  "Ġprotection": 9933,
  "Ġlarger": 9934,
  "Ġlull": 9935,
  "Ġhudd": 9936,
  "Ġattempts": 9937,
  "ĠRara": 9938,
  "ĠPark": 9939,
  "ĠDuke": 9940,
  "Shoo": 9941,
  "Lizzie": 9942,
  "Ġtossing": 9943,
  "Ġhelicopters": 9944,
  "Ġcooed": 9945,
  "Ġcluck": 9946,
  "Ġbuckles": 9947,
  "ĠWhale": 9948,
  "ĠPinchy": 9949,
  "ĠCher": 9950,
  "Sweet": 9951,
  "ĠTears": 9952,
  "ĠSmo": 9953,
  "ĠOver": 9954,
  "solutely": 9955,
  "Still": 9956,
  "Squeaky": 9957,
  "Ġhummed": 9958,
  "Ġdedic": 9959,
  "Ġcourageous": 9960,
  "ĠMa": 9961,
  "ĠHor": 9962,
  "ĠDin": 9963,
  "Maddy": 9964,
  "Everything": 9965,
  "Curious": 9966,
  "Ġracers": 9967,
  "Ġpatients": 9968,
  "Ġmuster": 9969,
  "Ġgod": 9970,
  "Ġdeserves": 9971,
  "Ġaloud": 9972,
  "ĠThings": 9973,
  "aps": 9974,
  "Use": 9975,
  "ĠSquee": 9976,
  "ĠDragon": 9977,
  "Ġtours": 9978,
  "Ġmeets": 9979,
  "Ġmarvel": 9980,
  "ĠRusty": 9981,
  "ĠLiza": 9982,
  "ĠJet": 9983,
  "Froggy": 9984,
  "Ġwrapper": 9985,
  "ĠReddy": 9986,
  "ĠHops": 9987,
  "ĠCrusty": 9988,
  "Ġwhiskers": 9989,
  "Ġnicest": 9990,
  "Ġimproving": 9991,
  "Ġbooth": 9992,
  "ĠLand": 9993,
  "Surrender": 9994,
  "Rocky": 9995,
  "Ġmeadows": 9996,
  "Ġimaginary": 9997,
  "Ġbold": 9998,
  "<|endoftext|>": 9999
}